03
0A
71
78
00
7B
00
00
00
0B
02
02
75
0B
00
7D
00
76
79
78
02
00
04
7B
16
77
02
7F
08
7C
02
7B
02
77
08
69
7A
06
72
00
00
0A
76
7F
7D
7B
04
0B
05
76
7B
72
79
7B
0E
01
78
1B
7E
7B
12
02
02
05
00
74
7C
09
01
7E
7A
79
7E
01
14
08
03
78
00
01
29
7A
7B
77
00
7E
06
06
01
01
7B
0F
03
7D
00
7A
01
7D
1E
05
7E
79
03
79
76
7A
0F
7E
0C
01
72
01
7C
20
7C
7A
7C
7F
6C
7C
7D
00
00
04
7F
7D
21
77
20
74
09
72
07
00
7F
05
03
7A
7C
03
00
00
7C
73
0C
00
00
00
01
13
77
03
75
00
09
05
73
00
7F
0B
01
79
77
0C
05
04
0A
7A
71
01
7F
74
79
7E
71
01
7C
04
00
7C
78
78
79
7D
06
0D
7E
7E
01
03
04
74
05
77
03
7B
7C
77
05
7B
03
74
09
09
04
7B
7A
08
02
73
06
7F
10
7C
77
72
79
7D
02
15
75
7F
13
05
7E
74
07
78
10
7E
14
7C
00
7D
13
74
7E
7D
1D
01
7F
77
01
02
11
7E
08
0B
73
7A
7A
09
0E
6B
74
71
07
06
79
7E
07
72
00
7B
00
06
02
04
72
7A
7C
78
02
11
09
7C
04
7C
7F
7F
7A
7D
06
7F
0F
77
00
0E
00
00
05
14
77
79
76
7C
0B
7C
07
77
16
04
14
7D
78
00
7E
7E
7B
00
7E
00
00
72
73
15
01
06
07
05
7D
77
77
7D
00
05
08
00
7A
7D
7B
73
00
0C
00
00
7A
08
00
07
02
0D
70
08
08
78
73
7E
7D
7B
05
7E
6E
7C
7D
7F
7F
05
04
00
7E
74
02
15
09
7B
01
00
79
0C
14
7C
00
00
7F
00
0E
00
15
05
7F
7D
79
7B
00
00
04
04
03
04
00
00
7E
0C
79
7A
0B
09
03
77
7D
7A
72
07
15
00
77
05
1B
07
01
04
04
00
01
75
0C
0A
11
00
79
00
0C
78
79
78
00
00
06
04
0C
23
78
02
0B
7C
7B
01
71
1B
00
73
03
7B
7C
76
11
02
7B
02
77
08
02
02
01
7A
7D
00
70
05
00
06
0D
7E
15
7A
02
05
01
06
7F
05
00
73
7E
02
71
7F
08
7B
76
00
00
01
6F
00
00
75
00
7B
78
18
71
10
03
0A
77
77
04
0B
7E
03
7A
04
7E
7E
77
7D
7E
09
03
7F
10
03
0F
7F
00
77
00
7B
00
76
79
76
04
0F
00
0C
05
0E
05
10
7F
00
06
08
74
05
01
09
03
01
02
02
05
04
01
00
0D
7F
7F
00
7A
02
01
77
06
7D
0D
0D
77
77
01
14
7A
0C
0F
07
04
6B
7D
78
17
0B
08
7D
00
00
7E
16
77
00
7A
0C
04
18
00
05
07
02
00
02
15
7E
04
78
00
0E
77
0F
0E
7E
09
68
7F
11
00
08
0F
04
0F
7D
74
07
7C
03
06
00
01
74
78
08
05
00
7D
02
03
7B
05
04
0D
7F
0D
02
00
78
00
0F
04
02
05
78
7E
08
07
00
03
7B
04
09
7F
7B
04
00
01
10
06
00
73
12
0C
01
79
74
0A
00
07
75
0C
00
01
0A
77
0D
04
09
7D
7C
03
78
0B
75
02
73
00
09
0D
19
02
74
00
76
02
09
78
02
6D
7B
0A
0B
0B
00
03
13
76
7E
0B
05
6F
0A
03
0A
09
10
00
76
02
08
07
0F
09
7F
7D
11
0C
04
7F
7E
0C
07
00
07
05
0F
7F
0B
04
05
7C
07
0C
07
0F
7F
76
02
07
07
0F
6D
7A
02
0A
0D
7E
7A
00
0E
73
02
13
05
7F
73
64
0B
05
06
12
78
08
0B
73
06
03
01
00
7B
0A
00
79
77
76
03
01
07
0E
74
08
78
03
01
0D
0B
06
7F
78
07
03
06
00
00
06
1D
08
07
7E
79
04
06
03
7B
77
08
7F
7F
09
00
05
04
7C
00
7F
01
7C
7D
0E
7A
04
04
1B
00
75
75
7E
7A
00
7A
11
00
08
05
7E
0D
78
06
00
00
02
79
00
00
7D
0D
0D
17
7A
00
0E
13
79
0A
09
05
0D
08
0D
00
76
7B
18
01
7A
0A
05
00
01
04
00
7D
0E
74
7F
7C
00
00
02
00
08
00
0A
03
77
7E
7E
13
00
00
01
0E
00
7A
00
07
7E
0D
7F
02
00
7E
02
01
77
09
10
7B
7D
00
05
6C
78
03
7D
0A
04
00
7C
0A
01
68
0F
0C
78
00
03
0D
10
0E
00
00
01
02
02
7E
07
79
7B
7C
7B
7B
7F
1B
00
07
7C
02
02
72
0E
08
0D
77
05
77
03
05
09
07
00
00
0D
7A
00
04
7F
7E
0F
0B
0B
76
04
00
72
02
00
17
10
06
78
78
07
03
11
00
00
7D
0D
00
00
78
08
72
0A
0B
03
07
7C
01
05
7D
06
7B
01
06
06
7D
03
00
10
03
05
7F
7B
7E
00
00
00
00
00
00
00
00
00
00
00
00
00
00
00
00
00
00
00
00
00
00
00
00
00
00
00
00
00
00
00
00
00
00
00
00
00
00
00
00
00
00
00
00
00
00
00
00
00
00
00
00
00
00
00
00
00
00
00
00
00
00
00
00
00
00
00
00
00
00
00
00
00
00
00
00
00
00
00
00
00
00
00
00
00
00
00
00
00
00
00
00
00
00
00
00
00
00
00
00
00
00
00
00
00
00
00
00
00
00
00
00
00
00
00
00
00
00
00
00
00
00
00
00
00
00
00
00
00
00
00
00
00
00
00
00
00
00
00
00
00
00
00
00
00
00
00
00
00
00
00
00
00
00
00
00
00
00
00
00
00
00
00
00
00
00
00
00
00
00
00
00
00
00
00
00
00
00
00
00
00
00
00
00
00
00
00
00
00
00
00
00
00
00
00
00
00
00
00
00
00
00
00
00
00
00
00
00
00
00
00
00
00
00
00
00
00
00
00
00
00
00
00
00
00
00
00
00
00
00
00
00
00
00
00
00
00
00
00
00
00
00
00
00
00
00
00
00
00
00
00
00
00
00
00
00
00
00
00
00
00
00
00
00
00
00
00
00
00
00
00
00
00
00
00
00
00
00
00
00
00
00
00
00
00
00
00
00
00
00
00
00
00
00
00
00
00
00
00
00
00
00
00
00
00
00
00
00
00
00
00
00
00
00
00
00
00
00
00
00
00
00
00
00
00
00
00
00
00
00
00
00
00
00
00
00
00
00
00
00
00
00
00
00
00
00
00
00
00
00
00
00
00
00
00
00
00
00
00
00
00
00
00
00
00
00
00
00
00
00
00
00
00
00
00
00
00
00
00
00
00
00
00
00
00
00
00
00
00
00
00
00
00
00
00
00
00
00
00
00
00
00
00
00
00
00
00
00
00
00
00
00
00
00
00
00
00
00
00
00
00
00
00
00
00
00
00
00
00
00
00
00
00
00
00
00
00
00
00
00
00
00
00
00
00
00
00
00
00
00
00
00
00
00
00
00
00
00
00
00
00
00
00
00
00
00
00
00
00
00
00
00
00
00
00
00
00
00
00
00
00
00
00
00
00
00
00
00
00
00
00
00
00
00
00
00
00
00
00
00
00
00
00
00
00
00
00
00
00
00
00
00
18
00
03
7E
00
7E
00
70
00
02
03
15
09
6B
00
01
06
72
77
02
7A
00
07
7A
6D
7E
09
05
7B
7A
7A
02
03
79
0F
11
6B
11
09
00
78
18
05
7B
72
7C
78
73
7E
78
06
7F
7F
09
7E
03
0F
72
7F
74
6E
12
66
7A
00
70
7B
15
7F
76
77
03
7D
0A
7A
03
7C
04
00
78
01
03
00
7C
00
76
7D
04
03
01
00
01
78
01
00
0C
01
71
72
06
0B
05
74
05
79
06
7D
07
06
7D
03
77
7C
60
06
7B
7F
79
74
04
7B
76
00
71
00
07
79
06
7C
08
72
03
7C
00
0D
7D
7E
7D
00
07
70
00
06
06
75
00
78
6A
7E
07
72
0F
73
00
7D
17
79
00
79
7C
7A
04
07
76
73
6E
66
7E
09
03
7D
76
00
0B
07
6B
00
08
00
0A
7D
0C
7A
76
1A
75
00
02
0D
17
75
0D
04
19
00
7B
0F
7A
02
09
79
07
7C
01
7E
14
77
13
7C
04
02
79
76
7A
0C
7E
7A
7B
7B
7F
7F
79
7D
65
7D
7E
7E
69
6C
7B
7D
7F
78
7E
70
03
78
0B
7F
06
01
0A
7B
75
70
08
08
7D
73
75
01
71
1D
7F
00
09
7A
7A
75
76
7D
7D
77
06
00
02
0C
7D
03
78
02
06
7F
7A
7F
02
09
01
07
07
6B
70
7F
01
07
72
0A
6E
7D
00
07
02
02
76
7A
7E
78
03
0B
05
06
03
6A
7B
04
00
7F
71
7B
00
79
7D
77
02
7D
6A
06
54
6E
00
04
06
07
7E
00
7D
78
00
05
07
73
76
7B
79
00
00
01
0C
00
10
7E
0E
6C
68
0C
00
7C
76
10
0B
7D
01
7F
7F
04
7B
7B
77
0C
6C
7D
0D
7F
02
05
00
05
78
06
02
69
7C
00
00
01
00
7B
00
6F
0B
7B
12
00
10
00
00
00
6F
7F
7C
00
6B
02
09
03
03
5A
0A
7A
01
78
7E
6D
00
78
00
02
15
7D
6B
76
08
03
00
7B
78
0F
0B
74
7F
7F
00
01
7B
7E
70
00
00
06
77
0E
05
01
7E
09
79
76
0B
10
7B
00
6B
08
7F
78
00
62
0B
03
7A
04
08
0C
00
05
00
79
00
05
08
00
00
7C
04
7F
0F
01
7D
09
7E
76
0D
00
00
7C
05
77
76
02
7A
7D
00
00
0C
7F
00
00
12
03
7B
0B
05
05
0F
7F
13
6E
01
77
7C
00
7F
01
7C
0C
00
00
7E
00
01
7E
03
0F
7E
02
09
00
03
00
77
00
06
03
7D
6E
09
00
04
08
0A
02
02
79
00
0D
79
7F
79
02
7A
72
05
04
7D
7F
77
7A
69
09
05
06
00
78
06
1B
7F
7F
02
77
00
7E
04
7A
0F
7E
7F
68
0C
0A
7C
03
02
6F
0D
72
03
00
03
0A
0D
77
08
70
06
04
23
00
73
04
03
00
04
68
03
7A
79
00
0A
7A
78
07
08
7B
6E
04
01
00
01
05
7A
00
00
7B
78
7E
03
7A
0A
7A
01
05
78
75
7E
75
18
7D
7B
75
0D
10
07
0B
7B
00
7C
06
05
02
04
05
7C
05
70
0D
00
0B
7E
7A
0D
0D
04
7C
00
0F
09
7A
00
01
7E
05
72
7D
7B
6B
00
6F
6E
72
00
7F
76
04
01
75
74
7E
7B
05
7A
0E
7B
05
6B
7A
08
13
6B
78
7A
00
04
01
0D
05
7E
71
76
08
09
0A
7E
71
7B
0A
02
7F
7B
6D
72
79
02
01
7A
0A
76
60
7A
79
05
00
06
78
18
00
03
79
05
7D
7F
7D
76
10
7C
76
07
00
0C
08
02
0E
7B
61
02
02
09
6C
7E
04
7D
7E
04
02
0C
77
7C
03
04
7E
03
7C
7F
7E
00
76
70
75
71
73
7E
7E
0E
72
6D
08
7E
00
7A
03
0B
01
79
00
06
01
6F
7F
09
7E
06
01
06
78
6A
0F
04
03
04
79
7A
01
00
00
0B
03
04
6A
7D
7D
07
05
7F
77
0D
6D
03
7D
00
01
1A
02
00
08
7B
7E
6B
1C
6D
7D
65
23
06
09
75
7B
05
00
77
06
00
07
06
79
74
00
7D
00
00
7C
78
00
04
7D
7D
7A
05
67
79
0B
03
66
03
06
7C
72
01
03
7E
7E
79
05
7A
71
02
03
70
0D
08
79
7F
01
06
07
01
00
00
04
00
12
00
7A
77
05
05
00
0C
00
00
00
02
03
02
00
77
02
08
06
03
6A
03
03
04
06
0B
71
0D
77
00
0F
68
02
5C
09
05
04
00
09
0B
04
7E
12
08
7B
00
0E
74
78
05
00
00
7B
7F
6E
00
7C
04
03
01
05
07
73
6C
00
04
02
01
75
01
10
08
05
79
7B
02
06
7E
04
05
01
00
1F
70
00
0A
06
04
74
06
04
00
07
7B
65
09
00
0E
08
07
7F
7C
7F
7D
6C
00
00
05
1C
00
00
07
0A
01
00
7B
0E
06
7F
0A
78
01
78
05
03
0A
04
79
79
7F
79
7F
0C
0D
75
03
7C
7E
18
7B
00
02
00
7C
00
78
76
75
7E
0B
00
77
09
66
7F
07
07
00
03
0D
77
0D
02
0B
7D
00
00
03
06
79
20
16
6F
76
05
00
02
78
0D
75
06
7C
04
01
7D
7E
6F
75
76
0B
79
7B
0D
04
03
7B
75
79
07
01
00
04
7F
06
7D
76
00
00
0A
08
7B
6B
73
02
00
07
00
77
03
03
00
0D
79
7B
06
7D
7D
01
03
73
00
02
0A
74
04
03
0D
0D
78
7C
03
6F
03
77
7C
05
0D
05
03
7F
03
00
7C
75
79
01
07
00
00
68
0E
0B
6F
09
69
07
10
05
7E
00
00
7F
75
08
7C
03
7D
00
03
0E
71
00
01
00
05
7E
04
6C
17
00
7D
78
05
00
00
71
7F
79
7C
7D
03
75
03
7C
7C
6C
03
04
74
03
67
71
7F
02
00
07
75
06
77
07
13
6E
03
01
00
12
78
04
13
16
02
7D
1D
07
04
78
09
05
76
7B
01
05
78
7B
04
07
79
0D
07
77
01
6E
73
03
7A
79
76
03
6F
77
05
7D
7C
02
66
01
7F
78
00
7E
73
0E
7E
73
75
04
0A
13
03
00
71
05
77
76
0A
02
78
00
21
7A
0E
03
74
7E
76
75
7C
00
07
7B
00
03
0B
08
07
7A
7B
7F
7A
03
6F
66
01
7D
7C
78
75
14
0A
79
01
03
0B
7D
00
00
7F
75
79
01
27
72
04
06
09
0B
00
0B
00
06
7F
00
7C
78
03
00
7F
7E
79
0B
03
73
6F
07
7D
7E
7F
7C
00
77
00
7F
02
00
00
77
7F
06
77
02
00
00
73
18
00
74
01
01
05
69
0A
05
06
03
06
7B
02
08
0F
6A
7C
0B
70
7E
7F
0B
79
01
75
6A
71
04
79
7D
75
06
67
7F
00
00
7F
00
73
00
74
0D
7F
75
04
00
00
00
7E
02
69
77
00
01
76
0A
73
73
04
77
7E
79
06
7E
0C
75
05
00
77
16
6F
7B
01
7B
72
00
7C
02
79
17
6C
09
06
00
04
0C
7A
77
00
00
7C
77
73
7D
0A
7A
13
7C
04
7C
17
00
00
05
09
79
7B
76
06
04
7B
7E
00
04
04
02
0A
10
00
00
74
02
00
00
07
01
7F
6F
08
7B
7C
02
01
7A
00
7C
74
0B
7B
7B
06
6D
7A
00
00
7F
0C
00
00
7A
70
00
7D
77
68
6B
7E
7C
06
02
06
7C
03
05
07
00
07
76
00
08
02
18
00
00
13
79
6C
12
00
7A
00
7D
00
77
02
76
77
09
00
0B
1D
06
7D
79
77
00
08
62
77
79
7B
7C
76
7A
03
7B
04
74
02
77
11
7E
04
00
08
16
7F
00
76
72
7B
0F
79
04
00
0B
7D
7C
0A
7B
77
09
71
7B
77
0D
09
6E
00
7C
0E
0B
06
70
13
73
76
23
04
74
72
04
00
7B
04
04
77
06
00
7C
08
73
74
6E
7C
6F
7E
7A
00
7F
7C
0B
20
74
01
7E
7E
01
0A
7F
14
7F
04
79
69
7E
05
00
08
06
7E
7B
0C
77
72
00
00
05
01
79
04
7E
0F
07
00
6B
06
00
0F
6D
7A
77
05
73
7F
00
07
00
74
00
6E
7B
72
11
04
72
6E
00
06
70
7B
00
7A
01
7C
03
05
03
79
76
05
05
79
78
7D
02
03
05
06
79
06
7B
00
7B
7D
7B
07
07
7D
01
78
7E
0D
79
7C
02
6C
02
7E
0B
03
7D
01
78
6D
00
0A
70
78
0F
04
77
70
08
11
7E
78
01
78
7A
79
09
03
00
7B
6D
05
13
7D
09
7E
01
7F
09
11
7D
78
77
16
0D
05
0E
7C
77
7A
02
06
7C
7B
79
09
0B
78
06
01
06
04
6B
75
6A
78
08
06
74
73
7E
7F
08
00
76
76
7E
0B
07
09
0A
03
77
6C
7A
79
07
02
00
04
77
00
09
7B
16
77
09
05
00
77
17
0A
7D
6F
03
07
7C
7B
7F
7C
75
7F
04
7B
00
74
13
7B
00
13
04
09
7A
22
7D
00
05
1C
78
0D
0E
03
03
00
0D
79
00
0D
79
10
6A
08
79
00
00
7F
0B
00
74
7E
73
08
09
75
73
73
02
68
7E
79
72
6E
76
76
78
09
00
7B
7A
1A
7D
01
05
0A
7E
7A
75
01
78
0D
01
00
00
78
00
1B
00
01
73
02
00
7A
7D
00
00
08
77
0C
75
00
09
7D
03
01
7D
77
78
6B
00
04
03
74
0F
00
00
02
7B
7B
00
01
76
10
00
75
00
77
6F
7D
02
0D
00
00
76
0B
0C
00
00
7E
01
7E
78
72
01
74
78
04
7E
66
16
00
7B
05
7C
0A
0F
7A
70
02
0A
7B
7D
79
7B
7A
03
73
00
10
74
00
02
00
7E
7A
03
79
79
75
02
07
01
00
09
0A
74
0B
02
75
7C
6A
00
00
78
06
00
00
1A
02
06
72
6C
03
04
7A
01
6C
06
79
6F
71
6E
08
0A
12
01
75
01
74
7D
15
7B
00
00
00
00
00
00
00
00
00
00
00
00
00
00
00
00
00
00
00
00
00
00
00
00
00
00
00
00
00
00
00
00
00
00
00
00
00
00
00
00
00
00
00
00
00
00
00
00
00
00
00
00
00
00
00
00
00
00
00
00
00
00
00
00
00
00
00
00
00
00
00
00
00
00
00
00
00
00
00
00
00
00
00
00
00
00
00
00
00
00
00
00
00
00
00
00
00
00
00
00
00
00
00
00
00
00
00
00
00
00
00
00
00
00
00
00
00
00
00
00
00
00
00
00
00
00
00
00
00
00
00
00
00
00
00
00
00
00
00
00
00
00
00
00
00
00
00
00
00
00
00
00
00
00
00
00
00
00
00
00
00
00
00
00
00
00
00
00
00
00
00
00
00
00
00
00
00
00
00
00
00
00
00
00
00
00
00
00
00
00
00
00
00
00
00
00
00
00
00
00
00
00
00
00
00
00
00
00
00
00
00
00
00
00
00
00
00
00
00
00
00
00
00
00
00
00
00
00
00
00
00
00
00
00
00
00
00
00
00
00
00
00
00
00
00
00
00
00
00
00
00
00
00
00
00
00
00
00
00
00
00
00
00
00
00
00
00
00
00
00
00
00
00
00
00
00
00
00
00
00
00
00
00
00
00
00
00
00
00
00
00
00
00
00
00
00
00
00
00
00
00
00
00
00
00
00
00
00
00
00
00
00
00
00
00
00
00
00
00
00
00
00
00
00
00
00
00
00
00
00
00
00
00
00
00
00
00
00
00
00
00
00
00
00
00
00
00
00
00
00
00
00
00
00
00
00
00
00
00
00
00
00
00
00
00
00
00
00
00
00
00
00
00
00
00
00
00
00
00
00
00
00
00
00
00
00
00
00
00
00
00
00
00
00
00
00
00
00
00
00
00
00
00
00
00
00
00
00
00
00
00
00
00
00
00
00
00
00
00
00
00
00
00
00
00
00
00
00
00
00
00
00
00
00
00
00
00
00
00
00
00
00
00
00
00
00
00
00
00
00
00
00
00
00
00
00
00
00
00
00
00
00
00
00
00
00
00
00
00
00
00
00
00
00
00
00
00
00
00
00
00
00
00
00
00
00
00
00
00
00
00
00
00
00
00
00
00
00
00
00
00
00
00
00
00
00
00
00
00
00
00
00
00
00
00
00
00
00
00
00
00
00
00
00
00
00
00
00
00
00
00
00
00
00
00
00
00
00
00
00
00
00
00
00
00
00
00
00
00
00
00
00
00
00
00
00
00
00
00
00
00
00
00
00
00
00
00
00
00
00
00
00
00
00
00
00
00
00
00
00
00
00
00
00
00
00
00
00
00
00
00
00
00
00
00
00
00
00
00
00
00
00
00
00
00
00
00
00
00
00
00
00
00
00
00
00
00
00
00
00
00
00
00
00
00
00
00
00
00
00
00
00
00
00
00
00
00
00
00
00
00
00
00
00
00
00
00
00
00
00
00
00
00
00
00
00
00
00
00
00
00
00
00
00
00
00
00
00
00
00
00
00
00
00
00
00
00
00
00
00
00
00
00
00
00
00
00
00
00
00
00
00
00
00
00
00
00
00
00
00
00
00
00
00
00
00
00
00
00
00
00
00
00
00
00
00
00
00
00
00
00
00
00
00
00
00
00
00
00
00
00
00
00
00
00
00
00
00
00
00
00
00
00
00
00
00
00
00
00
00
00
00
00
00
00
00
00
00
00
00
00
00
00
00
00
00
00
00
00
00
00
00
00
00
00
00
00
00
00
00
00
00
00
00
00
00
00
00
00
00
00
00
00
00
00
00
00
00
00
00
00
00
00
00
00
00
00
00
00
00
00
00
00
00
00
00
00
00
00
00
00
00
00
00
00
00
00
00
00
00
00
00
00
00
00
00
00
00
00
00
00
00
00
00
00
00
00
00
00
00
00
00
00
00
00
00
00
00
00
00
00
00
00
00
00
00
00
00
00
00
00
00
00
00
00
00
00
00
00
00
00
00
00
00
00
00
00
00
00
00
00
00
00
00
00
00
00
00
00
00
00
00
00
00
00
00
00
00
00
00
00
00
00
00
00
00
00
00
00
00
00
00
00
00
00
00
00
00
00
00
00
00
00
00
00
00
00
00
00
00
00
00
00
00
00
00
00
00
00
00
00
00
00
00
00
00
00
00
00
00
00
00
00
00
00
00
00
00
00
00
00
00
00
00
00
00
00
00
00
00
00
00
00
00
00
00
00
00
00
00
00
00
00
00
00
00
00
00
00
00
00
00
00
00
00
00
00
00
00
00
00
00
00
00
00
00
00
00
00
00
00
00
00
00
0A
0E
76
79
00
04
00
7E
00
76
05
7C
7B
02
00
09
78
74
13
0D
05
00
05
7C
18
0A
09
71
0F
7A
04
0B
74
0E
04
7E
77
0C
06
00
04
14
12
7A
09
05
76
0F
09
71
04
70
0B
07
03
7D
7C
76
10
7E
08
08
75
7D
00
0D
04
05
7F
7E
6F
7C
03
7E
78
0D
7F
7F
00
73
10
05
07
73
00
00
0D
05
0E
77
00
09
75
07
00
02
0C
01
09
02
03
00
13
04
74
06
12
75
74
7C
73
79
01
00
77
73
19
7B
7C
0A
00
78
00
7A
00
03
01
01
14
7E
69
02
05
00
09
7F
74
7C
04
04
7C
00
77
06
08
00
7B
00
7E
0C
7F
0C
73
00
06
0B
77
00
10
0B
05
7F
7D
06
0C
02
13
0D
0B
08
79
71
78
09
7E
06
01
7F
00
0A
7E
6C
75
07
01
0D
11
0A
08
75
00
0B
7D
7C
7E
78
7E
76
7F
12
02
02
09
77
01
04
71
06
00
75
78
7E
04
7A
00
71
06
78
06
09
70
06
0E
6C
73
6E
7F
08
02
7F
02
73
02
07
18
0A
01
02
09
02
05
79
79
00
77
0F
1F
77
05
71
0D
7F
78
03
75
76
0A
10
08
7D
75
02
0E
7D
00
03
06
02
6E
05
04
01
0D
78
0D
55
7C
02
7A
0F
7B
7B
04
7A
01
7E
7E
01
01
00
07
11
06
7A
7E
08
7F
03
05
75
04
03
76
05
0B
00
7E
7C
0E
00
71
7A
00
7A
6F
0E
03
0D
0A
07
76
05
00
09
00
0E
07
00
7F
7C
08
77
04
07
00
00
76
7C
00
08
0B
03
05
0F
7C
7A
03
06
7F
07
07
07
7B
79
7E
00
04
79
7E
15
7A
01
76
08
0C
05
03
05
09
04
13
05
00
00
72
00
75
00
13
06
00
11
6F
7D
00
00
7D
02
15
7A
00
09
0A
03
08
12
0D
03
78
09
05
00
75
00
7B
00
7F
7D
14
09
7A
08
11
00
01
06
0B
75
29
07
79
00
06
71
08
07
00
00
01
0D
0E
0D
00
78
79
07
77
7A
00
11
00
18
7C
7D
03
05
00
01
03
72
07
71
01
05
03
7A
05
00
72
7C
00
7D
7D
09
7D
7D
06
7B
09
00
79
79
00
79
77
06
70
06
07
03
08
00
00
06
06
00
00
75
76
7A
0C
7F
57
03
0D
07
03
74
7E
0F
79
7D
7E
7B
16
0C
0A
76
00
01
05
06
0D
07
0E
7F
00
7F
00
03
00
0B
7A
7C
13
08
00
74
06
1D
07
78
0A
00
7C
16
11
09
0A
01
7D
7A
72
06
7B
71
0D
12
0A
7E
03
00
12
5E
6B
04
00
7D
0D
7E
69
71
70
0E
01
0F
15
7E
0A
7A
07
03
0D
7D
09
03
00
04
0F
0C
05
65
05
14
7E
08
62
6C
73
78
00
6C
0C
09
70
0E
00
70
07
7C
7B
03
7D
7A
78
7E
00
7E
00
0A
05
7B
79
03
74
7C
78
77
7A
01
00
79
0D
7F
7D
7F
7C
7C
7D
7D
19
07
02
05
00
69
6C
02
02
0B
75
01
0C
13
7B
00
02
7F
03
7E
0B
02
04
00
7A
0B
7D
00
01
7E
7F
7E
75
5F
14
00
02
72
14
00
7A
07
02
06
04
1D
79
7C
77
09
0C
6F
02
0D
74
05
0D
0E
7E
7B
00
10
7C
05
6C
7A
63
6C
01
7B
0B
01
13
15
0A
02
04
7E
08
0F
04
73
76
06
04
6D
18
14
05
08
76
09
15
7F
01
7F
79
0C
05
16
08
09
0A
0B
7F
18
7C
7E
0B
0B
7D
0A
7F
05
7F
0D
02
05
16
11
01
7F
09
27
08
06
11
7C
54
07
1D
7E
02
09
10
09
08
14
0C
0A
09
01
58
0F
77
03
00
04
08
7C
74
04
76
03
06
09
17
74
0F
03
02
06
16
05
0C
74
0B
7A
11
09
7E
00
7C
7E
02
7F
05
63
7C
75
7B
7D
08
74
02
70
7C
00
00
09
09
00
07
04
02
0D
04
03
00
0D
14
06
0D
72
05
7B
00
04
77
00
06
01
06
0F
07
7E
00
00
06
0C
00
03
03
76
17
16
71
0B
20
72
06
0E
7E
07
0D
7C
05
7D
00
02
24
07
03
06
05
7D
0B
7C
7B
07
7C
15
0B
76
00
00
0A
00
0F
00
70
13
06
7C
7F
27
00
00
07
75
6E
7D
00
01
76
15
03
08
09
7B
01
02
0D
7E
0C
6A
12
00
02
07
68
0A
73
03
75
00
04
06
07
02
73
0D
02
00
7F
16
01
0D
00
00
05
79
6A
70
0B
03
09
06
7E
0B
0D
09
00
02
0C
7E
0F
77
0B
0B
7B
0A
05
7F
04
7F
0C
06
00
00
7D
0E
00
14
72
7D
05
7B
00
76
72
12
16
7F
00
13
0D
01
77
76
7F
73
10
00
00
79
00
00
00
77
10
06
09
08
30
79
08
02
07
0F
78
0A
0E
7E
04
70
66
68
0D
7C
04
10
01
06
7E
75
70
0D
00
0E
00
04
00
04
78
10
10
0A
00
03
0E
6D
0A
77
0D
00
7D
14
08
7E
06
74
08
7F
7D
03
04
0E
11
09
71
07
05
00
6F
79
7B
0A
7A
0C
0A
73
7B
07
7F
5D
7E
04
0B
7F
00
18
06
10
75
06
70
0E
00
07
00
0F
02
76
7A
01
78
09
06
7D
7A
7C
00
71
7A
07
76
7E
00
77
04
73
7C
7E
0E
0A
00
77
00
01
00
7A
0F
04
7D
74
01
04
7A
79
77
2A
0C
01
10
77
04
0C
00
7F
7A
79
76
7B
04
03
00
6D
7B
7F
03
06
06
10
0E
7D
7B
00
04
70
6E
08
02
7B
74
00
7E
65
00
00
79
71
7B
02
03
02
18
00
75
7C
78
00
07
79
07
74
04
71
7A
6C
00
06
1E
76
00
06
7F
03
73
70
01
7F
00
18
72
02
7C
7C
6D
6E
00
7A
0D
6D
74
04
10
71
7C
72
72
0A
02
09
71
02
0D
0B
78
04
6C
09
7B
7F
7F
71
72
05
6E
73
03
03
77
7F
0D
16
7B
6B
7A
7E
06
7A
7E
06
07
0A
01
02
79
66
05
0A
02
00
7F
63
7D
05
7E
7E
00
15
02
76
7B
0F
5D
06
0D
16
04
01
7A
09
0C
07
7D
7E
00
06
7B
01
09
11
78
02
04
09
18
71
1A
06
02
7A
62
04
0A
02
00
6A
14
02
0D
00
7F
7C
02
7F
7D
77
09
7A
7F
7F
15
76
7C
79
01
00
7B
7E
09
00
77
04
08
07
7A
00
03
18
79
08
16
0E
07
76
00
00
75
00
03
72
7D
0F
05
73
00
00
09
01
00
7E
03
6B
6B
5E
69
7C
68
7D
1F
7E
7C
7C
0D
03
78
77
09
78
16
03
09
12
7E
58
0E
06
73
02
7E
0D
08
77
00
00
0B
00
02
00
7F
06
00
07
7D
0B
00
00
0A
00
62
03
00
76
02
21
04
13
01
76
7B
7F
78
01
09
0B
7C
00
7A
7A
79
7D
02
0F
01
00
7E
7F
02
68
71
0E
76
00
0B
7C
74
66
00
00
0B
7C
74
01
07
04
0A
06
06
0B
04
0C
00
07
1B
01
76
04
1C
10
78
05
0F
7F
03
7D
7C
79
7F
00
02
75
00
17
7A
04
08
05
01
7F
7F
7C
02
7E
00
7D
00
05
7C
7D
00
08
16
00
00
79
01
00
00
7E
0C
03
02
7E
04
7E
08
04
13
1F
75
0D
7E
7B
78
78
0D
74
19
79
05
66
79
06
7A
79
04
06
00
6E
00
03
00
7A
01
09
05
70
00
05
7E
02
0D
05
01
00
00
05
74
12
7D
05
07
0A
02
03
7A
09
7E
78
7B
08
0C
00
02
6F
0B
7A
0F
0B
76
08
05
77
7F
6F
09
03
03
04
01
7A
06
0A
03
7B
76
03
00
0D
00
73
7A
01
7D
7F
7F
09
7D
06
06
09
00
08
12
7D
0F
75
00
7B
7D
0F
07
7A
0A
75
0A
7D
00
0B
06
00
67
00
02
78
08
05
78
09
73
72
02
7A
00
01
7C
6E
7B
01
0F
00
12
03
00
00
00
7F
7E
78
77
7B
6B
00
6B
01
05
00
7F
05
7E
02
7B
7C
05
00
01
7D
07
00
0B
09
76
78
10
7F
75
00
74
08
7E
00
0F
7B
05
0E
79
00
0B
00
0A
05
1B
14
00
78
7E
03
06
7E
7D
74
00
7D
07
70
05
07
07
0E
09
0A
00
02
7E
04
18
00
00
7E
08
69
03
0B
02
73
74
00
0A
0D
6F
69
7F
02
7A
1B
16
02
05
05
03
77
00
7F
64
7F
6C
00
7C
01
01
0B
70
70
77
04
7D
78
06
7D
71
0E
78
00
7F
77
7E
00
7B
0C
76
71
7D
7D
02
75
09
00
78
6F
13
7E
06
18
05
7E
14
7D
00
06
0A
7D
7E
07
02
0C
7F
10
76
71
7C
7D
7A
05
6E
72
05
00
03
7A
7B
74
79
00
74
74
7E
7D
73
77
7A
00
09
7D
7C
7F
77
08
05
00
7D
0A
06
00
74
73
7B
78
01
0A
04
75
75
02
7F
79
7D
0A
00
01
7B
00
02
7C
7C
07
78
00
00
00
7D
76
00
0B
01
02
01
78
7D
7F
03
77
0D
03
04
7E
7E
75
00
7D
10
01
76
0D
72
7C
01
7F
6F
0C
08
00
7A
75
79
05
00
00
77
00
6C
00
76
76
7B
00
7F
0C
00
00
7E
7E
09
07
00
06
00
7B
09
19
0F
0C
7C
0E
7A
01
09
06
01
00
05
71
7E
78
0C
08
07
00
73
02
19
7E
08
7F
05
00
78
78
07
08
00
00
11
01
09
78
7C
7B
00
0A
7C
7D
02
7D
00
1A
05
05
7C
05
07
03
07
7E
0E
7E
79
04
03
00
7D
00
06
7C
00
7D
07
7D
6A
6E
0E
7D
7E
00
6F
00
00
7B
71
0B
01
7D
09
04
0D
00
00
7A
10
00
00
05
6A
00
05
76
69
07
07
79
1E
7F
0C
07
00
05
07
79
04
7C
02
7B
7E
73
76
05
00
00
00
00
00
00
00
00
00
00
00
00
00
00
00
00
00
00
00
00
00
00
00
00
00
00
00
00
00
00
00
00
00
00
00
00
00
00
00
00
00
00
00
00
00
00
00
00
00
00
00
00
00
00
00
00
00
00
00
00
00
00
00
00
00
00
00
00
00
00
00
00
00
00
00
00
00
00
00
00
00
00
00
00
00
00
00
00
00
00
00
00
00
00
00
00
00
00
00
00
00
00
00
00
00
00
00
00
00
00
00
00
00
00
00
00
00
00
00
00
00
00
00
00
00
00
00
00
00
00
00
00
00
00
00
00
00
00
00
00
00
00
00
00
00
00
00
00
00
00
00
00
00
00
00
00
00
00
00
00
00
00
00
00
00
00
00
00
00
00
00
00
00
00
00
00
00
00
00
00
00
00
00
00
00
00
00
00
00
00
00
00
00
00
00
00
00
00
00
00
00
00
00
00
00
00
00
00
00
00
00
00
00
00
00
00
00
00
00
00
00
00
00
00
00
00
00
00
00
00
00
00
00
00
00
00
00
00
00
00
00
00
00
00
00
00
00
00
00
00
00
00
00
00
00
00
00
00
00
00
00
00
00
00
00
00
00
00
00
00
00
00
00
00
00
00
00
00
00
00
00
00
00
00
00
00
00
00
00
00
00
00
00
00
00
00
00
00
00
00
00
00
00
00
00
00
00
00
00
00
00
00
00
00
00
00
00
00
00
00
00
00
00
00
00
00
00
00
00
00
00
00
00
00
00
00
00
00
00
00
00
00
00
00
00
00
00
00
00
00
00
00
00
00
00
00
00
00
00
00
00
00
00
00
00
00
00
00
00
00
00
00
00
00
00
00
00
00
00
00
00
00
00
00
00
00
00
00
00
00
00
00
00
00
00
00
00
00
00
00
00
00
00
00
00
00
00
00
00
00
00
00
00
00
00
00
00
00
00
00
00
00
00
00
00
00
00
00
00
00
00
00
00
00
00
00
00
00
00
00
00
00
00
00
00
00
00
00
00
00
00
00
00
00
00
00
00
00
00
00
00
00
00
00
00
00
00
00
00
00
00
00
00
00
00
00
00
00
00
00
00
00
00
00
00
00
00
00
00
00
00
00
00
00
00
00
00
00
00
00
00
00
00
00
00
00
00
00
00
00
00
00
06
07
05
07
00
7C
00
75
00
02
7F
7C
17
11
00
77
0B
7A
02
07
04
00
00
71
76
09
05
0A
00
79
00
00
7E
0F
0E
0A
74
03
03
00
78
0F
75
79
03
74
03
6B
7F
0C
09
79
04
03
01
77
7A
04
7C
69
7B
09
09
78
00
73
7C
04
78
76
7E
06
04
7E
00
05
76
06
00
74
6C
0F
08
0D
00
01
73
02
06
77
02
07
7A
0B
00
02
02
6F
1A
02
08
16
7A
0A
09
09
02
13
7C
7E
01
7E
0A
0F
03
71
7C
00
78
01
7B
76
00
70
07
06
7D
7F
03
05
7F
08
6C
00
7E
6D
6B
79
74
7A
70
00
02
02
7A
00
79
71
79
77
79
02
7D
00
0C
04
00
00
79
00
76
79
7F
79
78
73
6F
79
0B
7B
7A
01
7F
04
04
7C
7B
7F
00
7A
7D
0F
7F
05
16
7B
02
01
0C
0B
70
08
70
0D
6E
06
74
0A
13
05
77
09
01
78
78
7D
7F
77
77
0E
03
6D
76
7F
03
04
0B
7C
77
07
0C
05
0C
66
01
74
7A
6E
7C
14
7D
7B
75
78
7B
09
01
73
08
06
05
7F
7F
75
01
08
0E
16
14
78
04
7F
09
0A
04
0E
7E
75
04
75
7E
09
6E
0E
00
04
0A
7C
05
7D
7B
02
7A
7D
11
00
01
01
09
04
08
09
74
06
71
00
7E
7F
03
00
01
73
7A
72
0E
04
0B
09
05
08
0F
06
7F
08
01
00
7B
5E
7F
00
07
0B
7D
0B
79
6F
7D
76
79
7C
05
7F
7A
78
00
7A
7C
00
7E
11
79
08
7E
6D
00
00
00
15
00
7E
6E
75
79
7E
16
05
7C
01
07
06
7B
05
7D
7B
7A
01
7A
76
0D
74
0C
00
18
04
7E
78
03
75
08
07
73
7E
00
00
79
00
06
00
7F
0B
7F
7D
7D
00
00
00
79
07
7D
6A
00
7F
7D
7E
7D
7F
6D
06
72
7B
7E
05
77
0A
74
00
71
12
73
72
7A
05
7C
00
77
7B
02
7D
03
02
7D
00
00
0D
05
76
00
00
03
7D
6A
0B
0E
7B
04
77
7F
03
05
01
00
02
01
7A
01
7D
14
7E
11
7B
7B
03
06
00
03
76
71
00
7E
78
00
7E
00
7A
10
05
7C
70
07
01
7D
7B
00
00
03
00
04
7B
02
6C
00
00
00
02
6F
00
00
08
00
7E
08
7D
04
08
7D
01
00
01
7F
0A
7B
73
7D
04
00
04
02
7F
78
06
7D
7E
7C
12
08
75
00
7A
00
7D
00
6A
7F
79
74
15
00
7D
79
6D
7C
0B
13
00
02
0C
16
7B
7D
7E
7C
06
79
78
03
03
6B
7C
6A
79
77
00
7A
79
75
7C
0E
78
0C
01
08
79
7B
00
7E
04
76
7F
7D
09
7B
79
7C
77
75
72
00
72
6E
08
78
05
04
07
7F
79
03
03
7F
00
00
7D
7C
04
7D
00
00
09
7C
08
05
0A
7F
68
03
0C
00
04
03
7A
7F
75
6D
02
7E
7E
72
01
7B
01
06
00
10
7E
08
34
7C
79
00
66
67
7F
07
7A
00
77
03
05
2D
7D
19
02
08
16
18
00
7D
01
7E
00
7F
06
00
00
03
7D
0B
00
75
05
07
6B
7A
74
7D
00
02
08
10
00
00
07
73
08
01
7C
7E
7D
24
79
77
03
02
07
7B
7E
79
0D
79
7C
00
77
79
05
7B
7C
72
03
06
07
00
7C
02
09
79
75
7B
06
6A
7E
7F
7A
03
07
7E
7D
7D
79
7B
07
04
04
09
06
7E
04
7B
64
07
7E
7F
7E
7E
73
28
09
00
7F
7D
74
1D
0B
72
05
76
03
70
75
7D
77
15
78
7E
08
73
02
04
05
75
0E
0B
7C
7B
7D
70
01
07
0E
07
72
06
7C
74
7D
01
00
00
07
03
00
02
7C
7A
7D
7D
7C
07
6B
72
7E
06
02
79
14
6F
7E
7C
79
05
03
08
00
06
16
02
7D
7D
7D
15
78
00
04
74
03
0A
7F
7B
00
7D
7B
76
00
7A
05
7C
7F
00
6F
00
72
25
02
7D
7D
01
7E
00
79
09
00
7F
70
06
0F
7A
79
00
00
7A
6B
00
7B
02
0B
72
16
73
02
04
04
04
06
08
7F
12
7D
02
02
73
78
02
77
00
01
7F
04
31
7E
7F
00
06
7F
23
01
00
00
00
00
6C
00
2A
7D
02
7C
03
0A
00
00
02
01
7A
76
00
7B
05
73
6E
7A
74
04
01
04
7E
79
02
7E
7C
00
00
74
16
77
02
7A
78
00
7F
07
08
7A
20
7D
79
00
13
03
06
6E
00
00
05
7D
79
7D
7C
7C
74
79
7F
7C
04
7A
00
7C
02
05
05
76
0F
79
05
7E
7D
02
02
7D
7E
7B
03
00
00
71
00
71
07
79
04
74
00
77
00
00
72
7F
00
7D
7B
05
09
77
77
01
0D
00
00
6E
7F
00
00
7F
6E
75
02
04
5B
7E
7E
73
65
02
7F
71
7D
01
02
7D
08
75
08
77
7B
14
70
77
71
6C
09
0A
00
7E
00
01
00
01
78
7C
6D
6F
00
08
68
68
74
0E
09
00
6F
09
6F
05
01
07
79
0C
07
04
01
09
6D
07
7B
76
00
00
03
79
73
08
17
73
0C
7D
7C
01
7C
02
7F
03
71
04
04
09
71
7B
79
6B
7C
7C
00
7C
79
7C
03
09
7B
09
7F
60
04
0C
7F
79
00
7B
75
0A
04
0C
00
7C
04
05
03
7A
09
10
0E
04
00
03
03
01
67
02
71
7B
75
73
7F
7C
01
7A
04
04
12
78
76
76
09
03
7F
76
01
00
01
02
00
05
75
03
05
7C
79
02
76
14
01
00
76
76
08
7E
71
0A
76
00
74
76
77
00
75
0A
0E
7C
6D
20
06
00
05
00
0D
00
75
01
75
7B
76
78
03
7B
7B
7E
75
7B
7C
10
06
7D
7D
71
08
75
00
78
01
74
10
6F
6D
07
7F
02
70
78
01
19
77
6F
7D
72
76
75
7D
78
00
03
7A
1C
69
6A
07
79
02
0E
0C
00
78
0C
7B
10
7F
7D
76
02
72
0A
7A
75
7D
0A
7C
02
78
6D
72
0C
7C
7F
70
00
7C
13
7D
7F
7B
7B
00
0A
79
00
00
00
03
79
79
7F
6D
04
0C
18
76
73
0A
7F
27
05
01
0E
00
72
0B
00
07
08
7D
74
7B
71
7B
6E
7E
7F
76
7F
03
0A
7A
07
00
7A
7B
0C
0D
00
7E
0A
02
00
01
7D
04
79
01
78
00
01
00
74
08
00
01
7A
73
00
02
7B
05
0D
75
77
75
5C
6A
7E
0A
18
7D
7D
00
00
0B
00
74
75
03
13
75
02
00
00
01
70
00
7A
7E
0A
7F
7B
76
19
7C
7E
1D
02
03
00
0A
0A
08
7F
01
7E
02
04
18
7E
04
0C
6E
79
02
7C
04
7C
06
73
00
00
0A
00
64
00
03
7F
10
7F
73
11
00
00
07
02
01
04
00
7A
0C
71
7F
0F
73
73
00
0B
71
7F
0F
0A
7E
00
07
6E
71
02
04
7E
05
00
7E
6F
0B
6B
79
09
6E
00
78
09
07
0A
00
00
0E
75
13
03
78
04
77
74
04
06
7B
6B
00
02
09
7E
0E
01
02
73
7A
0C
7C
00
02
03
7A
79
00
00
67
01
00
09
77
7F
7B
08
04
76
02
7C
04
7D
00
08
78
06
00
7F
00
12
18
00
00
10
6F
00
00
6A
7A
6B
03
6E
6D
04
7D
7A
7B
11
70
07
7C
05
7B
09
65
06
0B
7F
01
68
79
00
04
78
04
70
00
10
00
7E
00
72
7E
0E
15
74
00
03
19
78
7A
09
7F
00
0B
78
7F
77
05
7D
6C
7A
7A
04
01
79
78
7B
79
07
03
00
74
08
07
07
03
0E
7F
73
00
68
7E
75
02
0A
00
0E
72
08
04
0C
59
0B
71
0C
00
08
01
17
79
03
75
7D
01
05
03
68
09
77
00
7E
5F
7A
7E
77
00
01
7E
06
7D
06
02
6E
79
02
00
02
7C
05
0C
0A
6B
02
06
7E
73
02
7C
7E
74
00
7F
7A
77
7E
78
06
74
7B
79
7F
02
7E
00
06
7D
01
7E
7C
6F
7B
7C
7A
78
00
07
6C
0B
09
06
66
09
00
04
74
04
00
79
0C
7F
7F
7B
7A
70
00
00
7F
7A
00
00
04
08
63
05
69
7E
09
7A
00
01
09
02
74
07
7C
03
6C
7E
78
00
7E
09
08
7D
79
02
7B
7F
79
0C
7F
77
0A
6C
01
05
73
03
7A
01
7E
7D
05
00
7A
62
70
76
03
7C
7C
7E
72
6D
00
02
02
7C
76
03
7C
06
69
7A
7B
09
03
01
7B
00
78
75
02
03
0D
7B
77
76
14
08
04
00
56
07
7F
7D
7C
7F
0C
77
06
01
0A
75
76
72
7F
6B
7A
03
75
7E
7D
09
06
00
04
0A
7D
00
79
05
7C
7D
65
76
7A
7D
78
04
07
6B
75
79
7A
70
72
78
0C
7D
00
73
04
7D
08
6E
09
01
02
79
6F
7F
03
02
77
03
00
03
01
02
00
6F
02
76
78
0A
74
09
60
7D
78
7D
78
07
7E
00
7B
7F
00
00
72
75
7B
7A
7B
00
00
02
73
00
00
04
7C
79
76
00
73
6F
06
70
08
7A
7F
77
0E
08
7D
7E
78
76
07
7E
0B
04
75
01
03
03
01
06
7A
74
02
00
00
05
00
7A
00
72
79
7A
07
7E
05
00
00
01
77
7D
7D
00
7F
01
77
08
00
00
03
02
04
7E
7C
7F
71
7C
00
0C
78
78
63
7D
77
06
00
07
01
72
7F
03
7D
7D
00
04
79
7D
7C
00
00
01
01
08
7A
73
00
7D
7C
7C
03
6E
71
00
74
7B
00
7F
05
6A
78
77
79
02
05
05
7F
7B
02
07
00
11
7E
00
05
7E
04
7D
03
7B
09
03
7F
7B
07
00
04
7B
7F
79
03
79
08
6E
00
00
01
79
00
00
11
7D
76
7E
68
7F
04
07
77
0E
79
76
67
7E
7B
6D
79
0E
78
7A
06
05
74
03
02
0B
07
7D
7A
00
0A
00
07
00
15
6E
12
23
06
00
10
0D
6A
05
09
06
00
02
10
0E
01
06
00
09
01
03
04
05
04
16
7E
67
0E
0B
00
73
0E
7C
01
04
7D
00
7A
0A
64
02
7D
08
04
14
7C
02
06
7F
0A
6C
0B
06
14
00
05
0A
07
02
05
0A
7B
72
77
0C
7F
04
02
00
75
15
03
02
09
00
06
78
08
02
78
11
07
04
78
00
0C
02
00
7E
12
07
16
0B
03
7B
7A
7E
0C
67
7F
7D
01
7F
74
05
03
07
68
66
06
00
04
00
06
09
74
05
12
6F
05
0E
10
7D
00
79
07
0A
03
75
01
05
00
6F
03
0D
00
75
03
70
06
0A
75
18
00
0A
12
01
00
01
14
76
0B
13
03
0B
04
7A
05
0A
72
01
06
7E
09
6C
03
06
00
00
1D
05
7F
0B
0A
23
03
03
03
7A
0A
1C
0C
7F
00
76
02
6F
0F
0F
10
06
0E
6D
07
0D
0D
7F
7B
08
03
12
6F
62
06
0F
7C
7A
04
02
1D
78
6B
07
68
07
6E
6C
7E
6F
7F
12
09
08
04
15
03
07
01
00
0A
01
02
09
03
5C
00
77
11
05
75
0C
09
03
7F
7E
05
15
05
03
5C
7B
03
03
0A
00
18
0A
06
09
02
7B
75
01
16
0B
0D
02
7D
06
79
06
7C
73
02
64
7C
16
02
05
00
6B
06
07
01
7A
0A
0B
01
09
08
12
76
10
03
05
00
02
62
08
00
09
0C
7F
12
69
7C
7F
16
78
69
07
7E
05
06
00
01
7E
00
74
7F
7D
03
05
7E
00
00
05
0A
00
00
07
11
7F
7F
28
6C
03
03
01
00
00
1A
03
01
02
75
03
05
01
09
10
13
05
75
6C
6E
16
75
7F
15
76
04
00
00
04
00
0C
00
04
11
02
14
6C
04
00
00
7D
79
05
72
00
1B
04
19
0D
06
1E
7B
78
00
76
6B
78
09
01
00
71
7F
6D
7F
79
0E
7F
00
0A
5A
04
7B
72
01
74
00
02
0A
07
7D
00
00
05
78
09
0D
76
7F
10
69
7B
05
7F
1F
00
09
0C
6A
05
06
0D
78
01
07
09
0B
0A
08
01
6F
02
00
66
16
00
0A
05
0E
06
01
74
0B
7A
08
05
71
00
69
72
74
01
07
08
01
06
00
00
6A
5F
00
00
09
79
6C
07
7C
7B
06
08
04
0E
04
07
73
14
0A
7B
04
11
76
0B
09
07
72
0C
74
7B
0B
19
06
00
72
00
05
00
02
03
03
6F
6B
00
04
73
79
02
7A
0D
00
76
7D
7D
05
06
1E
09
01
02
04
7B
04
78
24
0B
03
01
00
6A
03
05
06
78
7A
7D
0E
05
7C
0B
05
0C
7F
76
06
78
68
73
06
08
7C
02
05
00
08
7D
7A
00
0A
0F
13
7D
73
6C
02
07
07
00
02
1E
09
1A
0F
00
7F
7C
08
08
00
75
79
03
03
00
11
00
02
70
09
11
05
04
07
0F
08
0A
76
6F
04
1A
06
03
69
05
01
07
06
05
07
0A
00
00
16
06
05
02
7F
08
7C
69
0D
7A
00
05
08
0D
02
7B
0F
08
00
78
15
01
00
7F
7F
7D
08
08
7B
7C
00
04
08
24
00
7C
0A
75
0B
01
76
77
15
75
7E
76
05
01
27
0E
05
0A
07
01
7D
00
73
09
02
0B
06
0D
0A
7D
7E
02
0F
09
07
7B
0F
76
08
02
06
77
0C
03
04
75
01
11
0B
16
7F
0C
14
0A
00
7B
06
13
02
01
00
78
6B
7C
7C
7B
02
06
00
70
74
04
73
01
09
76
0B
0A
13
7A
7B
7C
05
04
0E
00
08
03
03
04
75
15
7D
05
6A
19
1B
1A
0D
10
07
14
7F
0F
0E
74
10
00
02
13
7D
07
7F
00
7D
03
7D
05
1B
7B
06
7B
04
0B
00
76
06
7A
74
78
7E
7D
00
07
07
07
02
12
08
6E
05
79
78
6B
78
7D
04
04
00
03
6B
00
00
08
7B
0B
10
72
7B
7E
0F
7A
7F
73
7B
00
7D
00
07
6E
00
7C
18
09
1C
0C
7A
00
00
0B
6F
00
72
7F
08
04
04
07
13
10
79
0C
00
04
00
22
7F
09
7D
7F
07
74
78
70
7F
01
10
7C
7C
10
05
05
71
04
13
00
00
77
00
02
00
7C
7E
0C
07
7D
0C
00
00
05
79
7B
7E
00
01
02
69
03
02
05
00
04
04
0D
03
06
04
74
00
03
0A
76
00
71
73
0B
00
09
6F
05
10
7E
67
7B
00
7E
09
15
01
00
00
0F
7F
7B
70
79
02
76
70
01
7A
2D
05
00
7B
71
7B
0A
7B
76
6E
0B
78
03
08
0B
00
05
03
0A
00
75
7E
00
6D
00
04
74
06
76
0B
01
7E
07
77
00
7F
01
78
03
09
7B
07
12
00
00
00
70
00
00
0B
01
7E
03
0A
0E
05
07
7F
71
15
05
7D
77
7B
77
06
03
71
04
09
7F
0B
11
75
7E
7F
74
72
00
03
00
04
00
79
01
0A
0D
79
00
0A
03
0E
00
04
79
00
09
79
7A
78
03
7B
7A
7D
02
01
00
69
76
77
05
76
0A
00
16
65
0A
04
09
7E
01
0F
00
7D
06
10
7B
06
01
00
7B
00
04
00
07
05
07
7C
00
05
02
09
04
7E
09
03
06
7A
7A
57
06
03
00
04
16
7E
72
01
00
05
7E
08
03
04
7C
61
7F
03
00
02
0A
03
7B
7A
60
0B
79
7D
07
09
7E
08
03
05
00
06
7B
04
7D
00
07
07
02
0B
0B
06
00
10
04
09
7E
7A
74
08
71
09
7E
00
7B
0B
03
08
06
77
00
00
00
09
02
00
02
04
03
77
7D
6D
77
00
7E
01
0C
00
7B
04
00
09
08
0E
79
7D
02
7F
78
01
0A
7E
05
0E
7F
23
79
00
00
78
04
7B
7A
05
78
04
00
7D
02
06
01
00
7F
78
05
0D
6A
05
01
79
09
0F
7C
6E
18
12
0B
04
0D
7F
05
7D
1B
7D
01
0B
07
08
7A
7C
0A
6F
70
04
05
03
06
13
02
74
07
02
7F
05
0F
09
11
72
6D
02
05
11
7C
01
7D
01
72
7D
7F
04
04
00
74
7C
7D
06
07
0D
01
73
07
00
00
06
00
72
7F
07
00
7E
7F
78
02
0D
77
06
74
01
05
7E
10
02
77
00
06
04
7B
00
00
00
7C
7A
0A
05
73
00
7E
01
78
01
6D
03
06
00
7A
00
00
04
02
00
09
03
7E
7E
07
08
7A
10
07
7F
78
72
7A
7F
00
7B
79
00
7C
06
03
79
00
08
00
00
01
6E
00
06
71
0F
12
12
7A
7D
1F
01
6F
00
05
7F
03
01
07
08
7E
0C
7E
0A
73
04
7E
75
07
7D
04
7C
02
78
00
04
00
00
7B
00
7B
00
00
77
06
7A
04
7C
00
00
01
7D
05
05
00
0D
03
74
79
64
09
09
07
05
03
01
02
7C
7A
00
7A
64
73
0C
7C
7B
79
00
02
7B
77
70
04
77
00
00
7D
0A
03
18
00
00
7A
01
7C
5B
7C
00
6D
01
04
05
75
0E
00
7C
73
05
0E
05
6A
02
08
03
78
7D
7E
7F
07
01
7D
00
0B
7A
00
6F
04
00
01
00
7E
72
7E
06
02
7E
00
02
09
02
03
03
7B
7A
71
00
00
7C
02
00
00
02
09
7E
02
07
08
06
7B
76
08
00
10
62
01
7F
0A
7C
11
06
00
04
07
7F
00
01
73
08
7D
10
00
0D
00
04
00
02
03
09
0A
7C
00
6F
71
18
08
7A
7C
00
7F
7B
03
7F
7F
03
74
05
0D
00
7E
02
0C
79
0A
0A
77
00
07
6A
7D
0A
0A
08
7C
6B
07
12
7F
0A
05
01
78
7F
7A
7A
08
09
70
77
76
08
00
0B
06
76
08
77
0E
7D
01
72
75
6F
03
7F
00
03
6D
0E
76
09
00
07
0A
7D
7D
05
7B
7A
0E
00
00
7E
03
00
74
03
7C
00
0F
05
05
7C
7B
11
17
02
76
05
7D
03
0A
00
0B
7F
0A
01
7D
7B
00
78
06
7F
08
7D
02
11
00
7D
06
00
04
05
79
7D
0D
7A
0D
00
05
7B
79
00
7E
04
78
6D
0F
72
75
00
7F
75
73
00
01
0E
09
7B
03
70
09
7E
11
01
0A
01
7E
02
01
7B
06
68
01
0C
00
0B
7A
06
04
09
75
02
7F
03
7B
02
04
7D
03
7B
01
7F
7B
7E
03
7C
7B
78
07
0A
6F
6F
01
03
79
0F
10
0E
7E
7F
01
10
03
01
0C
7E
7F
76
7A
09
01
06
00
05
05
01
7A
06
7E
02
65
7C
03
78
02
7F
05
71
7F
05
72
7E
6F
03
72
7F
7E
06
07
03
7C
7B
74
79
04
03
16
7E
09
07
00
05
00
09
0C
0A
7E
05
04
72
12
04
7E
09
03
05
7E
72
03
0E
0D
78
03
75
0A
00
04
6F
7F
7F
79
7E
7B
7C
7F
7F
7A
04
79
04
7F
00
7C
0E
04
00
06
02
13
77
7D
7D
08
66
70
09
0B
0A
03
06
00
7B
7A
00
00
7A
0D
75
04
0B
00
00
02
7F
00
12
03
0A
0F
0F
70
70
03
02
6B
03
05
06
03
75
7A
01
0C
7A
06
0B
09
00
00
7A
14
07
06
7E
03
03
04
08
00
00
7B
00
6F
00
03
04
0C
07
07
04
00
00
04
79
6F
7D
00
0F
7C
09
03
77
7B
0C
7D
08
05
07
05
0D
71
00
7C
04
0A
63
10
01
7E
00
05
14
12
13
0D
7D
05
00
7F
74
7B
7A
00
00
02
02
72
7C
05
03
08
7E
07
0B
78
63
00
06
06
03
78
72
7C
7E
08
05
7F
04
04
00
01
05
03
00
09
7D
00
7C
16
02
79
7A
7E
79
00
7A
76
04
00
04
07
04
09
08
7C
73
7B
00
00
5F
09
00
00
75
04
0B
79
69
07
0F
05
01
07
0A
7E
7D
02
7C
02
08
61
6F
7C
06
7C
0C
7A
7F
04
02
75
78
00
09
00
7E
00
0C
06
15
04
7D
00
06
7E
75
77
71
0C
00
71
10
11
7A
7F
03
03
78
74
01
05
75
01
16
77
07
15
00
10
08
7B
7B
7B
10
79
74
02
77
04
03
07
7D
78
05
0A
09
08
0F
0C
00
7A
0F
00
07
0C
7B
04
79
7A
00
7B
03
08
78
01
01
00
01
04
01
76
73
00
76
79
7E
78
09
7D
79
79
78
00
04
7B
78
0C
0B
7B
78
00
09
71
02
72
7D
7E
02
19
7B
77
7F
7B
01
7F
07
6A
00
77
04
00
7C
7C
7B
03
7F
73
73
7B
08
7A
00
7D
00
7B
03
79
02
00
00
12
09
10
00
06
72
78
03
08
06
04
00
72
07
01
00
7E
74
0E
06
77
0B
04
02
5E
77
04
15
7F
78
00
07
01
73
7C
02
00
00
04
07
7D
72
0A
76
6B
7C
7F
04
77
6A
07
77
02
72
0C
07
7A
7E
7A
79
05
0D
01
04
11
02
7F
6F
78
75
7D
77
7C
7F
7C
7D
04
0E
7A
02
79
73
01
7F
08
0B
7E
02
77
7E
02
7B
00
05
79
02
0F
03
7C
17
0D
7C
7A
7B
0A
01
7C
7B
05
7E
0B
07
0B
04
05
00
75
7F
06
7A
00
72
00
12
04
6E
01
7A
05
05
71
06
6F
1C
0F
7A
05
78
03
07
01
00
7B
0D
05
00
79
00
7E
00
79
7C
7A
05
01
7E
06
0C
0D
78
71
78
75
00
03
78
08
00
78
05
7C
07
75
10
0E
06
74
74
79
71
00
00
00
7B
75
00
08
7A
6F
09
78
76
00
00
0C
06
00
07
05
78
0B
07
7C
14
12
7C
01
04
72
00
03
02
03
78
12
01
7C
75
7C
00
09
74
01
05
0B
7E
7D
05
08
78
00
00
04
00
77
00
68
09
7B
0A
08
7F
00
00
74
05
0B
0B
00
63
7F
01
17
74
09
0F
03
08
76
7E
0D
75
02
00
04
0A
7C
0A
7F
00
04
00
7B
02
79
17
03
77
02
00
04
75
79
02
00
00
7D
05
7E
05
07
7C
0B
7E
73
01
11
0A
00
76
0A
07
75
05
00
7E
7C
77
09
0D
05
7E
00
78
7A
00
0A
01
00
0A
7C
7F
02
7A
79
09
7D
78
0B
08
00
6F
71
7F
00
7D
7E
7D
01
00
00
06
73
00
00
11
7A
06
0A
06
00
0B
08
77
02
02
00
7A
02
7E
0B
75
05
06
6E
01
7C
04
75
06
06
07
0A
6A
00
08
00
03
00
7E
03
7F
7D
76
00
0B
0A
7A
07
01
7C
00
0B
03
7C
00
76
03
03
7D
7A
02
72
02
7E
0C
00
79
00
00
04
07
7E
7E
7E
01
05
04
08
01
01
0A
76
03
01
7F
76
11
01
07
11
03
06
03
00
0C
7C
03
02
0E
6D
71
0F
08
7E
7F
10
78
00
7C
08
75
06
7D
00
09
01
7D
06
06
7E
09
7C
09
00
6F
05
04
14
7A
78
77
09
78
78
0C
02
05
7E
08
7C
70
77
0E
79
79
06
03
00
74
16
7A
00
02
00
10
05
0C
7C
75
76
74
76
00
79
7A
09
0B
7A
7D
0B
00
70
10
01
00
03
04
0A
04
78
03
7E
00
0B
12
77
00
0B
09
7E
7E
06
73
01
0D
06
05
0E
0B
09
7C
76
05
7A
0B
78
71
00
79
04
78
03
7B
07
00
02
05
0E
07
06
76
73
00
05
74
07
7A
77
03
03
0B
09
00
7D
74
08
0A
05
6A
73
07
08
05
0D
79
14
75
00
05
7E
07
7B
05
7B
79
7E
01
6F
69
07
7A
09
7F
0E
09
0D
7A
79
7A
7D
72
02
03
0B
07
13
01
7E
78
04
7D
07
0D
00
7E
7C
79
7A
09
03
7E
06
71
00
7B
72
7F
69
78
7A
79
08
7C
06
0C
7B
7A
04
77
09
0F
07
7E
7F
71
78
7D
76
00
79
00
75
03
15
01
7E
10
78
72
77
0D
14
77
7B
00
09
01
0A
00
6F
7C
6D
7B
79
0D
04
0E
03
0E
72
74
7D
02
00
7B
05
00
76
0B
7E
04
73
0E
00
00
76
78
00
7A
02
09
00
7F
09
0D
02
00
02
78
7F
73
0C
08
03
07
7D
73
05
08
72
0F
7C
08
7C
07
0D
07
00
7B
7E
07
00
00
04
00
7C
00
05
7E
75
7A
6E
74
00
00
02
16
08
03
00
0B
7B
6C
74
79
08
01
08
7B
7E
77
03
72
0D
00
7F
14
7F
15
7B
03
05
00
04
09
77
0C
00
0D
78
00
03
7B
07
03
00
00
71
07
0D
12
7D
02
02
0F
7F
74
11
0A
00
07
70
04
7A
7D
00
06
6E
7B
05
7A
7F
7B
73
0B
09
00
06
01
00
78
7C
7F
0A
08
76
07
08
08
0C
78
00
6F
0A
79
72
02
79
05
02
00
00
16
06
00
00
71
04
6F
7B
0D
64
0A
7D
7B
0B
7A
0C
00
06
03
72
78
0B
09
75
78
12
7F
08
78
7B
02
01
17
00
77
00
00
00
7B
02
7F
03
0A
00
7F
68
7A
01
7C
78
00
79
7B
79
7E
73
05
79
06
09
7B
79
01
78
7B
75
7B
00
00
7C
79
07
03
7C
05
08
71
7C
15
0F
05
05
7C
7A
72
7A
08
7C
72
79
7B
0A
75
00
00
7D
6C
7E
00
12
00
7F
76
08
01
08
07
00
7D
01
13
09
10
00
7A
74
05
7F
74
7F
71
03
0B
00
7E
7F
7C
77
74
13
04
02
0A
7F
03
76
0A
12
76
02
02
7F
02
09
7B
05
03
11
75
00
7E
00
05
01
7C
78
7E
7F
06
08
09
79
00
73
7B
7B
7C
77
73
00
00
01
79
01
00
7D
7C
79
6F
08
00
72
00
7F
0C
01
00
05
07
79
09
03
7B
7B
00
02
7A
04
0E
02
06
02
79
01
7B
7C
7C
00
77
04
07
0E
0C
05
7C
01
0B
7F
7A
00
79
7F
00
79
08
6D
05
7E
0C
7B
7D
04
77
75
78
07
7B
75
08
0D
77
7B
05
02
02
0F
04
7E
07
7F
08
7F
78
78
02
01
07
7F
7D
72
08
75
73
7F
00
04
70
76
7F
7E
78
7A
7F
04
7A
7B
0A
09
02
0B
73
7A
0A
04
09
0B
77
07
12
7F
06
77
09
00
78
77
0C
0A
09
7E
04
71
7B
14
6E
7A
06
05
7F
0F
0C
7B
14
7D
07
7F
72
02
00
7B
60
03
7E
7C
03
0A
04
7F
04
7B
7A
0B
09
02
00
04
0B
76
00
0F
04
01
00
01
7B
0A
6A
77
7B
03
09
7A
06
00
76
78
00
7F
04
08
09
7D
7B
00
00
7F
00
00
05
73
76
02
13
04
7A
77
7F
03
7E
74
7C
7D
07
75
7F
0E
7E
04
77
01
7C
7C
7A
78
7D
0B
7F
06
72
04
7B
00
00
00
00
74
00
7C
7E
03
04
0A
7F
00
00
7F
01
0C
01
00
01
7D
79
0C
01
76
7F
7A
05
79
7B
00
1C
7D
00
72
67
01
78
07
09
02
00
70
74
10
7B
10
7C
0A
00
77
02
02
07
00
00
07
03
7E
07
02
03
73
01
07
02
7C
79
00
05
05
0A
77
79
11
7C
07
02
7A
02
7B
00
06
03
73
00
71
72
00
77
05
71
08
7B
04
6D
7F
7C
7A
76
00
7F
7D
7A
14
7D
02
03
0E
00
00
02
02
00
00
0C
06
05
08
72
77
02
75
74
7A
08
75
03
71
7A
01
0F
00
07
05
7C
79
74
7A
7D
02
79
04
08
00
7C
00
7E
00
04
7D
7C
05
67
00
01
06
08
7D
0D
7F
00
0C
0D
7A
01
75
04
18
0C
7A
7F
77
05
09
75
15
7A
79
00
0E
13
6E
77
0E
03
0D
0E
77
04
02
2C
7A
06
12
05
7D
6D
76
7E
2A
7E
15
02
00
03
04
00
02
0B
74
08
06
02
79
7C
02
7E
00
7D
05
02
03
0B
00
17
7D
70
09
7D
14
11
13
01
00
05
0C
6E
0B
7F
70
14
7F
7B
10
03
04
7D
77
0F
0E
07
7C
0B
0B
79
7A
06
12
78
04
7E
00
0C
7B
07
76
06
71
7A
6F
05
02
00
7C
7A
01
03
75
12
03
00
7C
08
08
00
04
77
09
0E
78
02
0D
00
00
01
09
00
04
01
75
13
7B
28
05
0A
17
7E
76
77
78
08
08
0D
00
1E
0A
76
00
03
7F
6C
0A
7D
6E
73
0C
08
02
7D
63
07
06
6A
08
79
78
01
79
01
10
06
7E
7A
6F
04
26
7D
0C
0E
12
13
10
03
06
01
03
07
79
12
07
13
7D
0B
76
05
7D
7C
09
71
0D
05
79
00
11
12
06
00
7B
08
00
23
04
7C
07
0B
02
01
06
7C
07
74
6C
06
0F
15
0C
7D
01
01
7B
07
03
08
00
79
05
01
0A
7E
7D
01
79
1F
17
06
12
78
03
04
1D
06
0C
10
77
79
01
05
0C
00
10
7E
77
79
02
77
7C
7C
0C
79
08
7D
7D
00
04
00
06
06
7E
00
05
05
79
02
75
07
00
19
01
02
12
05
7A
0D
00
04
0E
00
78
03
04
7E
7B
06
00
00
00
05
00
79
6C
02
24
25
03
03
25
71
70
01
0A
08
01
77
02
0A
7B
03
0E
77
09
7E
7F
00
71
7D
04
00
01
7F
08
7A
00
00
05
00
0F
00
07
01
0C
00
75
6B
00
00
7F
0B
0E
7E
00
11
7C
05
7F
7E
10
77
03
00
7D
0B
00
10
13
00
02
01
75
0F
09
10
02
00
7A
05
6E
7A
0D
0A
79
00
0A
12
6E
27
00
00
6A
77
71
1B
0A
76
09
02
7D
7A
71
16
00
04
0C
01
16
7E
14
0D
03
13
05
73
04
04
75
00
00
00
0E
78
00
06
7D
79
00
7D
04
75
09
72
0E
7D
00
0A
08
06
7C
00
06
02
1A
00
00
07
7C
00
00
75
02
79
7F
1E
2B
78
7C
09
77
09
16
0E
07
0B
11
7F
72
0C
0C
7C
06
7C
7B
7B
73
10
14
04
00
76
00
01
00
7F
02
7A
6A
76
00
00
64
7D
7A
09
7D
00
7A
0C
11
14
7E
1B
06
04
7E
7C
7D
01
16
07
7F
7C
75
00
03
74
76
78
7B
77
7C
7F
06
7F
7B
04
04
7E
05
7E
0A
6C
74
79
11
7B
7C
77
00
74
74
6A
05
78
78
7E
7E
73
6E
08
74
02
00
7D
06
07
16
0B
00
08
79
0C
01
00
15
02
02
7E
00
7D
7E
79
5E
77
10
04
7D
7C
7D
7D
74
6D
03
01
76
7B
77
03
00
7A
03
7A
04
02
79
79
00
7B
7E
7B
02
06
01
7A
7F
02
07
00
7A
01
7C
7B
00
76
7B
00
78
13
06
00
08
01
00
74
77
7C
00
00
7C
05
02
00
7B
78
75
0F
76
12
79
7C
09
00
7F
7C
7C
01
7E
7E
00
09
7B
7A
00
03
7F
7E
7C
7D
06
7B
00
7E
70
0D
01
05
04
17
7F
7C
00
7E
01
7C
7C
78
71
6E
7C
74
7F
77
79
07
02
0C
7D
7F
09
7C
74
7C
7F
7E
06
12
05
09
7F
7D
03
7A
0C
75
78
7F
7D
79
7A
01
74
74
02
09
02
01
05
78
7B
03
73
7A
13
75
7B
7A
10
78
02
76
03
78
07
0C
6D
7F
74
09
00
7C
7D
01
7D
78
07
05
74
0E
03
76
0D
7B
7E
7B
0D
79
0E
03
01
04
79
71
79
00
77
00
75
78
08
04
79
7A
07
7A
03
05
77
7F
00
00
00
78
76
00
04
7A
78
04
66
76
7E
7B
0A
77
07
7C
71
79
00
7A
7C
00
01
04
79
78
79
03
00
00
7E
07
00
0A
75
09
03
19
16
7F
0C
75
77
01
7A
7E
7A
6F
00
7E
75
79
08
70
7A
78
78
7D
0E
78
03
7C
00
08
0E
00
00
00
01
00
78
00
04
0D
7A
00
7A
09
00
00
78
6A
01
78
00
01
01
14
7B
0E
7F
7F
77
7D
7F
01
79
7D
0E
00
7D
11
7A
0F
78
09
78
00
7D
7E
0F
0A
13
7F
01
00
04
04
09
04
00
00
0C
7A
01
7C
09
7A
0B
7C
79
7E
0C
77
00
00
02
7D
7D
7A
7C
05
06
01
7E
01
02
05
7E
07
78
00
6D
07
00
79
7D
00
79
7D
09
72
7B
03
06
7F
00
08
7C
0C
79
79
0B
7E
01
00
00
05
7F
00
00
77
7E
7A
05
7B
07
7D
78
00
6D
7E
7C
7F
0D
03
07
7F
72
7F
7E
7E
78
1B
7E
02
18
7C
0D
09
00
00
00
7C
00
06
7F
7B
7B
78
00
00
1C
13
06
07
7C
00
10
01
04
15
02
0D
02
02
00
00
7C
00
0C
12
04
79
0E
00
07
10
7E
77
7D
7E
79
05
7E
78
7D
05
7C
7C
02
76
05
7C
7D
7A
6C
04
00
7E
00
00
00
02
76
7E
77
00
00
14
79
0C
7B
01
00
7B
7D
7E
12
03
00
7C
7B
00
07
78
7B
05
00
7F
00
7F
7E
7C
21
7A
13
7F
7F
78
02
06
06
05
00
73
72
75
00
79
7F
78
0E
01
18
7F
79
73
00
73
78
79
7A
06
7E
00
7D
78
76
00
03
7E
70
7A
7F
7B
00
00
6F
17
73
00
16
05
75
03
07
78
01
00
07
03
78
00
06
7A
7B
0E
07
7C
03
05
7C
07
07
7C
7C
76
04
0E
03
77
79
77
00
02
79
7A
78
00
0A
7B
03
07
10
12
7E
00
7D
0F
75
76
10
06
0F
09
7A
00
01
78
71
7E
01
75
77
7F
7C
0A
79
7B
08
0C
7A
79
7D
79
79
03
7E
6F
76
7A
7A
05
7B
76
04
7B
00
7D
04
14
09
07
7A
78
7D
03
7B
7C
70
0E
06
79
04
7E
7E
78
14
7A
78
79
76
7F
04
00
7B
02
0E
01
00
02
02
07
78
7F
7F
00
0B
74
07
0E
75
06
7A
7D
08
77
02
01
7D
01
79
7D
7F
00
74
0E
7C
7B
0A
77
0A
09
00
7A
07
00
02
04
08
00
74
7B
07
00
00
78
7E
7E
07
7A
7B
6E
05
7F
01
05
00
00
00
08
0C
00
7F
13
7C
75
74
7E
00
00
75
10
00
7E
02
06
0D
7F
0A
70
05
08
76
76
06
78
7B
7D
02
7E
7A
74
06
7F
7D
06
15
72
7D
05
7A
77
7F
03
6D
03
00
00
7B
00
22
00
79
04
7F
7A
76
0A
00
00
01
03
02
78
00
01
03
04
72
11
79
74
79
00
05
7E
74
05
78
00
79
18
03
66
03
06
10
00
75
01
17
22
03
09
00
00
75
77
05
02
00
00
09
01
02
03
74
02
7F
7D
7D
02
11
07
00
0B
7D
73
7A
7B
15
7A
00
79
7C
7C
7D
02
00
01
01
00
09
02
00
7B
04
79
73
00
04
0B
7C
7B
7A
74
00
11
0B
7E
73
00
06
7A
7C
00
00
6A
0A
00
00
78
03
72
7A
70
15
01
7E
0A
71
79
78
0A
03
7B
01
04
14
02
7F
7A
79
01
0C
78
00
00
00
00
00
00
00
00
00
00
00
00
00
00
00
00
00
00
00
00
00
00
00
00
00
00
00
00
00
00
00
00
00
00
00
00
00
00
00
00
00
00
00
00
00
00
00
00
00
00
00
00
00
00
00
00
00
00
00
00
00
00
00
00
00
00
00
00
00
00
00
00
00
00
00
00
00
00
00
00
00
00
00
00
00
00
00
00
00
00
00
00
00
00
00
00
00
00
00
00
00
00
00
00
00
00
00
00
00
00
00
00
00
00
00
00
00
00
00
00
00
00
00
00
00
00
00
00
00
00
00
00
00
00
00
00
00
00
00
00
00
00
00
00
00
00
00
00
00
00
00
00
00
00
00
00
00
00
00
00
00
00
00
00
00
00
00
00
00
00
00
00
00
00
00
00
00
00
00
00
00
00
00
00
00
00
00
00
00
00
00
00
00
00
00
00
00
00
00
00
00
00
00
00
00
00
00
00
00
00
00
00
00
00
00
00
00
00
00
00
00
00
00
00
00
00
00
00
00
00
00
00
00
00
00
00
00
00
00
00
00
00
00
00
00
00
00
00
00
00
00
00
00
00
00
00
00
00
00
00
00
00
00
00
00
00
00
00
00
00
00
00
00
00
00
00
00
00
00
00
00
00
00
00
00
00
00
00
00
00
00
00
00
00
00
00
00
00
00
00
00
00
00
00
00
00
00
00
00
00
00
00
00
00
00
00
00
00
00
00
00
00
00
00
00
00
00
00
00
00
00
00
00
00
00
00
00
00
00
00
00
00
00
00
00
00
00
00
00
00
00
00
00
00
00
00
00
00
00
00
00
00
00
00
00
00
00
00
00
00
00
00
00
00
00
00
00
00
00
00
00
00
00
00
00
00
00
00
00
00
00
00
00
00
00
00
00
00
00
00
00
00
00
00
00
00
00
00
00
00
00
00
00
00
00
00
00
00
00
00
00
00
00
00
00
00
00
00
00
00
00
00
00
00
00
00
00
00
00
00
00
00
00
00
00
00
00
00
00
00
00
00
00
00
00
00
00
00
00
00
00
00
00
00
00
00
00
00
00
00
00
00
00
00
00
00
00
00
00
00
00
00
00
00
00
00
00
00
00
00
00
00
00
00
00
00
00
00
00
00
00
00
00
00
00
00
00
00
00
00
00
00
0B
71
6F
08
00
7E
00
04
00
12
7F
0F
18
0C
00
72
0F
0B
05
07
7C
00
0C
75
6A
7B
08
78
7C
00
0B
74
0B
7C
7D
76
10
01
0C
00
02
79
15
03
7D
7A
75
0D
00
04
77
77
7D
7A
10
7B
7F
0A
02
78
16
07
00
7A
00
7F
01
13
7C
77
07
7A
7C
0C
7D
79
76
7C
00
7E
7F
08
7A
03
00
01
00
76
7B
76
76
03
02
78
00
76
00
7D
10
78
74
01
03
01
09
06
07
06
0E
7F
74
7E
01
04
04
00
77
03
03
04
74
7C
00
7D
03
7C
77
7E
7A
0E
07
74
07
00
08
04
7E
76
07
06
7C
00
06
79
6B
00
7A
08
7F
0B
7F
78
7E
00
06
6F
71
00
00
7C
00
75
7E
7C
7E
02
74
00
0A
70
7E
0A
77
03
79
02
05
05
00
04
76
6F
7F
7F
72
7E
7E
77
0E
77
78
08
7E
03
0A
02
03
74
0E
74
79
05
7A
00
1A
15
01
7D
7C
7C
08
0A
07
01
78
06
7A
03
06
7A
6D
7A
79
0B
01
01
05
7F
71
06
0B
01
03
7B
03
74
7C
15
77
79
7E
7C
7A
05
03
77
00
7B
75
7F
00
04
7A
72
7B
67
7B
7D
7B
71
1C
7D
0B
00
00
01
7D
06
07
05
03
7E
08
7D
70
0E
7C
06
77
03
75
05
03
04
07
7D
7E
0C
07
00
02
01
05
7C
75
7A
7E
7D
74
08
07
7F
7B
7C
00
00
7B
09
02
00
04
7D
03
7B
12
7B
7A
09
06
7E
0A
13
14
7B
00
00
07
00
0C
77
0E
73
7C
05
00
00
73
7B
00
78
0D
7A
79
71
6D
7C
78
09
03
7F
00
7F
7A
01
02
7C
08
01
7A
0B
10
7D
03
7B
03
7E
75
7A
04
02
75
7D
00
00
04
00
0A
00
7F
7C
02
7E
7F
01
00
00
07
05
72
01
00
79
7D
7C
76
03
02
7B
7A
78
07
04
7A
02
7F
00
05
72
70
08
02
73
7E
00
7F
7D
77
6B
66
08
01
00
72
03
79
6A
00
00
03
7F
7C
03
7D
09
70
73
7F
07
70
00
00
7D
04
7B
7E
08
7B
77
7D
01
77
76
7E
7D
00
78
01
00
21
03
00
0D
01
09
75
77
7F
07
7C
7D
07
07
00
0B
7F
7F
05
00
7F
79
73
00
00
01
05
00
00
07
78
0A
7E
06
78
0B
7F
07
0F
02
00
7C
7D
7F
00
02
77
73
7C
7B
7A
71
09
7B
07
74
79
07
00
04
00
05
00
6E
03
78
77
0A
00
6D
07
74
7C
03
7F
00
00
75
06
04
02
78
0B
09
01
05
04
06
75
70
01
78
7E
00
76
14
09
06
78
78
07
11
06
0A
7A
6E
7D
05
00
07
7D
16
7C
7E
0A
06
21
03
00
77
6E
0A
08
05
09
7D
79
05
0A
0B
75
00
00
7E
11
05
04
0B
00
7C
7C
0E
04
08
06
75
08
03
00
08
7D
0A
20
7F
7E
7B
7A
74
77
6E
19
6D
7F
7F
73
7F
7A
15
7C
7B
7D
7A
6E
02
7B
7E
00
18
76
7B
14
78
78
00
07
04
7A
00
7B
06
15
76
07
03
06
00
7F
6F
7E
00
75
06
04
02
75
7A
08
00
09
7F
0D
00
73
0A
00
7B
75
01
7F
0B
06
05
03
00
79
08
00
65
6C
09
7C
04
00
7D
7A
79
7C
74
78
0F
02
7F
7C
77
0F
03
00
75
04
7F
6A
06
02
77
06
76
0B
6B
04
0E
76
05
04
07
14
01
02
7D
73
71
74
78
00
0C
78
11
7A
0B
05
03
00
6B
00
0A
0E
04
02
00
1A
6A
6E
6E
02
00
00
72
7C
01
24
7A
79
17
17
01
75
0C
77
6D
01
71
00
0E
0E
08
5B
7A
74
02
00
78
0A
75
01
03
07
79
73
00
0B
5C
02
7E
7E
07
7A
03
7C
7A
03
70
01
0A
00
00
78
08
78
76
7B
10
19
76
7E
01
77
77
1B
7F
7F
00
04
71
78
00
74
08
05
01
04
06
7B
11
0C
7B
05
78
6E
7A
00
04
0D
00
70
70
09
04
04
06
00
00
04
75
00
03
78
7A
6B
76
72
7D
7B
74
6C
01
06
01
79
7E
7F
07
7B
06
79
7C
0D
75
6D
0C
7A
72
7A
05
74
0B
0C
7D
00
00
06
00
06
00
76
01
08
7D
06
01
00
00
07
7B
6C
7E
00
0A
0A
74
77
00
7E
7C
07
7D
7C
76
7B
0B
1D
00
74
74
78
15
01
7E
7C
00
06
7B
0E
77
0D
7F
7C
00
04
03
04
7A
00
00
04
05
73
03
05
06
76
7F
7C
7F
73
13
00
01
7F
7B
0C
00
1E
00
03
03
7A
7B
01
06
07
6F
01
00
62
7A
00
05
75
02
13
73
06
77
7E
0F
16
02
00
79
01
0A
7E
06
06
05
7D
00
00
0F
75
00
00
06
7C
03
04
07
6F
75
7B
00
6E
7E
79
01
05
05
7C
04
13
75
0F
7E
02
72
07
0C
03
7F
77
7D
00
7E
00
7E
00
03
7E
0E
7C
74
00
06
00
77
78
7B
0D
00
07
7F
7B
7C
01
78
08
7C
7B
7F
7B
7C
7A
04
7A
15
7B
00
09
79
7A
01
01
09
76
13
00
6A
04
04
0E
06
7B
18
0B
7C
0B
7B
7E
05
79
06
00
78
09
7D
78
7C
72
7B
76
08
72
72
03
7C
00
02
0C
7E
01
71
00
0B
7A
7E
02
05
77
00
7B
79
00
0E
00
74
74
0B
7C
7A
06
09
6C
03
78
02
76
05
11
7C
7B
71
06
7D
04
79
00
04
7D
00
00
79
7A
7A
7F
7E
7F
72
6E
7F
7D
00
0D
02
7E
04
10
06
7A
00
08
02
11
00
02
78
7D
04
7B
77
7C
00
78
77
7F
00
7C
06
0A
0E
75
0F
7E
7E
7C
7A
7A
00
7D
7E
79
0A
0E
77
03
79
00
7D
0F
7E
7F
7F
7E
00
7E
08
7E
7E
7A
7A
0C
71
09
75
7C
76
79
06
07
78
7C
7C
73
00
08
7B
06
78
70
12
78
02
03
79
03
7B
06
0C
77
6D
77
08
02
07
7D
01
75
02
7D
0B
08
0A
79
09
03
07
7F
04
77
1B
12
7C
67
08
7B
08
78
08
00
7C
00
00
05
7A
00
08
76
7E
79
0B
01
75
00
00
0A
6E
7D
7E
05
09
7E
07
6E
10
7B
73
00
15
03
72
06
04
7B
05
7C
02
79
00
67
03
79
76
78
07
78
7D
08
7E
06
77
75
7B
04
00
02
0D
04
00
75
01
76
03
02
04
0B
73
04
76
7B
71
7D
12
00
01
7C
00
03
73
76
78
7E
6B
00
00
0A
7A
00
07
7A
7E
02
08
01
7D
14
79
76
0E
01
76
7E
08
7F
7D
01
7D
7F
77
78
05
0B
70
78
05
10
00
04
7A
78
7F
00
00
00
00
6E
00
73
7B
7A
14
6E
75
00
00
7D
02
1C
03
00
7B
7F
6B
10
07
7C
11
7F
08
02
0D
01
76
04
00
13
7F
04
6C
7A
79
03
00
06
07
78
03
06
75
08
00
01
79
6E
14
00
00
7B
7E
04
7D
75
7C
03
78
71
05
04
75
00
7B
00
7F
7F
07
7B
72
7E
79
08
09
0C
03
7B
7E
01
00
12
02
00
05
7A
04
74
02
03
7C
03
7C
67
10
00
01
75
7A
00
01
7F
01
7C
00
00
5C
00
00
00
77
73
77
08
7A
75
0A
0A
73
74
79
02
77
7E
05
10
6E
6F
1B
09
06
7F
7D
7E
7A

