03
70
7F
7A
00
78
00
7C
00
0C
79
01
78
0B
00
7C
79
13
08
01
79
00
05
00
73
02
7B
00
7D
00
7E
03
03
13
04
69
0B
00
06
00
00
0B
76
77
78
08
7D
76
7B
7D
7C
76
03
03
7F
79
7D
07
04
09
6C
00
12
07
00
07
01
02
77
7F
09
01
03
7E
02
0E
02
0A
00
03
08
78
00
7E
00
7B
7D
7E
04
7B
0A
11
01
04
00
06
05
0E
15
06
05
0E
7A
0A
0A
7F
0C
7A
02
00
7A
03
0C
08
7F
04
10
04
0E
03
04
03
00
08
03
00
7D
09
7A
08
10
7C
7B
00
7D
7C
03
0A
73
09
0D
00
09
76
78
00
0B
00
7E
03
0F
7B
05
00
79
7F
02
00
08
7F
01
12
02
71
04
0B
7B
03
19
7B
06
7F
0B
07
06
73
00
00
00
05
7C
74
79
01
6F
00
0A
7F
03
7C
14
09
12
75
77
09
6F
68
7E
0B
7E
00
7F
01
7F
0F
79
79
7F
09
01
08
7C
7F
7D
29
7B
02
06
0D
71
00
76
03
03
7D
7D
07
7A
09
72
7F
03
7F
06
72
7C
06
76
04
04
00
79
7D
19
08
71
06
04
04
7F
7B
6A
7B
7C
6B
06
7E
0F
0C
05
77
09
01
00
05
05
7E
02
0E
70
08
7F
7E
0F
12
04
00
0A
79
02
7C
0B
02
7C
79
03
01
07
00
04
76
02
05
6D
00
0C
00
09
01
0A
01
1B
0A
05
00
7D
78
09
00
7F
0F
79
77
04
68
77
73
79
00
7E
03
7F
02
00
03
04
00
05
0F
07
7E
7F
74
00
00
7E
7B
00
03
01
06
0D
6A
65
71
01
00
73
03
03
0C
73
7E
09
7B
07
06
7F
06
02
00
0D
0E
75
07
04
00
7D
01
79
7D
00
00
01
00
0F
00
7A
76
01
7B
04
0F
00
00
7E
0F
6F
7A
00
05
7E
10
04
0D
7E
02
7E
02
00
02
05
02
0D
00
7D
63
02
63
05
08
01
00
79
75
16
70
7E
01
7C
00
05
7D
0D
7E
00
00
03
02
7C
0F
01
78
01
05
04
7B
70
06
00
13
01
07
07
7D
1C
08
05
00
0A
01
01
02
0C
7A
01
00
74
7E
00
0E
02
7A
04
76
0B
7E
01
07
7E
76
00
0B
0B
05
02
78
09
05
01
00
00
74
02
00
00
7F
74
03
7B
75
0F
01
03
09
18
79
7C
10
04
04
7D
7D
05
74
0B
7E
01
6C
7C
03
6F
7D
7F
77
00
77
00
78
00
71
78
72
6A
16
00
09
6F
05
00
7D
7B
00
09
09
05
00
77
7C
0E
04
77
02
08
0B
03
78
05
72
67
00
73
7F
03
77
08
79
05
7F
03
67
04
79
7C
00
70
7B
7F
0E
76
08
03
75
05
7B
00
00
7D
6D
74
0C
00
01
7F
70
11
24
7D
0E
00
0B
07
6E
04
6F
00
08
7D
6F
08
01
7E
04
78
02
00
7F
07
06
10
76
0A
7B
7E
7D
7E
00
03
6D
74
6F
7A
09
0F
08
6B
03
09
7D
07
77
05
09
00
0E
07
7B
79
7C
7D
6F
10
04
74
00
74
0B
7D
03
78
7F
11
00
02
77
7A
00
77
08
7A
7C
09
18
7E
00
06
03
09
00
06
7D
7D
7D
06
06
06
07
06
05
7D
04
05
75
03
7D
74
0B
75
06
00
03
7A
02
73
04
0E
13
0B
0A
72
75
10
7E
04
7E
01
06
01
6C
7C
01
07
01
7F
0B
04
70
75
7A
09
73
73
05
0B
75
78
7A
7D
7A
04
01
06
0A
09
0E
00
71
7D
76
0A
0F
70
73
00
7C
00
01
75
75
7A
78
03
7F
7D
79
18
0C
17
00
76
0A
02
0A
6F
77
74
7A
07
06
07
09
0B
76
0E
73
00
05
01
7D
76
7A
7D
08
01
05
0F
01
76
7A
03
7C
79
01
02
6D
78
02
06
01
74
00
0A
74
7B
0A
75
05
0F
04
03
7C
7F
0B
11
10
7A
00
79
00
02
00
75
0A
77
78
78
01
79
71
74
06
74
77
7A
7D
00
01
0A
00
05
7D
7B
7A
7C
00
00
00
7F
02
00
75
00
09
70
00
0A
79
79
04
04
7B
08
06
7A
78
76
06
74
08
78
73
7B
00
66
17
74
02
70
7A
76
7D
77
7C
00
00
7B
00
01
00
00
79
78
71
08
03
00
00
73
11
06
04
00
7F
05
03
76
02
6C
78
7C
7C
06
7F
76
01
08
00
7C
77
08
77
78
03
7C
00
77
7E
0A
7F
7B
0B
03
00
02
73
04
71
00
00
77
00
0A
0A
7B
7C
79
0A
7E
72
7F
7F
00
7E
71
7F
7F
01
24
04
00
77
09
02
73
05
08
07
7F
00
69
79
00
7D
0C
75
14
7C
04
10
78
0F
77
75
00
77
01
7D
70
7E
04
0C
06
00
00
0E
7E
00
00
06
7D
00
7D
76
04
79
74
02
6B
70
0C
16
75
00
06
76
05
10
06
02
01
7D
6D
79
11
70
0A
6C
00
0C
00
7F
00
05
00
0D
60
10
00
08
10
75
06
69
08
00
02
06
6F
02
03
09
03
02
03
00
07
0B
0D
0B
71
06
04
00
7F
17
6B
00
7C
0A
0C
6D
02
02
7C
7B
07
67
05
6E
05
26
07
0D
7C
0B
0A
09
00
0D
04
0F
09
02
05
01
01
79
01
03
01
05
00
02
0F
03
00
07
00
68
78
04
7D
0A
7D
0B
02
04
00
08
03
11
14
0E
79
68
7D
05
02
00
0D
09
0D
01
08
03
08
05
00
0A
0A
7A
68
00
03
09
00
0B
05
03
09
06
01
7E
07
5A
0A
00
73
09
05
05
69
06
0B
00
7E
09
02
00
0A
02
00
0C
02
7E
0A
00
65
70
06
00
08
77
0A
16
75
02
04
12
74
08
04
0C
01
08
08
03
6C
05
0C
07
00
0F
04
06
07
03
74
0F
05
05
0B
12
68
65
04
14
6F
05
17
05
6D
0C
01
6A
09
09
07
0B
00
0F
04
70
71
58
77
06
75
7A
0A
07
73
73
07
78
64
71
00
63
0C
01
76
07
09
00
05
04
07
0C
00
0D
02
0B
02
00
67
00
0E
7F
7F
0A
7A
5E
76
0E
1D
08
0A
6A
09
07
06
62
79
06
04
7A
00
6E
7D
02
03
01
6A
75
7F
04
08
79
08
02
0D
5E
7C
10
67
01
06
7D
06
07
07
00
00
07
0A
02
0F
15
6D
04
06
00
72
01
68
08
04
00
00
6A
06
00
07
0A
02
76
5B
7D
72
7A
6B
00
07
04
04
08
00
05
07
00
71
05
07
06
09
08
00
00
11
04
00
0F
04
0F
73
0A
76
7E
7C
06
00
69
07
69
7F
01
7A
6E
05
02
03
7E
64
10
05
06
7D
77
0A
01
05
04
7B
03
00
00
04
00
12
00
77
0A
01
0E
01
01
00
00
7F
01
02
08
00
76
04
02
0B
01
7B
09
06
03
6D
6B
0F
04
0A
00
62
17
05
06
04
01
08
00
02
74
14
20
05
02
73
00
07
06
04
02
00
00
07
09
15
05
05
7E
0B
09
7E
06
0F
0F
00
00
04
04
11
08
0B
09
7D
08
09
06
0A
00
05
66
7F
00
65
75
00
0D
0E
03
74
04
77
05
06
07
63
78
00
65
75
7A
7F
03
00
03
08
00
00
74
71
00
00
04
0D
04
03
06
76
0A
08
09
10
02
06
04
04
03
5D
03
16
04
02
08
02
09
7F
0C
0F
07
7B
7F
00
0C
00
08
00
13
77
0E
0B
73
00
6E
08
01
78
7D
0B
00
06
17
7D
05
7B
78
7C
00
05
79
13
74
01
05
70
02
0D
00
10
74
62
77
67
7F
0D
6F
6D
0A
7C
0B
7E
75
17
01
0A
78
04
65
19
0A
06
02
00
71
7D
15
02
7A
11
7F
02
76
71
73
00
7F
00
06
0C
0B
79
14
00
00
73
01
7A
0A
78
16
79
07
00
75
73
7F
6A
09
07
07
7A
10
04
75
7F
09
16
02
0C
01
13
0E
0B
7E
7C
78
00
7F
7C
01
00
79
0F
7E
13
09
7C
12
03
0C
0F
00
71
01
11
0A
73
01
09
00
0A
7C
05
00
79
06
02
7F
14
6B
19
00
79
73
09
00
7D
06
74
7E
10
10
71
16
6A
7B
7F
7A
0F
19
7A
00
76
28
7A
13
00
0A
6B
1A
01
0E
7A
68
06
05
06
7C
06
77
07
72
7D
14
79
0E
02
02
05
01
04
78
00
01
00
18
09
7B
05
6F
06
07
70
06
08
76
75
06
0B
7E
79
69
0D
74
78
08
79
0E
13
08
7F
08
0F
75
0E
04
79
7F
04
00
76
04
07
7B
71
0A
01
6F
7C
77
7C
00
13
16
05
7C
7B
75
7F
7E
7D
78
00
77
02
0D
14
7C
6E
7D
01
04
14
07
0F
09
12
7A
10
12
03
08
0E
07
19
7F
03
00
17
05
72
13
13
75
76
7B
03
11
0C
7B
0E
00
76
00
0E
65
03
00
13
11
7D
7F
75
15
05
33
6A
7B
07
0C
17
00
00
7A
7B
00
0C
7E
14
03
79
00
00
00
02
00
00
10
02
01
0F
08
75
09
0B
0B
0E
7A
02
00
12
01
79
7D
78
01
01
7F
7A
00
00
7B
0F
77
0D
02
10
05
74
08
00
00
06
00
7D
00
7F
09
6F
0C
1C
7E
00
00
04
78
79
7D
00
01
7B
0F
06
00
24
18
0C
7E
00
77
1D
03
0A
00
73
78
7E
27
06
7D
75
00
05
0C
03
7D
7D
05
74
00
05
19
73
7C
00
00
10
02
69
08
12
01
7E
79
12
0D
0C
38
00
0B
12
14
79
78
05
0D
7D
79
7F
12
06
7C
05
70
7F
00
77
06
00
79
0F
04
7C
7A
7E
00
04
10
7C
7F
00
6D
06
07
0E
71
7F
6E
10
00
00
6B
7B
00
00
6F
78
14
04
1D
0A
17
03
02
0B
08
02
79
7F
04
05
03
6E
6F
76
04
02
02
0A
00
03
14
7F
00
00
05
00
0F
00
7E
01
04
04
02
00
01
01
78
75
7F
7C
00
78
79
06
75
77
7D
68
0D
07
7B
01
73
79
00
6C
7F
6B
00
7E
78
7A
0E
79
7C
77
72
7F
0D
06
76
79
7B
7A
10
6C
0E
07
07
6C
7F
7B
0B
00
7B
6C
7A
05
0E
7F
79
00
7E
08
7F
0C
79
00
01
77
06
04
07
00
07
7D
7D
7B
0B
7C
7F
0B
7C
00
73
76
74
74
03
78
7E
08
79
01
79
7A
04
07
05
67
04
76
11
04
03
7B
78
7C
77
0C
7F
00
7F
7F
79
20
7E
0F
06
7F
6C
0A
00
7C
7E
0F
08
07
73
79
00
79
07
0D
00
7D
7A
08
76
7A
79
6B
00
00
0D
6F
00
7A
05
7A
70
05
64
01
03
13
7D
0F
02
09
00
71
77
7C
65
00
7B
00
7B
0D
07
19
7E
06
76
7A
77
72
7D
09
01
78
7E
06
71
71
7E
7E
7F
05
7E
00
78
64
6B
7A
07
06
0B
0B
00
75
12
06
02
7A
74
7D
7F
04
7C
0E
76
09
10
7A
07
05
06
78
13
12
0B
64
7C
7A
04
05
7A
77
64
0A
0D
7C
75
77
7E
73
0D
7C
05
07
7A
73
7C
75
73
74
07
0D
77
7F
07
00
79
77
12
0C
07
04
77
7E
6F
14
0F
7C
7F
7F
09
71
75
77
06
08
74
76
7E
05
00
7A
05
01
06
7E
7A
7F
7E
76
76
78
02
10
75
7F
00
0E
7E
7D
00
00
7D
01
7B
7F
69
04
6E
05
7B
06
06
02
7F
00
76
7B
00
7A
7B
04
67
73
09
00
00
73
6C
00
02
01
0A
73
7F
02
74
65
00
72
00
7A
7C
76
18
04
06
04
04
7F
7D
01
7F
77
74
0A
7A
0B
08
7F
7B
0D
7A
00
00
0A
00
06
00
06
7A
06
7E
05
77
00
00
0E
73
76
0C
00
02
79
7A
77
00
76
06
09
7A
03
79
71
03
77
00
12
04
7F
5A
09
6F
7C
00
17
7D
04
09
13
7D
7C
00
05
7B
76
71
00
00
00
7D
7D
7E
77
12
02
7B
0F
02
71
72
00
7D
7A
05
71
7E
7D
72
7B
0D
7E
05
7C
7D
70
0F
0B
00
04
0C
00
77
7E
01
0E
02
77
0A
00
7D
7D
03
00
77
70
79
11
7E
7A
0B
6D
00
00
0F
7B
00
00
7E
05
78
7A
79
6E
0C
7F
73
7C
76
00
75
0A
03
74
06
7F
73
7D
09
0D
04
01
7A
76
05
0C
67
00
01
00
01
00
7D
79
0D
01
23
00
01
12
78
09
6D
7E
00
7E
05
78
07
06
12
7F
01
06
03
73
1E
06
04
78
0A
08
00
7E
11
62
04
7E
7B
11
6D
03
0C
7D
00
05
74
7E
73
08
34
7C
7C
0A
07
0E
76
00
00
7F
19
0D
03
06
05
00
6F
0D
78
7E
04
00
04
0F
04
09
06
00
74
75
14
7B
00
05
0C
01
09
00
07
06
01
24
7F
7A
04
7F
00
06
7E
07
2D
11
08
7C
01
11
2B
03
76
10
78
70
07
02
01
00
0A
7E
03
24
7A
0C
0B
0A
6E
70
00
7B
01
08
7E
78
13
7C
00
78
0F
07
00
06
06
13
02
7C
0B
10
00
75
7C
08
00
7F
0B
08
14
74
06
03
0A
09
71
04
0A
02
08
0A
03
74
08
7C
02
00
13
03
0D
04
7E
0C
0B
05
03
07
20
77
72
03
0D
78
10
6D
2D
76
0C
7F
00
01
0B
03
11
08
16
02
03
7A
64
08
12
00
08
06
12
7A
78
17
0A
01
73
00
6D
0D
07
0B
7E
05
7F
7B
12
78
0B
15
79
01
04
03
0A
77
08
0F
79
6F
1B
05
71
7B
16
14
05
06
00
09
00
0F
70
00
08
64
7E
00
79
7D
00
7D
7D
6F
7C
78
0B
1E
7A
00
7D
07
70
02
16
69
07
06
05
02
03
0E
00
14
74
14
71
0D
1A
12
7F
04
7E
73
7E
07
04
76
00
03
6E
7E
00
04
02
7F
7E
6C
76
79
06
76
06
07
74
78
01
00
7E
78
00
64
03
0D
02
11
06
00
00
0B
00
00
0D
6F
0D
7F
0C
7F
06
0B
00
0E
7A
06
7C
7D
7A
77
76
01
7F
18
04
72
7A
17
10
09
73
0A
04
00
0A
06
77
00
00
04
00
09
00
13
0E
00
02
7F
03
00
00
7D
76
02
07
00
7F
7D
7E
0D
6A
72
0A
02
00
6F
7F
7C
04
05
00
67
11
09
7E
7D
7E
71
00
02
7B
18
1A
06
66
7A
00
07
11
06
05
00
00
17
08
70
23
04
79
05
08
77
03
09
03
00
07
7C
02
13
02
21
7D
00
01
05
03
09
01
03
75
7C
00
76
66
00
76
0F
73
1E
03
7C
64
0B
7F
76
75
00
7A
06
7F
01
01
03
68
03
00
00
06
6A
00
00
7B
15
7C
03
7F
0A
05
08
0B
13
00
01
08
04
01
7B
04
0A
0B
13
06
76
0B
6F
08
09
02
7F
78
00
06
00
07
00
00
04
08
75
76
00
0A
0A
76
02
08
08
00
09
06
79
04
7F
01
04
01
02
77
7E
03
75
10
7F
03
7D
00
18
7E
7A
73
08
7E
07
0A
09
7C
08
16
00
7C
08
7D
75
76
7C
75
2C
09
02
7E
00
77
6F
0E
75
16
03
05
08
02
7E
0A
0B
7B
00
06
0D
01
0A
05
00
7E
74
13
07
05
00
0E
7A
02
00
7F
7C
73
77
04
03
7F
08
7D
0D
08
7C
04
04
7F
08
79
7E
07
7E
71
07
03
01
06
03
79
00
72
06
7E
0B
7D
0E
01
7D
7F
7B
00
03
7D
05
03
7A
79
06
00
01
0B
09
00
02
10
03
7C
00
05
01
00
79
10
05
00
00
04
7A
7C
02
02
7A
0E
7A
77
09
09
03
0F
7B
02
04
20
71
00
00
78
71
11
02
08
76
06
05
00
09
12
74
7E
72
03
76
03
03
04
05
06
01
00
03
04
06
78
0E
13
04
7A
03
79
11
04
06
06
0A
75
7E
77
0E
0D
7F
7F
05
00
74
0B
07
7E
27
06
0A
06
01
7C
7E
7E
79
02
7F
76
7A
05
01
0A
14
03
7C
74
71
6B
17
0D
10
07
08
7D
07
04
18
7A
0A
7D
00
7E
03
00
00
75
00
72
04
01
0C
02
79
02
7D
78
12
06
6C
01
05
02
7E
74
7E
00
01
0B
74
08
07
0D
6B
0F
00
7E
7D
0B
00
7C
78
00
01
73
09
00
09
7C
74
04
03
12
7C
32
7F
00
00
7D
04
77
00
74
0D
00
00
16
01
07
73
10
00
00
74
76
00
00
07
10
06
10
7F
06
02
0A
18
7E
01
71
16
0C
03
00
6B
75
07
0C
6D
02
07
77
03
05
04
04
04
02
71
05
00
00
7F
00
06
00
09
7B
72
06
01
79
00
00
05
00
14
78
00
06
7D
6F
6F
0E
18
05
04
7C
04
01
10
07
01
00
02
78
0E
21
02
00
09
00
06
02
10
04
7F
0D
7B
00
7E
7F
00
70
00
00
07
07
13
0F
00
02
7B
6E
02
01
0D
20
00
0C
7C
00
75
75
06
70
06
71
74
07
01
77
79
7C
05
00
08
0B
00
66
0F
7E
75
10
7D
12
00
05
77
01
00
71
04
01
7F
78
7D
77
06
00
00
0A
00
00
00
02
00
7F
79
1F
7D
1E
03
05
01
71
08
09
04
00
7E
09
13
0E
7D
76
02
7D
03
76
0D
11
0D
77
00
77
00
00
00
0B
05
6E
1A
00
00
7C
09
0F
6C
00
79
00
00
09
0D
01
06
06
78
7E
04
79
01
72
06
04
0A
72
0F
00
06
79
0F
05
07
7A
7A
0D
00
04
06
0E
03
77
7E
77
03
02
79
07
06
02
0A
79
00
7F
0F
7B
04
00
01
7F
75
07
03
73
7C
76
00
00
7E
04
7E
03
00
05
0E
00
78
7D
00
7E
7D
7A
00
74
7B
06
08
74
7F
06
01
74
01
7D
02
79
7B
77
6E
04
7C
7C
77
06
6D
00
7F
04
79
03
00
0C
72
72
7E
79
7A
0C
7B
0D
01
00
79
05
7C
71
02
01
0E
00
76
0E
7B
00
11
01
7D
0E
05
09
7E
00
0B
02
07
00
77
0D
7E
75
01
07
7F
07
7F
76
5D
7E
7B
03
7F
71
05
00
7D
7A
00
01
0B
02
05
03
0B
09
7E
7D
00
0A
0A
00
03
04
02
02
11
7F
0B
6C
7F
7B
07
06
06
0E
0E
71
7E
7A
03
01
02
08
0A
04
70
0D
01
06
00
6B
0C
01
7B
79
08
06
0B
03
01
76
04
02
0D
07
02
08
7F
00
7B
0B
03
01
01
70
79
6D
02
0B
04
0D
0F
00
7B
01
02
08
02
73
01
05
04
06
00
7F
70
00
78
7D
07
75
78
02
59
0E
79
7D
75
06
02
0F
7C
00
01
05
7F
78
78
00
05
0E
09
7B
08
7B
02
74
79
03
03
71
0D
75
7B
00
7E
07
70
00
7E
7B
08
07
10
7E
02
74
08
74
78
00
00
08
00
09
07
00
78
7C
0F
79
04
07
00
00
7E
08
00
00
01
06
0F
0D
13
02
06
79
00
7F
04
05
7B
02
05
7F
08
04
0A
7C
0B
6C
08
0B
04
76
6D
02
05
03
0F
75
00
00
7B
00
08
00
07
04
09
74
7D
76
00
00
0A
01
06
08
00
09
7F
00
7F
6B
7F
00
7A
07
7F
79
7F
75
06
00
77
16
06
7C
00
79
08
00
7B
7C
71
0F
10
72
0C
00
77
05
7E
01
00
00
01
06
02
0A
03
02
00
77
78
79
07
7E
00
67
7A
02
04
09
74
79
04
07
6F
79
75
7D
00
04
05
00
06
0A
00
7C
03
7C
7F
7F
00
09
7B
7A
10
75
00
08
04
01
04
01
7B
7D
70
00
00
09
78
00
00
04
78
7F
02
72
0A
01
79
02
03
00
7A
74
0B
01
06
06
7F
78
70
7F
6D
0F
04
08
7A
79
6C
03
00
05
00
7C
00
72
00
71
75
03
00
76
77
1D
02
7E
02
00
00
77
7C
72
7C
6C
7F
7D
01
7D
07
0A
74
77
0D
76
7A
00
78
0D
11
77
09
7E
0C
0B
7E
0B
06
7A
03
7F
7A
7E
7E
7D
02
05
64
04
00
71
00
04
77
02
7A
03
00
7E
02
11
01
0C
7F
04
00
0C
77
01
76
7D
00
10
78
75
7F
79
6E
09
01
02
00
7A
03
0B
09
79
74
02
01
0A
03
7F
0E
02
02
7A
79
0A
0E
0C
7D
03
75
09
01
7E
7F
01
00
7E
0B
02
00
7F
15
05
00
79
04
00
02
09
7C
7C
0F
0D
7A
00
0D
71
7E
00
00
02
75
7C
06
0D
04
00
78
7A
7E
00
02
02
7B
74
08
75
05
7F
0F
7E
72
0A
00
7D
79
79
04
7C
7B
0C
00
79
01
0E
00
0D
78
05
03
07
0A
74
76
67
7D
77
01
05
72
0E
03
7F
7D
0A
07
21
75
7E
7C
0C
7E
6C
7D
17
7D
00
79
0C
0A
7D
7F
7F
07
74
07
14
03
7D
03
79
0B
7F
7C
75
78
7A
75
75
08
72
02
78
01
77
78
7F
77
7E
0A
03
7A
09
01
7D
73
06
08
05
7A
7F
7E
0A
0A
05
79
72
00
75
77
07
04
03
01
07
04
74
0D
02
70
00
07
0A
72
02
0B
02
7C
7C
07
00
08
00
09
7D
04
03
02
01
78
05
7D
0D
78
05
75
06
03
00
7E
0C
7B
00
00
0A
7F
7C
09
6D
05
00
19
06
7C
05
07
0A
00
06
06
00
07
01
05
0D
06
7E
00
00
02
7B
00
02
7D
78
78
7D
77
0C
08
10
15
7C
0B
76
0C
7D
78
07
02
06
02
00
77
7E
7E
0C
10
05
00
7C
0E
7A
09
04
00
00
79
00
7E
00
0D
7B
02
7C
0B
73
00
00
7E
05
75
79
00
01
05
7C
04
6F
7B
04
7A
7F
07
05
05
7A
04
00
7E
64
13
6B
07
7C
06
00
7B
28
6D
75
0D
7B
0B
00
08
7F
7C
01
00
00
70
04
78
15
7E
78
6F
06
05
7D
79
7C
00
01
76
03
7D
07
7F
7F
04
7E
7D
7F
78
7C
02
06
7F
00
1F
73
00
7E
08
01
08
10
00
00
08
05
6F
05
00
05
0D
7B
08
05
7A
7F
7C
00
00
00
19
00
00
00
08
05
7E
72
71
7B
75
00
7E
08
02
7F
77
7C
02
04
7D
7D
04
01
7E
03
7C
79
05
14
09
78
00
05
00
77
00
73
7D
01
72
0B
00
0B
05
7A
77
79
0D
00
7F
00
2C
06
77
08
7A
77
70
03
07
09
79
0D
76
78
04
00
0D
1E
7A
73
77
09
0C
74
01
77
03
0C
74
03
70
7D
7D
0E
7F
15
62
01
0D
01
00
07
0D
7F
08
7D
78
07
7F
0B
0D
0F
7E
7E
00
02
79
02
05
7C
00
00
7B
0C
01
05
77
0B
72
01
00
00
7A
06
0F
02
02
02
7E
03
78
01
7F
08
75
7B
12
7B
05
19
78
7F
02
01
76
77
7D
78
00
0A
7E
01
0F
04
24
74
7E
09
0D
00
7C
74
7E
7F
77
03
7F
00
06
0A
0D
00
0A
02
78
0D
01
13
00
00
75
7E
05
00
07
76
01
03
05
06
02
07
15
7D
7E
0D
7A
79
07
07
7A
76
02
7C
00
76
00
04
7C
7E
03
7D
7C
01
7F
76
7E
7A
71
02
00
75
13
07
75
07
78
04
03
10
76
7B
09
78
7E
77
78
7B
74
75
00
61
07
7D
7E
7F
08
04
20
7F
7C
7A
7F
00
10
79
7A
78
7A
73
0D
10
15
7E
22
00
7F
03
7F
72
79
05
1A
04
06
77
01
03
7E
0C
08
19
7C
75
7B
7F
6E
04
06
77
00
0E
02
74
7A
78
75
7E
77
72
09
7B
01
73
05
77
0C
11
7A
7B
69
0A
05
02
74
00
7B
15
06
00
07
7C
09
7F
7D
7E
78
03
7B
7E
01
00
7F
7B
79
00
00
09
76
0A
73
06
06
7A
09
74
6D
7A
07
00
00
7D
04
00
7D
7C
73
05
71
71
00
00
09
7A
00
05
06
77
7A
23
01
08
0E
04
0C
7F
72
00
0E
01
7C
01
01
7C
7F
7C
7C
07
05
12
0B
09
03
76
03
79
1D
77
00
00
77
00
7B
00
19
7F
74
7F
7D
76
00
00
76
07
08
7E
00
7F
00
79
02
07
73
01
7D
7F
6E
7C
7C
01
00
00
7A
7E
25
7A
7F
77
04
00
73
09
7C
14
0E
03
01
00
0B
03
04
10
00
00
7D
02
01
0E
74
75
7F
00
74
7A
10
7E
00
7B
7D
7F
7D
04
0B
7B
79
73
02
7F
03
03
7E
79
79
00
7F
78
00
07
00
7D
04
11
01
21
7F
00
06
7D
00
6D
77
00
74
02
00
02
0D
00
00
7E
7E
00
00
04
0A
77
06
7A
75
73
7A
75
7D
05
01
0A
79
7D
05
78
72
0A
79
00
01
09
7F
02
7D
03
7F
7B
00
68
00
05
00
77
03
7E
7C
15
00
0F
75
0E
04
7A
02
00
76
06
0A
02
06
7B
7C
7F
7B
02
7D
04
14
7A
03
07
0F
00
07
0B
01
03
7E
07
78
00
02
04
7D
74
09
00
7C
02
12
04
7F
05
78
78
0D
07
00
7C
7D
70
7D
74
15
72
79
08
0A
04
00
04
00
7F
0C
09
01
05
00
7A
00
0C
7C
7F
09
09
04
74
00
03
03
01
04
7C
7C
08
06
0C
01
0B
0A
74
00
02
08
7F
15
0D
7B
00
11
7F
08
01
06
01
00
0F
7C
7E
0B
7C
08
05
0B
79
7E
00
02
04
06
03
06
0D
04
00
01
7E
0D
00
02
7F
7F
00
08
05
04
00
03
05
0A
00
03
7D
00
07
77
0C
7D
07
00
00
03
0A
08
03
07
06
12
7E
7F
04
00
07
05
6D
06
03
05
10
04
77
7D
04
0F
02
0E
7A
01
0E
7F
6C
7D
02
7B
75
71
05
76
73
7F
71
01
0A
7A
05
00
07
07
7C
74
0A
08
13
75
05
0D
0D
06
7E
0B
0D
05
0F
7D
7C
09
09
06
7B
67
09
0F
7B
08
0A
7D
03
10
00
0C
6C
09
10
04
0C
7B
02
07
7C
06
00
04
00
7B
06
79
01
00
01
79
7B
7E
7F
01
09
04
0C
60
05
0B
01
71
0D
11
09
0A
04
7C
0F
06
7F
7F
00
08
7B
0E
75
03
79
08
7A
7D
7C
02
7A
0B
03
03
00
04
07
01
00
09
7A
7C
02
07
7A
71
0B
03
01
0B
7B
00
7E
00
00
7E
00
7F
7B
06
06
08
69
00
00
73
05
00
08
02
70
07
0E
74
02
12
6C
0A
07
7D
04
02
6F
03
7B
06
00
7B
7C
7A
70
68
00
0D
02
03
05
73
04
0C
01
00
00
7D
00
72
00
07
74
08
73
00
15
00
00
7C
76
1F
76
00
09
77
12
02
04
0B
06
7F
00
03
04
0C
0C
1A
00
03
0F
05
06
7F
0B
02
00
06
7C
0E
04
10
00
06
00
00
07
10
13
00
00
08
79
0A
0B
02
7F
04
7F
04
03
0F
01
00
04
7C
04
08
02
07
0D
06
7C
7E
00
00
01
02
01
03
00
00
02
00
00
7C
7C
78
77
05
0A
7E
07
00
7F
00
0C
79
04
0C
7A
06
7F
03
00
00
0C
0B
00
00
19
74
05
04
00
0E
7F
06
7C
0D
7B
7E
0A
08
7B
06
04
0A
26
01
04
78
0F
75
02
04
00
7B
7D
00
02
00
03
00
6C
7E
0F
0B
07
00
04
6A
78
04
7E
79
00
7A
7F
04
05
7D
00
01
7F
7A
04
75
78
7C
03
73
05
0D
00
77
79
27
7F
7D
05
02
7F
00
71
0D
67
02
02
7D
79
03
0D
07
08
05
7F
7F
75
00
06
08
71
7F
01
78
0C
7C
76
0B
02
04
03
00
05
03
7E
06
78
00
78
7E
7B
7F
7A
7D
71
7E
0A
00
06
7D
08
72
7E
08
02
05
06
7A
09
6A
15
76
7D
03
05
78
7B
74
06
07
00
08
04
7D
04
00
74
00
7A
6F
7A
66
79
00
09
79
00
78
09
6E
01
03
7B
6F
00
00
7E
06
00
01
01
7C
78
7F
04
7F
00
7D
06
7C
00
06
02
05
76
07
70
03
68
78
03
0E
14
04
7A
02
00
01
06
7B
01
00
01
04
11
7E
09
19
78
7A
08
77
78
7D
7B
0C
11
03
79
01
17
0D
09
7B
07
02
64
0E
7F
64
05
7F
77
6E
05
04
7E
06
72
08
7E
7B
03
07
7C
77
61
7A
78
0A
00
68
08
7C
7B
00
77
70
7C
09
7F
7C
7D
02
6B
06
7C
76
03
76
02
00
05
09
04
00
7F
02
0B
0F
7B
77
01
5E
02
7F
75
00
02
01
7E
00
7E
08
08
7D
09
18
6D
7B
7F
04
7E
67
06
00
00
07
03
7F
78
73
00
77
68
04
02
77
04
11
06
04
05
78
7C
6C
07
7D
00
03
0E
05
00
7F
00
7E
02
7C
0C
0D
09
62
76
6B
6E
05
01
00
7A
01
00
03
6F
72
03
7F
79
00
00
7A
7D
00
7F
79
7C
6F
70
09
7A
70
07
7B
07
78
03
03
03
7B
7C
08
05
03
02
7E
0D
76
65
76
00
01
03
06
77
7E
7C
00
00
7A
00
74
00
6F
0C
70
0B
06
10
00
00
6F
75
7B
7E
00
7D
08
07
0E
01
09
7C
01
03
0A
7C
7A
7B
72
00
78
7F
02
11
00
06
7D
00
77
12
04
00
7F
79
05
00
72
03
02
75
00
00
7C
7E
09
01
00
7E
01
0C
7C
7E
7E
79
00
7C
7B
06
68
0F
7E
79
0A
79
07
02
79
7F
08
01
7D
00
07
7C
00
01
02
79
0D
05
7F
6C
7C
7D
7F
7A
00
79
7A
7F
02
01
7F
7B
04
00
00
0A
02
00
00
19
15
07
0D
05
72
07
7E
76
0A
7C
7D
76
79
02
7F
7A
00
7B
73
7D
00
7D
72
05
78
09
7D
7F
00
08
00
7E
00
0E
75
7B
07
00
00
6E
74
17
00
03
10
00
03
78
0E
02
07
7C
00
02
00
04
07
07
76
6D
08
01
02
00
08
64
65
77
16
0E
75
01
7B
7B
70
03
00
7F
79
04
7B
70
02
03
76
7E
73
7E
00
07
7D
0A
01
7F
7E
09
7D
7E
5C
05
07
7D
00
03
75
7E
79
7E
00
05
03
6D
05
7F
7E
10
01
74
00
02
06
7D
71
0A
7B
06
7D
7F
7F
78
04
7C
7A
03
04
08
05
1B
7D
05
77
78
14
0A
7E
04
00
6C
04
01
08
00
0E
00
7E
7F
23
00
01
7A
01
7C
79
08
07
00
02
74
05
00
06
05
01
0C
09
69
74
00
7A
62
00
00
05
77
08
0B
7D
09
0A
04
1A
7A
11
6D
7B
7C
02
08
10
79
04
7F
00
7F
7E
70
7E
06
5F
76
03
04
7F
06
7C
0A
04
74
02
03
0D
6E
7F
7F
06
03
74
14
77
7D
09
03
04
06
02
04
01
02
7A
21
7C
05
07
77
79
78
0D
77
03
7A
01
08
1F
75
7F
7E
7D
79
78
73
76
15
07
05
03
0E
03
00
65
05
68
77
71
01
7F
75
70
06
71
7E
00
7C
09
7D
1E
04
08
05
00
05
05
7E
00
05
66
01
06
73
78
15
03
74
7A
0A
79
6F
02
00
79
70
79
05
0A
00
7F
1D
03
00
75
69
78
74
7F
7D
78
00
72
03
0D
00
7C
02
7F
00
00
00
78
76
6E
7F
00
65
05
79
05
02
0B
0A
00
04
01
00
03
7D
7E
7B
7C
02
00
00
04
71
00
0C
07
7D
16
14
75
78
02
0D
08
06
7D
10
73
7C
09
02
05
07
7D
0E
00
01
01
06
18
05
7F
79
04
7A
17
75
00
00
7C
00
7D
00
18
03
07
04
01
7B
00
00
7E
01
71
05
00
7C
77
7B
0A
12
01
0A
79
0A
73
0A
08
6E
78
00
02
5E
14
64
01
7E
01
00
73
0D
04
6E
1B
76
03
00
10
74
74
04
00
00
06
7E
63
7B
7B
75
78
7C
7A
7D
70
6E
00
0C
7E
01
0A
70
7F
7D
07
7E
02
7F
08
04
00
74
7F
00
7B
06
00
02
0F
03
6B
74
06
09
0A
7F
73
00
00
0F
02
0C
03
76
06
78
06
00
00
53
01
00
00
5E
72
77
00
7A
0F
7D
07
7D
17
00
07
09
0A
05
0C
77
4D
67
04
04
01
0E
78
03
14
06
0B
02
00
08
00
0A
00
0D
7F
75
73
01
00
7F
6F
15
7C
76
00
00
7C
13
08
0D
08
08
01
07
7D
7F
04
0E
0D
05
7B
70
01
00
06
74
7A
0B
04
05
02
7A
01
02
0A
09
0F
70
05
70
01
13
08
10
71
04
01
7F
00
0E
04
08
0F
03
7F
12
6A
0D
01
05
06
7F
00
02
17
0F
0B
0C
00
78
01
01
79
77
0E
7A
06
7E
00
79
77
02
02
74
0C
75
02
77
04
04
7F
0B
09
74
74
01
71
05
74
07
0D
74
1A
01
78
03
00
76
7B
74
0C
7A
04
7E
05
73
05
00
71
11
7D
6E
02
78
09
00
75
07
7C
00
1C
6F
02
7B
05
0A
0A
00
77
74
01
00
06
7A
78
0A
6F
03
08
00
7C
7D
13
10
00
09
02
7C
7E
06
79
00
00
07
0D
7C
10
03
7A
7A
7A
02
07
0C
79
7B
06
7E
00
7D
16
7C
7E
77
7F
75
0B
14
14
7B
0B
10
02
7F
77
7A
0A
0D
06
11
7C
0C
74
6F
7B
0D
7D
02
02
79
06
06
14
69
1B
76
07
76
06
01
05
0C
7F
7A
7D
72
79
07
7B
6D
74
02
0B
01
7C
0D
15
7F
7D
78
0C
05
02
7D
0C
11
7B
04
00
7D
75
7D
78
0C
72
7D
7A
7A
0C
7F
6F
7F
73
7F
7A
12
77
7B
29
07
09
06
05
00
7B
0A
0B
7B
0D
6E
7E
77
72
00
76
73
7E
7C
0F
00
04
0A
6E
00
03
77
05
77
01
02
79
7D
0D
72
75
02
10
01
00
06
0F
00
77
76
7F
04
06
1D
00
00
7C
03
00
11
03
1F
08
04
73
0A
06
02
0D
76
7D
79
08
08
07
76
0E
00
16
01
72
6F
06
01
7F
7A
7A
06
09
03
08
71
00
00
05
00
16
00
0B
15
03
6F
7E
0C
00
00
09
7F
7F
0D
00
68
0A
05
01
05
0C
06
05
08
74
76
0E
01
6F
00
77
0E
03
7C
0E
01
19
00
00
7F
24
1E
7A
71
08
00
73
05
02
08
00
00
0B
0A
19
06
06
04
77
7F
7D
77
06
76
00
0D
77
06
79
02
14
74
03
0A
78
7B
76
07
04
00
03
00
07
0A
00
7B
05
7E
7E
03
06
0C
76
77
70
73
00
0B
73
00
08
06
09
12
06
00
00
18
00
00
00
79
15
7C
08
04
01
0A
73
0D
11
01
6F
03
08
03
74
7F
0C
7C
0A
08
75
09
79
0E
08
00
7C
01
00
7B
00
07
00
78
02
09
04
0E
00
04
0A
7C
7E
77
76
00
7F
74
7F
79
7B
7A
03
79
76
00
00
00
77
79
04
08
73
00
70
09
71
7E
76
00
7E
04
7A
01
05
76
09
7C
0A
00
7D
0C
7C
7B
17
04
1B
01
00
01
01
06
02
00
0C
7B
79
7F
7F
02
0A
7A
00
7E
0E
03
77
01
00
75
7B
71
76
01
6C
69
78
0C
00
01
7A
12
0F
7A
79
75
07
0D
79
08
0C
74
76
06
78
7F
7A
0A
7C
04
76
7F
73
7A
09
04
00
0B
76
7F
7E
7F
77
01
05
79
73
00
7A
7A
10
04
7C
7F
08
00
7A
76
0F
00
78
0F
7E
08
78
03
00
00
7C
6D
7D
00
7F
0C
03
6D
00
01
7A
13
03
03
05
7C
01
02
05
7F
07
11
01
7A
00
7D
11
7F
0B
02
01
0C
79
06
10
77
12
7B
73
00
02
0B
7F
77
02
05
7C
02
09
78
12
03
76
7D
7F
76
02
74
03
0D
0D
04
0D
72
04
13
72
06
02
22
02
01
7D
70
6F
03
0C
08
08
76
10
76
79
7C
7D
76
77
7D
07
7D
1B
78
7C
0A
02
09
0E
06
7F
07
7C
00
11
03
12
7F
6B
0A
7B
7D
00
79
79
7D
7B
00
79
7F
7A
7B
0C
7D
04
7F
03
07
74
08
6E
07
77
72
78
0A
78
00
6F
7C
0C
06
7B
05
02
77
79
7A
6E
76
0F
7B
00
00
0B
7C
02
00
75
06
7C
04
00
17
0C
10
03
7B
7F
77
7A
09
00
04
06
00
77
7B
78
7B
7E
7B
00
00
0E
7B
00
04
78
73
72
65
7F
76
74
7E
77
03
75
73
7A
07
04
7D
0A
09
79
7F
06
02
77
0F
76
00
01
06
02
78
03
76
00
00
05
00
02
00
69
7C
79
09
7B
79
00
00
00
7C
01
7E
00
08
01
6B
12
00
16
04
08
05
7C
76
7D
77
0C
00
06
03
7C
1F
7D
00
0B
00
7B
79
79
77
08
7E
03
00
72
04
0B
75
00
00
70
0D
6D
06
02
7F
7A
05
7F
77
76
0B
00
7F
7D
0B
10
07
07
76
01
00
05
7E
7E
7A
75
02
01
00
0B
77
00
0C
6C
7D
06
06
73
07
7E
14
0E
7E
00
7B
07
70
07
7F
75
00
7A
00
00
06
79
00
00
12
07
7F
07
0E
03
10
00
00
0B
79
00
74
7A
00
78
02
7C
67
01
00
08
7A
03
7C
7F
7E
76
04
00
0E
00
7C
00
7F
7F
7A
6E
7E
00
05
79
1F
03
76
18
00
7A
0D
06
77
06
76
70
7B
7E
7F
03
7D
7F
04
0E
7B
09
00
05
00
12
7C
0A
0D
11
78
05
0F
04
10
7A
00
72
7B
02
77
04
7F
6D
7A
72
01
00
0F
00
05
0E
7D
02
09
03
0E
76
77
77
07
00
7C
69
7E
72
03
00
03
06
02
7D
09
7B
69
7E
74
00
01
00
7A
01
0A
6E
0E
7F
04
0D
7D
02
7E
10
01
11
05
01
01
02
7D
01
17
0C
06
7E
05
00
01
09
05
08
7C
78
00
0A
0C
7E
00
00
79
7B
7E
00
7B
04
00
11
7C
7C
00
07
72
03
7A
17
0B
00
00
7B
09
0C
00
05
7D
05
7B
01
70
04
04
7E
7E
64
0B
06
05
07
09
04
74
07
07
00
01
77
00
76
07
7F
70
00
7F
7E
05
73
76
7D
02
0C
0D
78
0D
7F
7C
7A
0A
78
7A
63
75
09
12
77
7B
7D
7D
07
01
76
19
79
13
7C
6B
0F
02
76
7D
02
7C
15
0E
05
7A
78
01
77
05
73
7C
00
73
06
05
05
78
78
01
73
7B
04
72
04
03
7F
7C
78
13
13
09
6F
00
7B
08
02
0A
03
03
00
02
7C
08
03
08
05
09
7E
70
7D
17
06
7A
02
78
03
08
05
79
0B
0F
0E
7D
07
00
0F
00
0F
00
08
7F
79
0B
7F
02
7A
04
76
07
7C
00
79
08
03
00
0C
7F
00
0C
09
76
7D
76
09
03
7F
72
01
77
00
04
72
00
06
09
01
15
10
00
00
00
03
79
00
7B
02
7E
14
04
72
18
7A
0B
06
7A
7A
09
16
77
7F
05
07
03
05
0A
73
00
11
6A
08
04
7A
01
03
7A
0B
7A
00
00
7F
00
10
00
03
02
02
78
15
78
00
00
7F
6E
75
03
00
75
02
06
05
77
7F
7D
03
7D
7F
09
1D
7B
6C
00
7E
68
77
70
09
78
01
00
7A
09
00
71
7B
76
0D
00
03
12
00
78
00
00
7B
7E
0A
68
0C
7C
76
0B
01
7F
0A
0B
00
05
02
05
05
03
74
0B
7E
78
00
00
02
7D
04
03
00
00
00
76
00
78
09
7D
7D
0D
7D
72
01
02
7B
03
00
0F
13
09
00
00
7A
7A
0B
00
00
0D
11
00
00
0A
0F
07
04
7D
1A
73
03
04
08
0A
75
71
7A
7D
05
05
03
08
03
05
7B
00
77
08
6E
11
7A
7F
00
03
00
02
00
0C
7B
08
0E
0C
00
6E
60
75
03
02
02
00
76
03
18
07
08
00
07
04
77
01
09
79
08
7D
71
00
12
00
7D
68
67
08
7F
7B
7D
7A
7A
75
02
6C
12
7B
75
04
01
17
7F
7A
0E
75
7C
79
00
79
79
70
7C
01
7E
02
72
5A
08
04
06
7F
00
05
03
02
7E
7A
00
74
04
75
01
09
7D
79
04
03
00
7D
7C
7D
71
7B
0A
76
00
7B
78
7E
6B
14
0E
75
76
7C
74
1E
7A
06
76
7B
77
06
7F
05
00
77
79
75
0E
7B
18
7A
0C
78
19
00
7B
08
02
01
7B
7D
7A
00
02
7C
04
00
7B
7D
7F
70
77
09
75
00
01
75
76
00
7E
01
02
01
04
7A
00
6F
0A
07
10
78
03
7B
7F
76
75
76
7D
03
00
02
04
0C
7C
7F
04
7C
7B
02
6F
74
72
00
06
0A
02
76
00
7C
08
05
01
06
09
7E
09
7E
76
08
03
72
01
78
03
01
7E
0B
7D
7B
00
7F
03
10
12
73
00
7F
0E
78
1D
0F
6C
07
02
05
6E
75
7A
24
0D
7D
7D
73
01
01
03
00
6D
04
78
02
01
02
02
7C
77
79
7E
01
04
0C
13
7B
7F
74
00
7A
03
7B
7F
02
02
7F
7D
7B
0B
0B
7F
7D
7E
04
60
79
79
04
12
6A
04
0A
7D
00
00
00
78
08
77
03
13
71
7E
7E
10
76
0A
00
01
00
03
00
7B
00
77
05
00
74
75
7E
00
76
09
7D
7E
02
14
07
00
7D
16
00
03
70
7B
74
7E
01
00
00
7D
00
00
08
7C
78
75
10
07
7F
6E
02
7E
00
03
03
76
0C
05
76
03
05
01
7E
05
01
10
74
22
74
76
05
06
08
1F
74
00
00
07
00
68
00
10
09
77
04
02
08
00
00
7A
08
6E
0B
00
75
07
01
05
13
79
03
02
02
06
7A
7D
79
75
00
0C
7D
0C
7C
7B
7C
77
00
02
08
7B
6F
1C
08
00
00
0E
7B
76
66
00
00
11
01
7A
06
01
03
02
03
7C
03
7B
62
00
02
7E
03
77
05
19
7D
04
7D
02
7E
7E
04
7D
00
04
00
7E
0B
00
0A
01
01
08
7E
05
02
79
7A
02
02
00
7D
7E
05
05
79
06
02
01
00
00
7E
79
00
00
77
00
04
08
02
7E
07
7F
74
06
74
7C
01
01
0A
79
79
6E
6B
7D
05
04
24
73
08
0D
75
6F
73
00
6D
00
04
00
04
00
0E
13
79
00
7E
14
0D
7E
03
77
00
15
08
6A
6C
03
70
78
03
02
74
04
6C
7F
76
08
06
06
00
76
7F
7F
07
09
75
03
12
07
7A
00
7C
07
79
0C
05
7E
02
03
79
01
02
7B
75
00
75
01
13
77
0E
7B
08
78
11
08
64
06
7B
00
0E
0F
78
6F
73
00
01
03
6F
7A
00
7D
76
05
7E
00
7A
07
76
15
74
68
00
7E
00
05
02
05
02
7D
02
10
0B
04
01
01
06
7B
7D
6E
05
0B
06
00
01
7F
7A
78
79
7D
07
01
7F
7B
00
09
10
03
07
04
0D
79
00
01
6D
7F
00
74
04
07
07
7E
7B
05
00
7A
6F
03
00
7A
01
03
7C
77
01
7A
71
7D
7C
76
7B
07
07
00
00
02
0B
7D
01
00
09
07
79
04
04
7B
77
02
7D
09
7B
02
7A
05
73
00
04
6C
7E
04
78
0A
7F
7D
76
14
1D
7A
7E
05
77
78
00
18
02
7A
08
78
05
7F
7B
03
77
78
05
05
02
02
02
06
06
0F
02
06
06
0A
7A
7B
7C
6A
7D
78
79
06
0A
05
77
04
70
6C
0A
7B
0A
65
7F
05
04
7D
0E
7B
77
17
02
7F
7D
00
6B
7B
7E
7E
7F
00
7B
08
08
58
0D
77
7C
7F
7E
6D
00
7D
76
06
7B
7F
03
00
00
05
06
7B
09
7A
7C
72
00
7D
04
01
7A
7F
7E
78
00
7F
08
01
00
79
7A
03
05
16
78
77
07
0A
7F
78
7E
02
04
00
05
05
00
03
7F
03
0C
08
03
00
00
00
78
00
78
78
75
76
71
76
09
73
7D
04
7B
0D
70
08
06
06
7B
79
04
09
0A
74
7A
04
72
00
79
74
09
03
04
7D
01
00
00
02
00
12
00
01
7C
00
04
06
79
00
00
0D
7E
7B
06
00
7E
7C
73
00
69
06
7C
01
7F
05
05
01
6B
7C
00
0D
74
6F
08
7A
77
04
00
09
04
5D
6F
75
7C
7F
00
77
01
75
72
00
00
7F
02
7C
6A
7D
03
00
79
7F
00
00
1A
00
73
7C
03
01
07
61
7A
01
7F
78
07
7F
7B
7A
01
07
00
0E
7C
00
7D
06
03
75
7D
7A
6D
7E
7C
79
02
00
03
08
02
01
04
79
02
78
00
00
08
7D
00
00
02
7F
08
00
7E
03
02
03
0C
07
00
08
75
01
0D
03
7C
0E
74
7A
06
7F
6F
7E
76
13
7B
7E
04
00
7A
00
03
00
7F
0A
06
03
24
00
09
15
6D
08
00
7A
00
16
7B
76
01
7F
03
03
03
07
03
01
09
00
0C
7C
16
04
00
70
20
20
0C
77
79
7B
01
08
0F
05
6E
7F
09
12
0E
7F
01
01
01
21
13
05
7B
00
7A
06
0F
77
07
02
77
0A
68
05
18
03
7D
00
79
70
0A
7D
05
00
05
00
7D
7D
7E
01
1F
04
7E
00
08
7D
0C
12
09
02
01
7D
08
03
0A
12
72
7A
06
0E
7F
04
74
08
7A
71
01
08
08
07
00
00
7E
7C
07
6B
04
07
03
01
01
6E
00
0C
06
04
0C
07
05
77
00
07
04
72
00
6C
08
08
05
75
21
0B
00
7C
7A
02
00
74
7D
7B
6A
78
6E
7A
74
6D
06
1A
72
79
09
04
01
08
0B
03
06
00
13
02
04
0F
02
04
12
05
02
14
7A
02
7D
76
0D
02
00
69
0D
01
08
04
01
04
02
15
0F
71
7D
01
09
06
00
7E
02
7E
09
05
79
79
06
6E
0D
04
06
01
07
06
08
73
12
7E
06
00
0C
00
0A
6F
77
01
0C
04
5F
03
00
1E
7F
0F
06
7F
7D
07
0A
7C
7D
0A
11
01
07
03
7D
73
00
7A
05
00
07
08
07
06
05
00
03
07
07
08
73
0E
0D
03
04
62
06
79
0E
6A
76
04
0B
0C
00
10
71
11
7F
02
0E
7E
07
09
07
75
04
78
7F
02
00
09
78
06
00
76
03
09
01
0D
67
7F
7F
72
0B
11
0B
6C
02
00
05
05
00
7C
00
01
01
7F
7D
00
00
05
7A
00
78
01
74
78
64
7D
0F
70
04
1D
0C
05
0D
7A
7B
7F
03
04
01
7B
7C
0B
09
77
19
03
7F
7E
04
04
0C
03
0E
00
00
08
00
0E
00
77
04
08
10
7E
08
00
00
06
0F
7E
73
00
7D
06
12
11
7F
76
76
7D
05
00
04
0C
0F
7E
00
05
11
78
1B
73
09
04
00
0D
74
6C
77
06
7F
6E
00
7A
08
09
75
00
00
76
79
7E
09
0B
09
08
7E
05
08
00
0C
00
0D
0C
7F
0A
0C
13
08
02
08
09
01
0D
7F
00
7F
00
00
11
7D
00
08
78
0D
05
05
75
78
0B
10
08
09
00
00
7F
7E
00
04
00
00
0E
00
00
1B
7D
00
00
27
04
7C
0B
0F
7A
09
06
0C
0B
0A
03
14
02
03
78
07
0E
6E
08
7F
04
74
06
7E
75
08
7C
7A
00
78
00
79
00
6C
05
7F
75
75
00
08
16
7D
7F
7D
09
00
02
03
0A
7D
7B
06
79
7C
7F
7E
7E
79
71
77
0F
01
00
00
79
02
7A
7B
02
03
0F
78
03
00
73
78
7B
05
77
7E
7E
79
00
77
72
7B
1A
79
00
77
78
00
7B
05
0B
7A
01
06
75
7E
00
7E
00
00
79
76
01
76
00
79
06
7F
03
07
77
6F
7D
0B
00
7C
00
0D
7B
00
78
74
7F
7E
76
01
0E
6A
7D
7E
10
7B
05
0C
7B
79
01
02
76
7B
7E
79
00
11
7A
7E
05
7E
0A
77
73
11
1E
00
01
03
14
02
09
7F
11
00
00
79
01
00
7E
14
78
72
7B
77
05
00
00
09
22
00
01
0A
01
7C
78
7A
7D
18
10
02
02
0D
7D
19
09
05
74
7C
7C
7A
00
02
75
73
78
7E
76
1A
04
06
02
70
10
77
7A
7A
00
0D
0A
76
73
7F
7E
71
7C
70
73
7F
77
75
77
7A
0D
7E
7F
7A
7C
65
06
76
0E
05
6C
7F
02
24
7C
7C
01
70
11
79
73
7E
7B
02
09
7A
72
77
00
7D
7F
00
78
7B
17
07
7D
0A
7C
7C
7A
03
6F
0C
11
07
77
7B
0B
0B
06
7D
04
7B
00
6E
7D
79
7A
7A
0B
7F
7D
7C
76
6D
7D
08
02
7C
6E
03
03
7E
03
76
03
08
7B
00
7A
0E
6D
7E
04
16
75
03
7D
7E
7D
02
0F
7D
77
00
76
7C
05
00
7D
05
03
08
77
07
7E
7A
0D
05
7C
7C
73
75
00
7C
01
00
01
7E
09
11
7E
7B
00
00
07
75
00
77
7B
79
76
0D
7C
13
08
76
00
01
02
7C
0C
72
7F
7F
76
77
7B
7C
7B
7D
70
11
18
06
77
7D
71
01
14
02
00
00
7B
00
7C
00
06
7A
7C
7D
7C
76
00
00
7E
7B
08
7A
00
18
7A
76
74
01
78
7E
7D
7D
06
7F
0B
02
10
00
04
7A
11
05
7C
7C
7D
00
7F
76
7C
76
12
7B
7A
00
0A
07
14
02
00
00
7D
09
08
65
74
00
74
08
01
7D
0A
7B
00
78
7F
7E
0C
02
04
00
7E
76
00
7B
02
7A
7F
7B
7A
00
76
7B
00
74
7F
02
74
6D
7C
7B
79
0E
7C
07
00
76
00
7E
72
02
7B
00
1A
00
00
7B
0A
00
00
7E
6B
09
7F
7B
73
71
7F
71
7B
02
01
78
78
7A
7D
07
03
76
79
79
7D
0B
7E
7D
6F
02
7F
6C
00
74
00
02
00
7D
7B
01
72
79
00
01
7F
16
7A
7D
75
00
75
04
04
74
7B
01
7C
02
72
02
03
6C
03
74
04
71
7E
00
6E
04
74
7E
71
79
7D
08
7A
7D
7F
71
7C
05
02
0E
09
03
6F
08
7C
75
6C
0A
00
03
77
01
04
0B
01
07
01
0C
02
62
13
00
00
09
0C
77
79
02
00
00
7A
08
00
04
7D
11
7A
05
00
7D
7D
00
72
7C
76
02
7C
03
02
79
7C
71
75
04
76
04
03
04
76
0E
69
06
00
7D
11
0E
00
0E
05
05
04
0B
7D
79
07
00
75
00
77
7F
0E
19
79
10
0B
00
04
04
0A
00
09
7A
0C
7F
04
79
7B
00
71
05
79
00
01
79
7C
79
06
07
7D
04
6E
7F
64
7D
11
6F
04
7B
0E
0B
77
01
00
73
0A
08
02
7F
06
7F
72
7B
77
7F
0B
71
0B
76
00
03
6F
75
72
7D
11
00
76
0B
72
07
08
77
0D
7B
79
74
7E
00
04
79
05
79
7C
76
01
65
06
05
0C
06
7A
71
0F
74
7A
05
0B
10
04
7B
7D
7C
00
04
02
06
08
01
73
7D
00
6F
7F
13
05
7F
06
7B
75
06
7A
06
7D
73
0A
76
77
00
00
07
7F
75
07
72
7C
00
7E
09
64
14
7C
7D
08
7D
06
69
7C
7A
00
03
78
6E
79
00
03
00
7C
11
7A
77
79
7A
7D
01
07
02
0C
7D
76
00
0B
0E
01
00
77
00
7E
7A
0C
07
7B
7E
12
7F
75
00
7E
00
00
7C
75
00
03
10
7B
78
00
7F
00
00
7A
0A
00
04
77
09
72
7F
05
72
01
7B
72
7E
79
03
05
0A
0A
7F
78
0B
77
70
6A
7E
02
0C
7E
04
06
07
78
00
06
0B
00
00
04
00
0B
00
08
7B
7A
76
0C
7E
00
00
00
06
6D
07
00
72
7D
0C
7E
6A
78
03
0C
05
01
02
75
6C
01
00
0A
74
05
72
76
01
02
00
0F
03
6B
08
01
7F
04
00
04
79
0B
77
00
00
06
7E
7D
04
02
06
04
7F
0C
74
00
06
00
64
77
08
7B
7B
52
01
02
02
7F
0F
00
00
7D
0D
0C
00
6E
07
00
79
00
7C
78
75
7F
09
7E
7D
09
7D
00
01
02
05
04
7B
7B
01
67
00
00
79
04
00
00
7E
7F
7E
79
77
16
79
7A
01
61
79
07
7B
16
11
07
75
70
7A
6F
0A
12
7E
77
7C
00
05
09
7F
00
79
00
01
00
01
7D
7B
02
13
00
74
04
74
04
06
7B
00
05
0A
7C
7F
03
03
08
05
7D
07
0D
72
7D
06
05
76
08
00
01
78
0A
07
0A
71
10
0B
7E
01
77
19
72
04
0B
01
00
11
79
70
25
04
09
74
00
71
07
04
0C
03
0C
7C
05
7D
09
79
00
01
00
7D
20
01
04
08
00
05
00
0B
07
7C
00
69
03
7B
00
7B
04
07
78
76
0F
04
78
7A
00
7E
7C
77
0B
02
0B
04
75
7D
7D
06
0A
77
73
7D
08
08
00
0B
06
10
10
08
74
04
0E
09
0B
00
7B
03
13
03
03
71
72
00
77
09
78
00
77
00
0D
07
6A
7F
02
00
0A
10
11
00
76
79
76
12
03
15
72
77
06
0C
07
77
07
0F
79
05
70
12
01
02
00
7B
7A
7B
01
7D
12
7B
01
7D
01
00
0B
0A
6C
0C
09
0A
75
02
07
7E
05
05
00
6B
0F
03
10
12
0A
01
10
7D
06
7C
05
6A
03
0D
7B
00
7F
1B
73
04
09
7D
05
73
7A
76
23
7D
78
01
1D
0C
01
04
6C
7E
05
13
7F
7C
15
00
75
73
0F
7F
00
0A
0E
01
7F
0A
09
04
78
01
04
08
71
00
00
72
77
07
7A
79
7E
77
01
0A
08
00
04
06
7E
75
0D
07
78
7D
0E
7D
0A
00
75
00
03
0B
02
09
16
7A
18
05
7B
07
01
0B
1A
01
04
00
01
6E
7E
00
07
7E
04
0A
7E
77
73
1A
7C
7D
74
74
7D
79
00
00
08
00
7B
7F
7C
15
04
17
00
00
00
04
00
7F
71
14
00
08
0A
14
0D
05
72
76
01
00
0C
02
05
05
71
09
05
7E
02
00
02
74
00
75
78
7F
7A
11
03
03
00
00
0D
00
02
00
77
06
0A
77
04
7B
00
00
06
08
00
03
00
0C
05
00
6F
7D
07
77
7F
75
7D
75
77
08
11
00
7C
08
6D
2E
70
01
70
00
0A
6B
0D
08
01
0E
73
00
7F
0E
07
0A
00
00
0B
7C
0F
65
05
07
04
04
0D
02
12
1C
00
76
7D
04
0E
0A
7D
07
71
11
01
03
00
06
04
01
78
00
6D
16
00
06
01
05
0F
7D
76
70
7F
0D
26
7A
00
7D
04
7D
7D
07
7F
09
0D
00
00
21
7B
00
00
0A
7D
7D
7C
1D
00
03
77
00
73
0B
0A
75
0F
04
02
06
79
7F
04
08
0A
06
08
7E
75
7D
0E
09
00
04
00
04
00
09
79
06
7A
01
00
75
13
75
0C
04
0C
00
0E
75
0A
09
7D
0C
11
0A
04
09
7A
06
66
0F
07
6E
02
00
7C
07
0C
7F
0D
7F
03
10
06
0C
70
05
68
11
0D
03
71
15
79
06
1B
7D
77
04
00
0A
00
0B
7D
09
06
01
0E
1B
09
05
77
02
00
05
22
75
09
0F
00
10
7E
0C
0B
06
70
7C
09
72
00
00
03
78
20
00
11
08
04
71
07
70
7F
73
0B
07
7F
07
09
03
04
7D
0C
00
12
7E
09
04
00
08
06
06
06
08
7A
03
10
06
7B
00
7F
7E
08
07
7C
75
0C
00
00
7F
7A
00
7B
7F
08
09
06
06
71
00
79
10
7B
00
7D
6F
02
08
7B
08
0C
7C
15
05
05
79
0A
03
7B
07
78
1E
7F
04
00
67
75
7F
6F
77
10
7D
05
75
79
0C
7C
02
6E
09
0A
7F
05
07
03
72
0A
01
7B
03
08
06
0C
02
07
09
0D
15
7F
72
79
71
71
09
08
6A
7E
10
7C
21
05
0C
76
79
03
78
1E
7F
7A
7B
0D
05
7A
74
7A
07
06
0E
0D
01
7D
08
0D
7C
14
09
72
77
14
7E
07
7D
6D
07
73
05
06
7B
11
06
00
0D
02
0B
05
03
04
09
06
78
05
0D
73
05
7F
75
01
07
71
74
03
7E
02
70
05
00
7B
08
71
7E
1D
7F
0F
0E
7B
08
06
11
0F
07
7A
00
77
07
09
00
07
79
7E
0B
0F
06
7C
26
11
06
04
7E
79
6A
00
05
00
00
04
07
7E
02
7D
14
00
00
7D
7F
00
76
7D
0B
01
72
05
05
7E
01
0C
7B
7E
0B
07
6C
7D
0D
74
08
6C
05
01
7C
05
7B
79
09
7E
77
6F
7C
04
03
00
00
03
00
01
00
09
7A
03
71
7E
7C
00
00
08
77
6C
07
00
04
7C
5B
68
6A
0F
78
03
6F
08
05
7F
14
1C
00
7A
15
03
1F
09
6B
77
00
7E
09
0F
0D
02
03
77
00
09
04
06
68
00
00
06
7C
7E
70
77
02
7E
04
0B
07
08
1C
00
03
7B
75
79
02
0E
7C
72
09
07
02
04
05
00
13
01
00
08
07
00
01
09
7E
07
7E
79
00
7F
09
0C
00
00
01
01
7F
6D
06
01
02
7E
00
00
0F
7F
00
00
06
7F
7C
74
19
70
7D
00
78
77
0D
0A
77
02
7F
0C
0A
16
79
7E
06
0D
0E
7E
72
00
00
00
00
00
00
00
00
00
00
00
00
00
00
00
00
00
00
00
00
00
00
00
00
00
00
00
00
00
00
00
00
00
00
00
00
00
00
00
00
00
00
00
00
00
00
00
00
00
00
00
00
00
00
00
00
00
00
00
00
00
00
00
00
00
00
00
00
00
00
00
00
00
00
00
00
00
00
00
00
00
00
00
00
00
00
00
00
00
00
00
00
00
00
00
00
00
00
00
00
00
00
00
00
00
00
00
00
00
00
00
00
00
00
00
00
00
00
00
00
00
00
00
00
00
00
00
00
00
00
00
00
00
00
00
00
00
00
00
00
00
00
00
00
00
00
00
00
00
00
00
00
00
00
00
00
00
00
00
00
00
00
00
00
00
00
00
00
00
00
00
00
00
00
00
00
00
00
00
00
00
00
00
00
00
00
00
00
00
00
00
00
00
00
00
00
00
00
00
00
00
00
00
00
00
00
00
00
00
00
00
00
00
00
00
00
00
00
00
00
00
00
00
00
00
00
00
00
00
00
00
00
00
00
00
00
00
00
00
00
00
00
00
00
00
00
00
00
00
00
00
00
00
00
00
00
00
00
00
00
00
00
00
00
00
00
00
00
00
00
00
00
00
00
00
00
00
00
00
00
00
00
00
00
00
00
00
00
00
00
00
00
00
00
00
00
00
00
00
00
00
00
00
00
00
00
00
00
00
00
00
00
00
00
00
00
00
00
00
00
00
00
00
00
00
00
00
00
00
00
00
00
00
00
00
00
00
00
00
00
00
00
00
00
00
00
00
00
00
00
00
00
00
00
00
00
00
00
00
00
00
00
00
00
00
00
00
00
00
00
00
00
00
00
00
00
00
00
00
00
00
00
00
00
00
00
00
00
00
00
00
00
00
00
00
00
00
00
00
00
00
00
00
00
00
00
00
00
00
00
00
00
00
00
00
00
00
00
00
00
00
00
00
00
00
00
00
00
00
00
00
00
00
00
00
00
00
00
00
00
00
00
00
00
00
00
00
00
00
00
00
00
00
00
00
00
00
00
00
00
00
00
00
00
00
00
00
00
00
00
00
00
00
00
00
00
00
00
00
00
00
00
00
00
00
00
00
00
00
00
00
00
00
00
00
00
00
00
00
00
00
00
00
00
00
00
00
00
00
00
00
00
16
04
6D
10
00
0F
00
0E
00
73
07
76
00
71
00
7C
19
7C
0F
01
0A
00
18
07
1B
06
03
6F
09
0A
0A
7F
7A
1D
72
7E
7A
04
06
00
1D
15
76
03
7F
10
78
07
0A
02
7A
05
02
03
10
7B
6F
6C
0E
7F
15
10
69
05
00
02
7F
0A
03
04
7B
0D
7D
0D
68
1C
04
7D
00
05
02
0C
7D
09
00
05
04
01
05
01
7A
77
07
01
00
76
00
74
6C
05
06
77
08
71
7D
78
7E
65
01
7A
04
7C
74
0B
03
7F
0B
7E
1E
14
00
02
00
78
7B
7C
14
78
13
0A
72
13
0D
00
7E
0C
71
75
06
7E
7A
00
72
7B
11
00
06
76
04
00
0B
0D
7F
00
7B
00
08
00
06
7D
00
0A
74
08
05
00
16
07
19
7F
79
05
6F
7D
04
06
78
02
00
7F
7F
75
07
76
77
73
01
08
11
73
77
06
01
66
7F
72
76
00
76
00
04
72
7C
73
16
13
7B
7F
05
03
02
0C
04
03
7C
0B
7A
7F
04
75
77
16
13
6F
7F
06
71
14
04
69
15
7F
06
79
01
05
76
74
07
7D
7E
7F
7E
0B
67
7F
05
75
0B
01
00
76
7F
0C
7D
04
13
79
77
13
6F
09
0A
09
00
06
06
78
00
0F
01
00
7D
7F
05
6C
74
00
73
10
06
77
6E
04
77
06
7A
6B
0B
00
7B
15
73
7B
7E
72
7A
7D
7B
7D
72
7D
6F
7D
05
00
03
6C
7F
00
04
6D
0C
05
06
0C
7C
0A
0D
01
04
0B
7F
7B
00
01
03
00
7B
77
7D
05
7A
09
00
00
76
73
00
03
0C
0D
15
1C
75
04
0B
79
14
04
7E
08
03
7B
06
02
09
04
7C
0D
01
71
02
6B
0C
7F
00
08
7A
7B
16
7E
00
00
7C
00
7C
00
19
7F
79
7D
7C
73
00
00
0E
6E
10
7C
00
7B
7D
6D
79
0E
17
06
04
7F
7A
00
04
01
69
00
78
7B
17
08
0D
00
0B
00
7C
04
15
77
24
78
73
00
06
0A
6D
09
00
00
02
06
77
77
7E
01
70
05
7A
7E
79
19
00
13
02
7E
6C
74
0A
73
02
09
03
78
7E
7E
7D
73
05
00
7E
7B
00
6E
74
03
77
71
7F
79
05
72
0F
7B
00
04
77
06
06
05
02
0B
14
00
00
04
75
00
00
79
72
7E
0C
1A
03
09
04
07
7E
00
04
09
00
01
04
79
02
09
13
7E
7F
0E
08
7F
0A
7D
06
7D
00
04
00
79
00
06
7B
0F
7E
5B
00
07
15
6F
7B
77
02
00
02
00
7E
09
7B
09
0A
7F
76
00
02
13
02
03
6F
79
73
00
10
0F
59
7D
01
7B
0B
0E
77
7E
01
20
7F
7B
02
7E
71
00
7B
0D
7E
00
7C
7E
00
03
00
04
0A
00
73
7B
00
13
7D
17
05
0A
00
04
19
7E
08
75
00
77
7D
05
02
7E
09
09
00
79
00
7F
02
6A
0F
01
09
7C
77
01
7A
7F
09
14
02
02
10
05
0D
7F
7A
03
0C
79
7B
6F
7A
03
00
79
01
03
00
00
18
7C
74
0A
7A
00
01
7A
7C
06
79
05
00
00
07
01
01
00
7C
77
7A
15
05
04
04
00
72
7C
05
00
07
70
7B
20
02
0D
05
73
06
04
06
05
0B
79
7C
09
74
01
75
06
00
6E
77
04
00
05
07
76
7D
02
04
7A
66
6B
04
00
7B
01
01
05
71
04
7D
7E
00
17
77
02
0E
06
7F
73
73
07
7D
7B
06
79
7E
01
7C
74
7C
10
01
74
00
7E
6A
0C
00
74
0D
7D
02
7C
7F
0D
14
05
0A
00
7F
25
7D
00
71
06
16
7E
00
03
7B
73
04
0E
0E
08
78
05
79
0A
1F
01
77
75
00
0C
7B
6F
07
7C
72
09
03
7F
29
15
01
76
0C
71
1F
00
7C
7D
01
12
02
77
7B
00
05
00
69
04
0A
71
7D
7A
00
7D
0A
7C
78
0A
7E
00
7D
7E
7B
00
0F
00
7A
07
12
00
04
7D
00
7D
7B
7F
0B
7F
00
0A
00
00
04
7F
75
05
7B
0A
00
00
06
03
00
07
04
0A
7E
1E
08
03
16
75
11
73
78
75
11
06
76
00
7B
04
02
74
69
08
0D
09
02
03
07
7D
7C
77
73
01
00
00
79
00
17
00
0E
00
7A
04
09
63
00
00
03
6F
11
0E
00
7A
03
72
7F
0B
72
07
7D
7F
7E
7E
75
00
02
00
7D
78
04
00
00
7F
09
00
7C
7E
17
12
70
79
7E
00
00
76
6F
16
00
00
0C
7D
03
00
02
7A
07
0A
04
74
0E
05
00
78
00
01
74
7B
7D
7D
7B
7B
07
0B
7B
7F
04
7B
00
00
08
01
00
77
07
78
06
7D
00
13
7E
74
75
00
00
6A
75
7C
00
7B
01
05
0D
00
00
7F
74
00
00
68
01
79
79
7E
7D
0B
7D
09
01
7D
01
0E
76
7C
07
76
04
16
03
02
05
71
00
75
79
6E
6C
08
00
02
00
06
00
02
00
04
77
06
00
7C
71
7B
08
76
7F
00
7C
7E
5B
76
01
74
0A
00
0B
7C
0C
01
0D
78
75
03
74
00
7F
7F
04
7F
03
7F
77
7C
7E
06
7B
73
78
7F
14
0A
01
74
7F
74
14
75
73
07
00
77
79
00
03
7C
00
73
02
7E
00
06
72
74
00
04
7F
7B
74
7E
00
02
7A
71
7A
02
7D
1B
7C
6A
00
7B
7B
6F
01
0D
05
05
7D
06
05
74
7C
7E
09
02
00
02
06
00
0A
02
07
7F
01
01
79
00
00
70
05
7C
7E
7F
7F
08
11
73
7C
00
0B
7B
77
09
04
7B
75
00
13
74
7E
00
7D
03
7B
7F
00
69
08
00
7A
00
70
00
7C
74
07
04
7E
06
7C
71
74
06
09
7F
02
7A
7C
7F
78
12
0A
0C
00
0F
6F
7D
7C
07
72
7D
7D
75
77
7D
6B
6D
08
78
7A
7E
7C
04
77
05
7A
6E
7C
75
72
79
74
00
7C
00
7D
04
03
7B
6F
7C
6F
03
03
01
77
10
70
75
05
09
7C
0C
70
16
06
09
04
03
78
71
6E
7E
7B
05
7C
68
7F
01
7A
78
7E
7C
7A
79
72
76
11
72
7F
74
7B
04
73
08
00
77
04
7E
00
7B
03
0A
13
04
7E
07
00
11
7F
76
15
03
03
74
7B
7D
1C
7D
09
0B
0F
07
05
00
0C
09
79
7F
78
03
78
7E
08
07
0F
7F
76
7D
01
00
7E
7E
08
00
06
0A
08
79
7B
06
74
13
77
00
13
02
05
7A
00
01
75
00
09
77
03
7A
05
7F
00
00
7B
0D
00
00
08
01
79
69
6B
79
6F
77
72
77
7F
03
7B
72
7C
7B
7B
7D
06
07
00
00
76
6B
68
02
03
7F
7E
0F
6C
03
00
00
04
00
01
00
74
04
01
05
01
7D
00
00
7D
7C
00
7C
00
73
7B
18
7D
12
04
01
7D
75
7D
01
7A
0A
02
00
0B
00
78
0F
05
7D
6E
00
05
79
21
79
61
07
7E
00
03
7B
76
6F
00
00
77
78
06
04
0A
03
13
78
02
09
74
7E
00
08
12
00
75
79
06
12
00
06
04
0A
08
7C
7D
77
00
00
72
08
00
14
0A
08
7A
76
7B
7A
00
7A
75
11
00
77
79
7D
7F
03
7E
01
06
00
00
79
7F
00
00
00
01
0C
72
0E
07
73
0C
03
01
02
79
1A
02
7C
7B
00
03
75
0D
7E
7E
71
01
7F
05
03
68
05
00
01
00
79
00
0C
7B
7E
17
7B
00
75
7B
77
75
02
0E
00
0C
76
1D
78
03
74
15
04
01
02
08
7A
08
79
73
7A
00
00
79
02
09
7E
79
02
02
06
02
0E
7A
78
7D
07
04
03
07
73
7D
02
18
0B
7B
04
00
79
01
07
02
01
7E
7B
07
78
78
06
7B
01
00
7F
09
04
79
08
00
11
79
79
08
05
7B
78
02
7E
00
7A
05
02
7C
06
01
0A
7A
7C
7D
07
7F
06
09
7D
7E
06
7B
1A
02
7A
75
7F
64
77
7B
7F
00
00
10
0B
15
02
0E
7F
7F
7C
14
00
78
7F
06
7B
7D
01
6F
00
03
78
03
00
70
01
00
7A
7F
06
7A
00
7E
11
75
00
78
75
76
7A
7E
0A
01
02
0F
7C
09
77
7E
7A
74
00
6F
09
00
02
00
79
79
7A
7C
07
06
77
01
03
7D
75
74
76
06
7F
00
7B
76
79
10
7F
06
06
76
75
0A
10
7E
02
0A
7F
0D
0E
10
7B
76
64
7B
7D
71
7A
7D
02
13
01
09
7E
05
6B
11
75
0C
7A
77
79
7D
79
79
7A
07
03
06
10
7B
76
7C
01
7B
76
7B
78
7E
73
77
7E
7C
06
0B
77
78
75
7F
76
02
06
00
72
03
09
00
7D
7A
7A
7A
0A
11
00
7F
7C
01
03
06
75
7F
7D
01
7F
07
01
01
00
07
17
02
7C
76
72
68
09
01
0B
0C
0E
78
06
0A
00
00
7F
75
00
00
7C
7D
7F
7B
14
7D
04
00
7D
0D
75
7E
05
00
7D
03
00
7F
00
71
01
78
7C
00
00
7F
0C
00
02
76
0B
67
11
07
7C
7B
0A
78
01
04
01
78
7E
7C
07
7E
02
74
79
7F
7D
06
71
27
72
7F
74
7A
01
16
7D
00
00
06
00
7A
00
0B
7B
0F
78
06
78
00
00
7D
02
7E
05
00
00
7E
07
7C
7E
7C
08
7F
79
7D
7E
6F
08
76
00
77
67
0E
06
02
7C
78
00
7A
05
03
75
15
7F
7F
00
1B
78
77
78
00
00
7F
79
7B
75
7F
7C
7F
00
05
0E
78
7A
00
77
04
78
78
0C
7D
03
01
07
7E
79
07
06
08
79
73
00
08
07
00
79
0B
03
78
78
7D
79
08
08
0D
02
00
74
75
02
01
7F
04
00
7C
00
00
0C
7E
00
00
06
79
77
7E
15
6C
0A
74
7D
7F
02
0D
7D
7C
04
03
0B
78
76
08
02
06
0C
7E
7F
74
7B
73
73
00
09
00
01
00
7E
7E
07
7D
0C
00
02
71
0D
02
79
7A
00
04
68
00
77
00
7B
07
7E
00
7D
7D
7E
7B
77
06
7F
77
00
08
7B
13
7E
7E
0B
7C
0E
08
74
7F
00
7E
7E
78
7B
0A
04
04
05
0D
7F
72
14
00
06
03
00
7E
03
7C
00
00
6E
76
71
7C
7C
00
09
12
78
72
70
00
08
03
6F
02
7C
71
04
05
7A
00
7D
01
01
68
0F
7D
7E
07
02
7F
04
7F
7D
78
01
72
0A
05
7E
75
79
7D
7F
7E
08
79
7E
00
7E
03
01
04
7D
04
7C
6E
70
76
00
75
0B
01
77
02
13
14
00
7B
08
05
00
07
08
7E
08
0F
04
63
00
77
08
7A
00
09
06
06
06
7D
0A
0E
0D
01
7E
7B
03
7F
75
75
03
0A
02
7C
09
00
71
01
73
7D
01
7A
03
01
04
79
7B
0C
76
08
02
03
7B
77
7D
03
71
0B
77
7A
14
17
07
07
03
0B
77
7D
13
18
7D
05
0C
78
07
0B
06
08
6D
01
7E
01
78
04
07
05
01
01
71
04
7D
7F
02
00
71
06
78
7E
03
00
7E
0B
7E
79
04
6C
78
7D
03
10
76
6F
70
02
00
02
6F
0D
78
14
77
00
17
01
7D
76
00
7F
7A
05
0D
6F
03
6E
7E
78
0C
79
6C
7A
7B
7C
7E
77
05
03
00
02
73
79
7A
73
7F
70
07
7D
05
7A
08
07
77
7A
00
03
0D
04
00
7B
7D
79
6C
76
09
7E
7A
6A
7F
75
7E
7D
09
00
7C
09
00
7B
02
7A
60
7A
0E
00
00
7A
7A
00
06
0D
19
06
79
04
7D
04
09
7B
7D
0B
0A
6D
7A
7F
7F
03
05
03
0A
6D
76
7F
12
04
09
02
04
7F
01
77
01
00
00
7F
00
6D
00
0B
7D
08
01
75
7F
00
00
78
04
01
08
00
03
03
72
7F
76
08
0A
02
7E
7A
05
00
76
0B
00
7B
09
7F
08
00
02
04
00
01
0F
78
0C
11
79
7A
00
7E
78
79
05
00
00
6E
04
7B
17
74
7F
79
77
78
04
6C
7C
00
05
6E
7E
78
00
6E
70
00
7C
72
7B
7D
7E
7C
7A
03
00
76
01
00
76
04
08
00
79
7F
08
03
08
76
7F
00
08
7D
02
79
7F
7F
75
6B
00
00
77
00
00
00
0A
7A
7E
7D
1F
09
09
04
7E
0E
70
12
73
7D
7E
06
7D
71
72
76
00
7A
07
72
76
70
01
7C
7C
00
6F
00
79
00
05
05
09
7E
78
00
7A
06
06
01
01
7B
00
06
0E
71
7E
7D
02
72
7F
03
7B
6F
05
0D
03
04
05
7C
00
76
07
03
02
0B
71
06
7E
05
01
07
75
04
00
05
7C
04
75
76
78
5F
7A
01
6C
00
7E
06
7A
7E
02
08
77
02
76
00
00
7C
01
00
06
73
71
7E
78
00
7E
06
78
7E
7A
0D
18
7F
09
00
06
08
0A
66
78
70
03
7D
7C
08
02
06
0A
7E
0B
04
01
0C
71
7F
7A
7D
0C
7E
04
02
7B
00
0E
7E
7C
76
04
0A
00
00
7E
6F
00
06
0C
7B
04
07
1D
02
00
00
78
7A
00
01
08
7F
7B
77
0C
13
00
02
04
09
00
7E
05
04
02
00
7A
04
75
7D
7F
73
06
7F
00
07
03
03
75
7F
7F
00
0D
7B
05
7C
03
05
0F
08
05
01
0C
09
75
13
01
77
09
71
11
02
79
00
00
7D
11
06
03
77
04
7A
00
7F
07
08
7A
01
7C
09
01
0A
7F
17
70
0E
09
76
7D
05
76
01
7F
79
7E
02
01
7B
7D
7D
01
03
03
7B
7E
7F
00
09
02
0D
07
79
7C
00
05
7D
03
01
00
7A
03
0A
7E
13
7E
7E
7D
00
7F
7E
01
7A
7D
01
01
06
7E
72
74
03
05
0A
77
75
76
0F
7E
03
77
7F
71
01
00
0C
73
09
7F
7F
0C
71
06
0A
06
08
7F
7F
7F
76
00
7A
09
03
00
76
04
04
7F
7E
68
03
73
77
0C
09
07
79
01
00
7F
7D
00
00
06
0A
03
09
04
00
00
0D
0B
00
78
7E
7A
70
7D
7F
01
79
7D
09
7B
0A
72
00
7E
7B
7E
7C
7C
01
01
6D
7F
7D
1A
7F
07
01
7F
7B
05
04
05
00
00
78
00
7A
00
10
0B
7F
00
7C
02
00
00
7C
7E
7E
01
00
06
01
07
7E
63
68
79
77
05
03
04
7C
7C
0A
00
79
05
11
72
7B
0E
7E
00
00
0C
70
7F
7E
7B
03
00
7B
06
7D
7D
00
00
08
01
04
04
06
7D
07
00
7E
77
04
69
00
70
04
02
06
05
71
06
01
76
02
00
7D
7E
7C
00
7E
00
00
76
00
7F
08
7B
02
7B
06
76
7F
03
7F
01
00
7E
03
07
78
06
00
75
74
00
00
00
05
00
00
07
0A
02
75
66
7F
7B
00
07
04
79
13
03
05
7F
07
04
02
78
7E
7B
77
03
7C
7E
75
7E
04
01
00
0D
00
04
00
02
03
00
75
69
00
02
74
0B
05
00
74
00
7F
78
73
7D
04
7E
0C
00
08
7E
78
12
7B
09
0F
02
73
00
0C
7A
79
07
76
01
00
78
03
7C
03
0F
78
7E
7F
7E
6C
79
7D
79
7B
76
7F
7C
00
00
77
74
7B
05
7C
08
7D
6E
7E
08
7D
7C
00
79
73
06
08
07
00
01
09
7A
7C
79
01
00
7E
06
00
01
7D
7F
64
04
14
7D
02
79
03
78
05
0A
00
7D
6F
7E
77
68
7B
7C
0D
07
12
06
7C
7A
00
0F
7D
7B
72
7E
6D
7F
77
74
74
00
7C
06
0A
79
01
73
09
00
7A
7E
77
00
05
08
7C
7A
7F
02
74
00
7F
7A
7C
00
7C
0E
05
77
03
7F
00
10
08
07
7E
7C
77
03
0A
73
08
08
00
7E
00
03
7E
06
7D
7E
0E
10
05
00
71
03
7A
04
70
7D
7E
03
05
0C
7C
06
78
05
7E
70
75
6F
08
14
7F
7B
0F
79
00
7A
04
19
04
74
07
7F
19
0B
76
10
7C
7C
73
08
00
01
7A
02
00
07
13
0C
7E
0B
78
04
7B
0B
00
02
0C
7B
74
08
7B
75
7D
05
0F
79
72
7C
76
03
05
7F
73
01
02
04
00
7C
7A
7B
7D
03
0C
77
7A
7F
06
0A
79
7F
08
03
02
67
71
00
08
7B
76
06
02
00
01
08
6D
7B
7D
10
7B
00
02
78
7C
75
02
7D
08
00
7E
78
03
00
7C
02
0C
7C
71
05
7E
0C
7B
7E
08
06
03
7E
00
02
02
00
7D
0C
0C
6F
01
0A
00
00
0B
01
00
7A
7B
7F
16
7F
07
7C
01
7A
64
7A
08
02
67
05
02
01
01
78
01
02
00
03
09
03
68
7A
7B
7D
7E
00
7F
7D
00
00
00
00
09
00
6E
09
02
06
7C
6E
00
00
7B
06
09
77
00
0A
05
6E
77
09
0B
7D
7C
7A
01
01
70
08
10
00
7A
1F
6C
03
09
01
04
00
07
02
10
09
00
7F
77
00
78
7B
78
05
00
00
77
05
0A
6B
77
01
04
7D
76
77
7B
00
00
0C
7E
77
0F
74
09
7D
7D
00
7F
04
04
00
7B
7C
00
00
72
02
00
7E
06
04
08
0B
7E
76
7F
04
7A
00
00
0D
13
01
73
01
01
06
7F
00
00
02
6C
00
00
78
0F
01
7F
01
13
77
08
01
73
76
03
0D
04
7C
79
03
7B
09
08
02
7E
7F
73
00
01
7D
03
7B
00
01
00
09
00
18
7D
05
18
76
00
09
0A
6D
03
0C
76
00
10
07
15
03
7D
7A
7C
09
03
76
74
6D
04
7D
77
7A
05
00
0F
7B
7B
05
08
04
79
7E
08
77
07
0F
04
79
0D
71
04
76
01
06
76
79
7A
03
00
05
06
7F
00
0F
7F
7F
7E
04
06
67
01
07
00
0B
7F
74
03
7A
00
7E
7E
7D
7E
76
0E
75
0A
00
00
04
01
01
05
7C
7E
03
0C
75
02
04
7F
1F
79
01
77
0D
71
77
7A
05
07
7C
0A
01
00
04
00
07
7C
75
7B
7B
71
03
16
02
77
00
01
05
78
7B
78
00
09
00
71
7F
00
00
7F
02
02
7E
16
64
73
00
03
0B
7F
00
7F
7F
7F
04
06
02
07
0D
12
7D
09
02
04
7A
7F
03
7D
6D
7B
77
00
03
00
06
7D
07
7E
01
02
00
05
7A
08
7C
06
7E
75
7E
75
07
0E
7A
05
01
7E
6D
00
05
7E
74
02
7D
7B
05
0D
00
7D
11
00
08
7F
7E
0F
7E
71
6E
7B
7D
7C
17
08
71
0E
7D
05
02
08
7E
12
03
74
01
76
03
00
06
76
03
74
75
78
08
7C
7D
79
76
6E
00
01
02
09
00
1A
7C
13
7C
00
00
7F
01
72
09
06
79
03
07
7B
18
7E
76
78
6F
03
72
7F
74
7D
09
75
76
7A
00
7C
7F
7A
05
72
7C
7A
04
04
06
12
7E
7D
07
03
00
7E
7B
7F
00
7E
79
01
7B
7E
01
00
78
03
72
7E
6E
11
01
00
05
0E
00
78
7F
7F
7D
02
09
00
00
02
0C
00
77
04
7F
1C
0D
00
77
08
13
58
74
04
04
7F
08
7B
78
07
06
7B
10
01
7C
0F
69
06
7B
79
02
7C
03
7F
7C
00
00
7F
00
17
00
7F
7D
79
7A
7E
02
00
00
09
06
06
03
00
04
06
0C
79
02
10
73
7C
7D
7A
01
0A
04
06
00
79
7A
71
6A
07
05
04
00
7B
7C
0A
02
08
00
78
00
74
7C
04
04
00
00
0D
06
08
6E
78
01
04
7C
00
78
77
08
00
0F
7F
79
7F
0D
7D
7B
03
00
7D
7F
75
01
7F
7C
03
00
7C
00
00
7C
09
7D
7C
0B
05
74
7A
76
08
69
00
78
00
01
00
06
05
08
78
00
00
04
72
00
00
0A
06
02
74
7C
13
7D
04
7E
13
74
02
77
02
06
07
08
09
10
06
7E
7B
7E
02
76

