73
00
75
7D
00
77
00
04
00
7B
09
13
03
01
00
0D
05
72
07
7B
75
00
7B
02
59
7B
04
73
0A
7E
02
7B
7D
00
7F
7D
03
0E
03
00
1B
0F
77
08
7E
75
72
00
0B
78
01
0C
03
78
08
05
7F
1A
7C
02
05
7C
0B
77
00
79
7F
02
07
0A
79
7B
00
79
0D
00
0A
7E
00
7A
1A
79
01
7C
00
03
7A
07
7E
78
74
76
7F
7A
00
04
04
7D
77
7B
0E
08
02
78
01
01
0B
6C
78
0E
76
05
74
6F
03
7E
16
7A
00
07
01
00
00
11
03
01
04
7C
7A
7F
7F
72
78
00
04
06
03
01
79
79
77
00
71
11
78
00
77
7E
02
0B
7A
02
04
00
0C
16
7B
00
7C
03
7D
0B
74
0E
7F
7C
7D
07
01
0C
02
7F
00
05
05
0A
0A
7C
00
02
0A
78
09
00
15
06
06
00
08
16
7C
79
77
77
74
01
7B
75
7B
05
00
7A
7D
7D
07
07
08
7A
03
73
79
03
79
03
08
09
7D
05
7A
01
70
03
68
75
7B
00
6E
0E
78
7E
1D
05
05
0C
04
0D
7C
7A
6B
00
75
09
03
06
7F
7D
04
7E
06
78
7F
09
0E
7A
7D
79
0A
0C
00
7C
76
08
6E
7B
00
76
02
7B
7F
02
05
7D
01
02
78
06
03
7A
73
00
10
7E
77
7C
06
06
76
08
7C
00
75
76
7F
7D
02
07
00
03
08
7F
7B
7D
05
02
0B
00
03
70
01
00
00
7C
7F
7F
01
6B
78
07
72
76
74
78
7A
04
00
05
04
00
78
7E
7F
72
03
10
00
00
7F
04
00
0F
75
15
17
7F
7A
7B
0D
7D
6E
7A
00
77
73
7E
08
01
01
7E
79
08
76
00
7C
7F
6B
77
12
04
01
06
6E
01
00
00
7F
00
02
00
75
79
01
06
73
73
00
00
04
00
13
04
00
07
00
76
08
0C
00
09
7A
07
7E
7D
75
77
7F
00
05
14
6D
7E
71
7B
01
00
08
6E
05
0E
70
7E
75
00
79
02
09
00
00
00
7F
7D
23
7C
00
04
04
78
7A
75
7E
0A
00
08
77
05
0D
7B
06
74
7F
7F
04
04
02
01
7A
7D
0A
00
70
09
00
01
08
06
03
00
76
6F
00
79
07
78
00
7A
76
79
7F
08
7F
07
7B
00
00
04
74
00
00
06
73
7F
75
76
79
1E
08
00
11
74
7F
04
01
02
01
7F
15
02
0D
7D
7E
04
09
77
00
00
00
00
00
00
00
00
00
00
00
00
00
00
00
00
00
00
00
00
00
00
00
00
00
00
00
00
00
00
00
00
00
00
00
00
00
00
00
00
00
00
00
00
00
00
00
00
00
00
00
00
00
00
00
00
00
00
00
00
00
00
00
00
00
00
00
00
00
00
00
00
00
00
00
00
00
00
00
00
00
00
00
00
00
00
00
00
00
00
00
00
00
00
00
00
00
00
00
00
00
00
00
00
00
00
00
00
00
00
00
00
00
00
00
00
00
00
00
00
00
00
00
00
00
00
00
00
00
00
00
00
00
00
00
00
00
00
00
00
00
00
00
00
00
00
00
00
00
00
00
00
00
00
00
00
00
00
00
00
00
00
00
00
00
00
00
00
00
00
00
00
00
00
00
00
00
00
00
00
00
00
00
00
00
00
00
00
00
00
00
00
00
00
00
00
00
00
00
00
00
00
00
00
00
00
00
00
00
00
00
00
00
00
00
00
00
00
00
00
00
00
00
00
00
00
00
00
00
00
00
00
00
00
00
00
00
00
00
00
00
00
00
00
00
00
00
00
00
00
00
00
00
00
00
00
00
00
00
00
00
00
00
00
00
00
00
00
00
00
00
00
00
00
00
00
00
00
00
00
00
00
00
00
00
00
00
00
00
00
00
00
00
00
00
00
00
00
00
00
00
00
00
00
00
00
00
00
00
00
00
00
00
00
00
00
00
00
00
00
00
00
00
00
00
00
00
00
00
00
00
00
00
00
00
00
00
00
00
00
00
00
00
00
00
00
00
00
00
00
00
00
00
00
00
00
00
00
00
00
00
00
00
00
00
00
00
00
00
00
00
00
00
00
00
00
00
00
00
00
00
00
00
00
00
00
00
00
00
00
00
00
00
00
00
00
00
00
00
00
00
00
00
00
00
00
00
00
00
00
00
00
00
00
00
00
00
00
00
00
00
00
00
00
00
00
00
00
00
00
00
00
00
00
00
00
00
00
00
00
00
00
00
00
00
00
00
00
00
00
00
00
00
00
00
00
00
00
00
00
00
00
00
00
00
00
00
00
00
00
00
00
00
00
00
00
00
00
00
00
00
00
00
00
00
00
00
00
00
00
00
00
00
00
00
00
00
00
00
00
00
00
00
00
00
00
00
00
00
00
00
00
77
03
7E
70
00
7A
00
77
00
02
00
0A
7F
02
00
01
7F
6B
04
7D
78
00
03
7E
01
00
7C
09
7A
7A
75
07
7B
0E
0B
72
0A
7C
7E
00
74
7F
7B
02
05
78
71
78
7B
77
7B
03
7E
00
04
7B
72
06
00
07
74
7C
0D
7A
00
08
04
0D
0F
7A
08
71
03
79
72
0C
04
7A
00
7B
7B
6F
77
7C
00
7B
08
7D
7E
7C
06
04
74
00
00
02
06
15
7B
7D
78
01
7D
7B
08
7E
13
6D
6C
13
72
7C
0F
7D
7A
02
02
7B
76
7C
0A
00
00
16
00
11
0A
09
09
7E
03
7A
07
00
7B
7E
11
05
7A
7D
0D
00
79
78
7E
00
79
0D
08
0E
74
03
0F
00
78
02
7B
00
7D
0A
7D
00
7E
73
00
10
06
03
01
76
01
04
02
06
7A
69
06
7A
00
03
00
77
7B
7B
02
04
06
7C
06
10
13
06
74
09
02
13
7C
7C
02
02
79
0E
6F
0E
76
73
7B
01
79
73
01
7A
7C
03
03
71
04
03
02
03
00
13
04
1F
03
75
78
74
01
73
03
78
7D
7F
0E
78
78
7B
05
7B
7B
01
01
7C
15
02
00
06
0D
7E
02
0D
04
74
7B
6D
7E
03
0B
7D
63
09
74
74
00
7E
78
78
72
7A
78
7E
02
75
76
78
0A
78
03
7B
7B
00
02
75
7C
76
7A
01
77
00
7A
7F
0D
00
0D
03
04
04
7C
7C
6F
03
10
7F
07
00
7F
78
7F
00
6A
02
00
09
7F
01
7C
0A
02
05
7A
79
72
7F
00
06
7B
00
7B
06
01
7B
05
00
00
00
03
00
00
74
7E
7C
76
01
79
7F
72
7A
76
78
74
79
75
75
05
00
7A
7C
75
03
70
09
6A
1D
09
7F
7E
01
7A
00
0D
7E
00
00
00
00
7A
00
12
7A
77
77
72
72
00
00
7A
70
74
7B
00
1B
7F
0D
7B
7F
7C
76
7C
7E
7B
03
76
74
14
00
79
7F
7F
00
72
7B
77
00
03
7A
78
77
78
7E
78
00
01
05
0A
77
00
00
6F
7F
7D
79
03
76
07
06
79
6F
73
7F
00
7F
79
7A
1D
07
7A
0C
77
7A
09
03
06
01
7C
00
03
00
04
01
00
7E
7C
02
7A
0B
7C
02
02
0F
17
79
00
7B
0D
7C
6C
0B
7C
01
77
00
00
05
7E
00
00
04
05
78
73
70
7C
00
7E
03
00
7D
7D
03
00
79
7D
00
0A
79
11
7E
05
06
00
7F
7E
79
7A
0F
00
0A
00
0A
00
11
7C
07
5F
09
00
00
06
69
0D
77
00
00
00
61
00
78
06
79
16
0A
05
04
00
19
74
6F
02
7D
01
00
08
09
08
06
74
78
73
0A
04
05
7D
7E
75
7D
06
05
00
07
7B
12
14
00
6C
0E
00
09
02
01
76
01
0B
70
7E
7E
0E
23
00
07
00
05
17
7B
06
79
00
7B
7F
04
09
02
74
15
0F
05
00
00
06
05
06
07
09
6F
78
02
7D
01
0A
7E
06
7F
6D
03
10
02
03
03
0E
7D
7A
0A
06
0B
00
10
05
07
08
09
15
08
0E
5D
02
00
06
08
06
06
7B
11
0C
00
04
7E
02
00
7A
00
00
12
09
14
69
00
7A
73
68
00
02
79
06
13
7B
12
0B
08
02
06
1D
07
05
78
03
07
7F
24
03
03
00
76
7D
02
01
79
7B
0E
00
7E
01
08
6E
7C
7D
79
74
08
73
7D
74
7E
07
04
7B
2B
18
10
08
00
0A
7E
06
11
07
79
79
6D
00
06
7D
79
7F
00
79
15
03
0C
78
05
7F
7E
7D
07
06
05
00
75
01
03
14
02
02
15
7C
0A
05
08
14
03
6E
7C
7E
7F
0F
7B
6D
62
09
09
7F
0C
10
77
04
7F
00
07
00
7D
08
0E
74
0D
0A
07
10
15
68
0B
0C
79
6B
69
6A
05
78
7B
76
7F
10
00
03
05
7F
07
63
05
76
7F
7E
0D
72
02
79
09
02
00
79
7E
08
00
02
09
09
65
03
0B
7F
08
03
09
0F
10
76
00
00
0C
7E
00
08
02
0F
6E
03
7E
00
00
7C
7F
00
7F
07
01
79
7B
5F
6F
0E
05
6E
7D
07
77
62
7C
05
76
04
0D
74
01
79
08
05
10
07
05
7C
7F
05
03
11
02
00
00
05
00
71
00
10
73
0D
02
7F
02
00
00
08
15
06
04
00
74
05
79
01
04
0E
03
7D
7C
75
03
6E
19
19
00
00
7B
05
03
0C
01
07
00
04
02
1A
01
14
05
6D
00
09
6D
0D
7A
00
00
70
00
0C
07
6D
06
7D
02
06
09
69
0E
00
03
7C
7E
0B
05
11
77
7D
0C
0C
05
0A
01
05
76
08
00
03
0A
00
09
01
07
77
79
7C
18
04
07
6A
01
00
72
7A
7C
00
7B
02
0F
74
00
00
77
7A
00
00
0B
79
04
77
0C
68
08
06
07
08
7D
0A
10
05
03
7E
06
0F
7E
17
00
06
0C
72
75
78
7E
71
79
00
7C
00
00
00
01
0A
02
7E
03
00
77
00
09
09
04
03
00
07
06
7E
7F
7F
77
0C
7D
02
7E
01
7E
06
7A
06
0B
01
00
71
7B
01
03
0A
04
7D
01
0A
78
74
6D
7F
06
11
7F
7F
78
03
7E
1B
77
13
02
00
00
00
76
03
7F
76
75
03
02
7F
04
79
01
00
02
0F
6A
74
76
00
02
08
7B
02
01
7F
00
79
7C
00
0A
06
7F
02
04
7D
00
05
7E
05
78
03
70
6E
07
7E
00
79
0D
00
7D
05
06
01
03
7C
06
00
7C
01
7F
7E
0A
6D
7C
04
7C
0E
00
08
0F
7C
04
06
03
03
00
7F
6B
00
00
76
04
01
03
03
77
0D
00
0C
0B
06
00
7D
7E
08
06
77
06
02
09
7F
11
7E
7E
7B
7C
02
79
77
10
09
05
00
12
71
79
6A
78
7A
09
0C
7F
02
75
79
08
09
79
00
7E
00
7F
06
01
02
7A
00
71
1A
0F
7E
74
07
73
71
02
06
75
73
02
75
77
08
04
78
05
79
04
7A
7B
7A
6F
72
10
07
7A
03
0A
03
76
68
03
78
05
78
70
05
7C
10
06
7B
04
7C
7B
77
0B
7F
78
06
73
12
08
00
04
06
78
0D
75
00
7C
0C
78
79
00
08
09
03
15
79
03
11
7F
02
77
77
07
07
6E
04
71
03
0B
73
00
7B
7B
71
7B
02
0F
04
00
0C
06
06
7E
00
03
7F
00
7E
77
0C
00
71
05
03
00
72
05
77
08
74
04
7C
74
79
01
00
04
08
00
7E
0A
7A
00
02
03
00
00
05
09
00
74
07
06
71
69
76
7D
68
78
6C
02
0D
7D
7C
6C
7B
02
7C
08
08
0B
7C
00
7D
75
02
04
00
06
77
0C
75
0C
00
00
7E
00
7A
00
73
7D
79
06
7E
04
00
00
74
0C
7C
7D
00
06
03
03
7F
07
04
7B
7F
7F
01
09
79
68
0C
00
03
07
06
13
79
02
7A
00
07
7E
08
7E
7B
0B
76
00
04
07
74
73
00
00
02
00
06
02
04
7B
00
02
75
72
7B
07
00
12
03
79
7A
7E
0B
06
7E
7C
08
01
03
01
7F
73
02
00
7D
7E
00
0A
03
0C
7C
77
02
7D
03
7D
08
09
00
7D
04
04
6D
0D
00
04
7E
00
00
79
75
00
00
08
7B
11
78
11
06
7B
0E
01
10
78
0C
0A
7D
03
7F
7A
03
71
07
77
79
02
0E
7C
00
00
00
00
00
00
00
00
00
00
00
00
00
00
00
00
00
00
00
00
00
00
00
00
00
00
00
00
00
00
00
00
00
00
00
00
00
00
00
00
00
00
00
00
00
00
00
00
00
00
00
00
00
00
00
00
00
00
00
00
00
00
00
00
00
00
00
00
00
00
00
00
00
00
00
00
00
00
00
00
00
00
00
00
00
00
00
00
00
00
00
00
00
00
00
00
00
00
00
00
00
00
00
00
00
00
00
00
00
00
00
00
00
00
00
00
00
00
00
00
00
00
00
00
00
00
00
00
00
00
00
00
00
00
00
00
00
00
00
00
00
00
00
00
00
00
00
00
00
00
00
00
00
00
00
00
00
00
00
00
00
00
00
00
00
00
00
00
00
00
00
00
00
00
00
00
00
00
00
00
00
00
00
00
00
00
00
00
00
00
00
00
00
00
00
00
00
00
00
00
00
00
00
00
00
00
00
00
00
00
00
00
00
00
00
00
00
00
00
00
00
00
00
00
00
00
00
00
00
00
00
00
00
00
00
00
00
00
00
00
00
00
00
00
00
00
00
00
00
00
00
00
00
00
00
00
00
00
00
00
00
00
00
00
00
00
00
00
00
00
00
00
00
00
00
00
00
00
00
00
00
00
00
00
00
00
00
00
00
00
00
00
00
00
00
00
00
00
00
00
00
00
00
00
00
00
00
00
00
00
00
00
00
00
00
00
00
00
00
00
00
00
00
00
00
00
00
00
00
00
00
00
00
00
00
00
00
00
00
00
00
00
00
00
00
00
00
00
00
00
00
00
00
00
00
00
00
00
00
00
00
00
00
00
00
00
00
00
00
00
00
00
00
00
00
00
00
00
00
00
00
00
00
00
00
00
00
00
00
00
00
00
00
00
00
00
00
00
00
00
00
00
00
00
00
00
00
00
00
00
00
00
00
00
00
00
00
00
00
00
00
00
00
00
00
00
00
00
00
00
00
00
00
00
00
00
00
00
00
00
00
00
00
00
00
00
00
00
00
00
00
00
00
00
00
00
00
00
00
00
00
00
00
00
00
00
00
00
00
00
00
00
00
00
00
00
00
00
00
00
00
00
00
00
00
00
00
00
00
00
00
00
00
00
00
00
00
00
00
00
00
00
00
00
00
00
00
00
00
00
00
00
78
07
0A
73
00
05
00
7E
00
7D
76
0B
11
09
00
03
04
6F
75
7C
0E
00
08
08
7F
77
00
03
77
03
08
7A
05
01
00
0C
01
7F
01
00
75
0A
15
79
0A
6F
0F
79
0A
75
05
06
7F
06
00
01
7C
07
77
0A
0C
06
63
09
00
03
01
15
72
0F
0A
1D
78
74
13
7B
01
03
00
03
0F
0D
7A
73
00
7F
7A
10
01
76
01
0A
06
04
00
0F
0D
09
78
07
65
00
7C
7F
7C
05
01
0B
7C
78
15
06
08
1C
7A
03
03
78
7C
01
03
02
00
07
03
02
15
78
12
12
0D
15
71
00
7C
7B
00
04
73
09
15
00
70
7E
04
00
79
76
02
04
02
0F
76
00
73
07
22
00
79
7E
7E
01
03
78
09
7A
79
71
7E
7B
01
16
06
0E
01
08
7C
77
00
0C
76
0F
78
79
7A
02
04
7A
02
0A
13
0B
7D
07
74
0E
62
57
77
6F
0B
08
6C
14
07
18
77
7D
05
13
0A
7F
00
7C
7C
1C
7F
12
7E
05
18
73
04
73
06
02
03
04
1B
76
78
07
00
7D
7A
78
07
05
09
02
07
01
7D
01
6D
00
12
12
72
79
7B
78
75
18
71
18
7D
77
0D
6E
13
7F
06
11
00
09
13
79
07
78
79
71
02
0E
7D
69
77
7C
06
77
6C
75
00
08
63
6F
05
0B
07
00
78
7F
7A
04
76
05
1A
04
00
04
01
02
07
7F
7F
00
7D
7B
02
00
0B
0A
79
75
77
69
78
6C
02
76
7F
08
04
7F
00
7B
09
00
05
02
79
14
79
7E
00
00
06
00
00
73
09
08
0B
0B
77
03
7D
0B
00
05
02
09
1C
05
06
77
09
01
1B
03
06
09
05
0C
14
7D
6F
74
7C
01
7D
6D
00
00
00
00
04
00
13
02
13
00
71
1A
00
00
7A
05
7F
7A
00
7D
7A
08
01
7A
75
78
77
03
72
0A
0E
02
06
00
7C
5B
7D
6D
01
7B
02
00
73
71
6A
6A
11
0F
78
00
0E
02
10
7E
00
00
02
7C
0A
18
7A
79
01
78
06
0F
16
73
00
6E
7F
73
07
09
75
00
0C
06
77
05
02
7B
08
01
7D
00
08
04
00
07
05
02
78
7D
78
18
7F
03
76
74
00
08
04
7B
01
79
7E
7D
05
00
00
03
77
00
00
16
6B
6E
0A
05
18
0F
01
03
20
17
0E
75
7C
09
05
00
06
06
78
7D
02
08
6D
02
79
02
71
0D
00
6C
00
0D
00
01
7E
7D
11
71
00
03
0A
7C
01
05
70
00
0F
06
7C
06
7D
00
0E
0A
0A
7C
7E
7A
7A
78
01
75
04
00
79
03
0A
0A
01
65
79
17
02
03
01
00
00
73
17
7F
05
01
7C
7E
12
7D
77
6F
00
75
12
01
74
09
0F
78
77
06
01
06
02
05
00
0E
1C
7D
03
7F
00
07
00
7C
7C
78
00
79
0C
7D
00
7D
7F
0B
08
6B
0A
7F
7B
7D
00
7A
08
77
05
78
7B
09
01
6B
7B
09
0C
76
04
7D
7A
13
00
0C
00
71
7D
77
00
0A
03
06
6F
00
7E
08
03
79
7F
01
02
00
79
00
7F
00
7A
7D
00
0F
7C
77
77
00
74
7A
0D
00
77
06
79
0E
7D
19
7B
7A
00
07
07
7F
05
0D
7A
75
78
11
7A
01
00
77
04
04
03
02
07
08
01
7A
73
7B
13
75
01
79
02
01
70
78
00
77
03
78
76
03
12
1C
08
6D
08
05
0B
0E
11
7C
7B
78
74
0E
01
7F
70
77
04
15
00
09
76
01
03
77
11
02
08
08
23
03
02
04
75
77
77
0C
07
08
77
03
0C
73
72
11
04
05
7F
73
72
75
06
14
05
05
0D
76
77
03
00
71
79
01
09
04
07
7F
7C
0F
03
0A
70
03
73
7D
7B
6F
7D
7D
7E
11
76
74
7A
00
75
02
79
03
73
00
74
7E
7F
08
01
7A
09
06
78
00
7D
11
75
00
10
77
08
78
15
05
74
04
0D
77
07
07
03
01
00
08
00
00
7F
7B
08
05
07
02
00
00
02
00
00
7A
79
7E
06
00
02
79
07
00
02
7B
00
7D
01
00
01
7D
7D
11
70
7E
08
6B
7E
10
73
71
6C
01
7B
7E
02
7C
00
00
7D
00
09
00
72
7B
06
6E
05
78
00
00
10
7E
09
05
00
03
02
7D
79
09
09
76
7F
7D
08
7C
7F
08
11
00
06
7F
72
7F
04
78
7D
00
06
76
7B
7B
63
7B
0A
00
6D
71
7E
08
00
00
04
7E
0A
77
74
0A
74
02
09
7F
01
22
00
78
7E
7E
03
09
7E
72
03
14
7D
02
72
7E
7B
05
02
00
05
00
00
7B
08
7F
7B
76
07
7C
72
7B
7D
73
00
79
6D
01
0F
04
02
04
04
00
00
07
75
00
00
17
6D
0C
78
07
0A
01
75
7C
01
05
0A
7D
00
00
11
09
10
13
7A
03
77
73
7F
78
05
7E
09
02
00
01
00
03
00
7A
7D
76
74
1D
00
07
0E
74
6C
0E
71
00
09
01
75
05
7A
0D
7C
05
00
00
02
79
0D
05
77
7A
79
00
6F
12
08
02
04
73
00
13
7B
7E
7E
71
04
7D
12
04
0F
77
01
7E
0E
05
0E
70
00
75
0A
06
7E
7F
0D
00
7E
03
07
05
02
7E
00
04
08
05
7F
7C
00
01
05
7C
77
7E
0B
0E
08
7E
00
04
7F
1B
15
77
75
78
7D
7E
7A
01
09
78
02
7B
76
00
03
79
77
0C
75
7E
6F
77
7D
0D
00
06
7D
79
7D
7A
7C
02
0A
77
06
00
02
06
11
00
0B
0A
72
00
7F
01
02
00
77
0E
7E
0B
72
1D
75
00
77
7D
79
00
74
06
7F
6E
00
05
03
73
00
7B
78
7E
7E
71
7D
78
77
07
7B
04
00
08
09
05
08
02
03
00
7D
7D
7E
7C
18
00
00
15
05
7C
08
05
0C
74
07
7B
08
03
0F
7C
72
02
01
7E
06
7D
09
01
7B
7A
02
76
77
0E
03
70
04
08
01
07
0D
7D
75
7B
02
01
7B
7F
0D
02
05
02
7C
00
7B
71
0C
7A
0E
7B
12
09
7F
03
7E
04
0D
7A
75
7D
02
0B
0A
7E
61
75
03
7B
00
76
7B
0D
7F
76
01
7A
7D
16
03
66
04
06
01
05
74
00
0D
00
7E
03
03
04
79
00
00
02
0C
03
7E
03
05
03
07
7E
7E
04
04
05
7F
00
03
0D
76
00
78
0B
03
7D
0C
79
01
08
05
7A
0B
06
75
0C
00
03
0D
00
01
71
7B
71
00
08
00
00
07
0D
00
04
76
77
6B
6F
0D
71
79
11
7F
7D
04
77
6C
0B
02
07
00
07
00
75
08
79
74
19
7B
78
7C
7D
7E
04
00
7C
00
00
03
00
07
00
7D
08
02
7F
03
0C
00
00
03
05
7C
02
00
0F
0B
15
07
7A
7C
02
01
08
7A
00
6F
01
09
00
03
00
7F
06
7A
03
7F
00
05
17
64
08
7E
07
03
00
7F
7D
7D
03
00
00
74
03
04
16
06
02
08
7C
06
07
78
0B
00
72
02
00
07
0A
6D
03
05
12
00
04
79
02
7F
06
7E
00
78
03
00
0C
01
7C
06
7E
04
7A
7E
10
7E
00
00
79
7B
06
00
7F
01
7D
68
00
00
7D
08
00
00
0D
02
7B
04
0D
6B
00
72
0B
63
00
0A
07
09
07
02
07
0F
7D
76
02
01
03
01
0F
7A
0A
03
7F
00
03
00
7F
00
7E
79
71
03
0D
00
7E
75
7A
02
0D
01
00
6A
07
04
0E
06
06
7B
7D
00
06
7F
7A
12
0F
76
71
10
00
08
76
03
7C
78
02
78
69
01
78
7D
0A
7D
04
06
7D
74
04
01
72
6F
76
7C
03
00
7A
75
7C
7B
7C
02
7E
78
6B
00
01
75
7A
00
76
71
09
09
06
00
00
7A
06
01
7D
13
00
7B
07
00
76
79
7B
74
03
0D
7E
73
77
7D
7C
00
7F
7D
75
78
71
77
09
7B
00
07
6B
79
05
02
78
00
00
01
01
02
06
73
7F
09
07
07
00
77
6E
04
75
05
64
00
00
78
09
71
00
0F
7E
7E
75
7C
6F
04
00
0B
7D
7D
00
7E
03
75
77
05
70
76
04
7C
7D
7F
74
7E
09
7E
7B
6F
6B
7B
06
00
07
7A
7E
00
77
04
07
77
77
74
7E
01
0F
79
08
07
76
12
7F
01
75
76
03
7C
70
64
5F
7C
7C
79
12
15
63
6D
7B
03
0E
7E
02
00
04
79
75
04
7A
03
7E
78
04
05
7D
77
7C
04
7A
78
0C
02
7E
77
02
0A
6A
7D
03
7F
78
76
08
06
00
7B
01
08
7A
6F
7D
6C
79
09
70
0B
78
76
14
00
79
7E
79
79
03
01
74
7F
78
75
7B
7F
01
75
09
76
00
0A
7D
06
07
03
03
0B
00
77
04
78
00
00
7C
09
7A
7B
78
07
7D
00
78
00
00
7E
7D
7C
00
02
7D
7F
7F
71
74
74
00
7A
75
0B
7A
05
6D
00
75
7C
00
7B
7B
07
78
7C
7E
00
00
78
09
00
03
7C
79
09
01
09
7A
01
74
02
01
77
15
7B
7A
0A
01
75
73
7A
78
11
79
0B
79
05
78
76
79
78
0D
01
06
00
00
06
00
72
00
77
0A
7C
74
7D
0B
00
00
02
00
7D
7A
00
7C
7B
0D
6D
03
7E
7E
7A
7B
06
6C
07
08
00
00
76
16
78
6F
02
02
70
00
06
6B
03
07
7C
10
01
00
03
79
0D
79
00
00
0D
79
08
79
02
01
06
78
06
04
01
6F
00
00
05
77
02
75
03
08
00
04
7A
76
7E
06
7B
05
7D
00
6D
09
00
02
79
05
00
7F
07
76
7A
09
05
79
00
01
79
08
79
7C
09
00
76
00
00
7B
00
00
00
03
73
7E
06
02
01
74
76
7C
09
05
6F
03
0D
7B
6E
7C
74
08
7F
05
09
12
7B
0A
76
06
09
78
00
7F
00
7D
00
7D
0B
7B
07
17
00
7C
74
08
7D
7C
06
00
72
7A
01
7E
03
06
72
76
7F
00
04
6D
7B
0E
0B
03
05
00
7A
63
07
04
16
0A
15
6D
7D
00
02
04
06
7E
6C
7A
7B
10
04
03
7D
77
16
03
00
08
00
6C
0D
7A
05
0A
02
60
7E
70
77
7B
00
7C
6B
7D
6F
7C
00
01
09
78
79
7C
6B
66
73
01
00
02
7E
0A
04
04
01
02
08
03
0A
7E
76
77
7E
7D
04
01
00
10
02
01
7F
01
7A
00
7E
7C
00
7E
7F
02
06
05
69
02
04
7C
7F
00
78
7E
7C
7B
04
6A
09
00
7B
04
7A
00
02
0A
7D
6E
7F
70
7F
00
1A
03
09
00
00
06
00
74
7F
7B
7D
05
7F
01
65
7B
7A
0C
07
7B
00
7E
0C
79
00
7F
00
77
7F
08
0C
00
7E
7B
7A
10
03
0E
74
0A
7A
0A
08
02
07
78
77
7F
00
70
7A
74
7E
7C
7A
01
01
75
7A
01
02
13
7F
7D
05
03
07
06
71
71
7C
77
7C
77
7C
0B
7F
7E
01
01
72
0B
79
00
73
7D
02
7E
7F
7D
09
79
69
06
79
7B
02
17
16
07
0B
04
73
7E
0B
66
05
0E
00
02
00
7D
01
08
7B
01
09
79
04
6A
61
7A
02
7D
7C
7D
05
1F
6E
7A
07
02
03
0D
79
00
7D
78
04
7B
11
02
0E
00
76
7E
74
00
05
7A
02
00
01
75
03
00
06
01
0A
0C
66
7E
77
06
60
7F
79
7D
7B
00
00
76
0A
00
7F
7F
04
00
08
05
00
00
7F
78
00
02
09
00
0F
01
0C
07
03
00
77
7C
00
02
04
78
7B
04
03
7C
0A
0B
0D
03
7C
69
7E
7C
02
01
04
0E
06
09
00
00
7F
00
76
00
6F
01
7E
7C
7D
04
00
00
77
04
01
00
00
11
7A
71
03
72
08
7E
78
06
03
01
12
71
70
00
79
11
79
03
79
79
05
00
03
6E
70
04
71
0C
07
00
7E
06
09
75
00
00
05
7E
7E
05
04
02
7F
7B
7B
7E
18
6B
00
0C
7A
7C
09
79
7C
00
02
7D
77
7E
7B
7E
7B
7F
00
00
77
01
00
04
02
07
7E
0E
7A
7D
02
06
13
7A
00
07
07
7A
7E
0B
7A
6F
74
00
00
05
7A
00
00
0B
06
06
01
7D
15
7E
05
75
02
0A
7A
6C
7B
7B
00
05
72
7C
7C
01
7D
08
02
08
72
0A
01
71
00
78
00
06
00
78
7C
7D
76
7A
00
01
03
7D
07
02
76
00
73
0A
71
03
04
6F
7D
7A
74
7E
73
0E
0C
05
0F
02
02
00
7C
17
6E
02
06
78
7E
04
07
78
0A
74
06
05
00
79
76
07
70
03
6B
75
7E
7D
00
01
75
7E
06
09
78
09
75
7D
0C
01
7E
07
00
7D
09
7D
07
02
00
6F
0A
0C
7F
76
0D
15
78
05
00
0B
02
78
0F
74
04
09
02
7D
06
79
07
1C
7B
03
03
7D
11
03
7B
7C
7C
7E
00
04
07
00
00
11
71
78
07
00
1D
7B
7A
02
71
00
07
7A
75
01
03
03
02
00
78
71
02
00
00
01
7C
0D
7E
12
19
00
06
05
09
00
7E
0D
7F
7E
09
02
7B
76
78
08
75
7F
03
7E
0D
76
06
00
7E
7F
00
08
00
06
01
7B
06
1E
02
7C
05
0A
07
1F
01
72
7D
09
7A
1B
75
7E
6F
0F
09
15
68
09
6B
04
72
12
7C
7A
73
06
05
01
01
7A
08
00
07
7F
13
07
7D
7B
76
77
03
10
0B
7F
08
11
11
00
01
0F
7C
01
02
04
01
02
03
00
28
05
0F
03
02
16
7A
7A
03
0D
05
11
09
7C
10
09
69
0B
00
0C
00
7A
75
01
0B
7D
06
01
04
77
0E
7C
7C
7E
6B
7E
02
7C
12
78
00
04
7A
00
01
79
01
00
06
17
11
76
03
70
0A
6C
0D
01
7A
00
7D
07
7E
00
7B
7F
03
06
07
6C
75
0B
08
0B
79
02
06
77
00
06
75
00
7C
05
0A
7F
10
01
00
00
7A
7E
00
03
0A
72
02
6D
6E
7D
01
6B
0F
05
78
0A
7E
06
05
74
77
01
0E
71
78
79
11
11
7E
03
7A
07
06
0B
75
7E
00
00
7E
00
0F
00
09
00
73
00
74
08
00
00
09
77
76
78
00
03
05
0A
7B
03
79
7B
78
03
0B
7F
02
02
7E
00
01
24
03
01
70
0E
11
00
09
68
07
7E
71
7D
75
00
7A
12
0A
78
00
00
0C
05
0F
08
09
04
01
7B
00
75
01
0D
00
00
7D
7F
03
78
04
03
02
7D
05
03
7A
7C
02
03
0C
00
71
01
00
77
6C
78
00
0D
02
09
79
72
05
7A
00
0E
05
7A
7E
04
05
07
7F
00
00
0B
77
00
00
76
09
79
06
7E
01
7D
05
13
7E
7D
79
05
04
7B
7A
7A
16
7D
0F
7A
03
04
7D
7E
0D
6F
78
03
00
7F
00
7E
00
7E
0A
76
10
10
00
14
0F
66
75
7E
75
00
1B
7A
0C
68
7E
6A
68
06
06
78
08
76
79
6C
78
01
76
00
12
1A
0D
02
7A
00
74
7F
07
04
03
14
76
78
7D
00
0A
72
00
0D
6A
03
7E
02
00
7B
0E
05
77
0B
16
70
7E
16
0F
79
00
05
00
10
6F
00
73
7D
00
7C
09
74
7D
01
78
0E
7F
7B
00
08
01
08
0A
01
72
05
05
02
07
7F
10
6D
79
7F
79
09
02
7D
05
08
7C
7E
73
7E
02
7B
00
01
03
7C
6D
7C
7E
0E
0E
7B
7E
00
0D
08
0A
01
02
0E
05
00
03
7F
79
00
79
10
08
03
09
13
7D
00
01
78
7F
00
7D
01
00
7F
7B
79
01
01
7E
78
6C
01
03
79
7F
06
73
69
02
09
00
7B
7C
7D
09
03
7F
09
07
01
0C
6F
12
01
05
6F
77
07
77
02
07
7D
04
06
03
7B
03
04
06
78
03
7A
05
7D
04
09
74
75
78
12
00
78
79
74
04
7D
09
7F
0B
06
69
08
6F
02
0C
08
6A
7E
0A
08
00
79
7B
11
79
05
7D
7C
25
7D
77
11
7F
7C
59
70
7D
75
79
78
7E
6C
6F
7C
07
77
00
03
05
0D
09
7F
07
02
0A
74
6D
6F
7C
09
7E
7E
05
75
7B
7F
7F
19
7A
03
05
00
03
0A
07
09
6E
08
03
00
05
05
00
7E
7F
01
02
00
01
02
7B
00
11
03
7D
75
16
6D
01
6F
02
7F
05
14
0B
03
00
03
0D
00
04
6B
0A
74
00
7B
00
00
7A
7D
00
76
0D
74
0E
0A
71
01
09
0C
75
00
0C
7F
7C
0D
01
7D
02
00
6E
07
0A
03
6D
0A
0C
7F
7C
05
02
7F
7B
7B
00
00
04
00
06
00
78
6B
7E
7E
0B
01
00
00
0B
04
0D
7F
00
7F
7B
7D
02
72
74
7C
05
7D
7C
7E
77
7E
06
00
0C
69
0B
69
0C
7B
0A
00
03
7D
67
6B
79
03
00
00
7B
7E
02
10
00
00
73
04
0D
7C
7D
0B
77
7A
0B
04
6F
77
00
79
77
02
03
04
69
75
7D
77
74
7D
7E
79
06
00
09
00
07
7B
00
02
7C
04
75
05
7C
20
00
7E
05
78
00
70
72
7A
10
00
7D
0D
6A
00
00
0D
7F
00
00
17
73
0C
78
65
71
76
02
02
05
7F
00
00
7E
0A
07
0F
21
14
7A
03
02
6B
0F
78
7D
77
07
02
00
7B
00
09
00
7E
05
7B
65
01
00
79
74
17
01
05
7A
00
70
7B
74
77
01
06
07
7D
04
03
76
7E
06
06
17
01
7B
00
70
0D
75
06
0B
01
0C
0C
10
06
7B
72
0A
09
75
01
05
00
75
7F
07
78
03
7E
00
04
72
69
7B
7B
7E
0E
04
0A
79
0C
05
7E
00
7F
0C
04
78
0A
00
04
0A
7F
00
7B
09
1B
02
0A
00
09
06
05
0C
7E
79
07
0E
00
07
77
0C
0B
02
7E
13
03
00
75
09
7D
70
08
0A
00
00
7D
00
00
7C
03
74
05
79
6B
7D
07
72
00
04
14
79
07
01
0C
01
00
00
7E
03
00
07
07
7A
12
7E
7A
75
00
08
75
08
00
7E
07
07
76
7E
02
03
78
77
0A
56
7B
7B
07
08
79
14
17
05
7F
00
7E
09
7C
7F
7E
76
0B
04
00
78
0A
02
09
09
04
7F
7A
06
15
76
02
7D
06
0A
08
6D
71
6F
78
00
10
79
06
7F
7A
08
7B
0A
71
0B
03
76
70
75
7E
78
03
01
7E
78
11
6E
04
03
0F
10
05
7C
06
7E
07
03
77
0C
02
7C
07
0C
04
05
77
07
12
0B
0D
12
14
0A
14
0B
03
19
05
05
07
00
06
02
0B
04
09
0A
06
0A
01
71
0F
7E
09
07
01
6E
0D
7C
0D
0B
70
7C
06
02
00
7B
7F
02
7E
03
12
08
00
03
70
08
01
7C
7C
01
00
7F
08
09
00
76
05
10
06
7E
05
03
0C
09
0B
04
14
08
09
00
0C
01
00
7F
0B
07
07
08
01
00
00
09
02
00
01
07
72
7E
6E
7A
06
76
05
0D
08
0B
05
04
7E
02
7D
01
7D
0E
79
0E
0B
16
08
6F
07
06
07
00
0C
7E
13
00
00
7B
00
13
00
6E
01
06
0F
76
00
00
00
02
0F
7B
7F
00
08
07
01
0C
79
0F
06
7B
09
10
09
09
01
03
00
03
1B
7D
7C
02
02
09
00
05
03
76
0A
01
08
01
00
7A
0A
03
77
00
00
10
04
7B
0D
00
03
07
00
02
77
75
22
00
07
02
02
05
75
7A
7D
07
08
07
00
00
02
7F
06
04
00
6F
02
00
05
00
7E
02
00
03
06
03
7E
78
02
00
18
07
04
01
05
7E
78
7A
00
00
6D
06
00
00
6A
04
07
01
0A
0D
70
07
06
76
09
0A
07
05
7D
00
05
7E
6F
03
7C
01
02
05
7E
02
02
06
07
00
7D
00
79
00
00
7F
74
73
0E
00
01
75
04
04
01
04
00
79
7C
7D
0D
00
08
08
7E
01
00
09
06
08
03
08
76
7B
00
04
76
01
79
7A
76
07
7E
06
74
7E
07
7A
06
77
00
79
02
00
6D
6E
02
13
79
00
6F
01
7E
75
7C
02
7F
7C
7C
0D
10
74
03
00
7E
7E
7D
0E
7C
00
0D
75
02
06
79
7B
02
77
79
00
7A
7B
78
06
00
1D
7F
75
7D
7F
7E
01
73
71
74
02
01
02
16
78
7D
0A
7F
0C
04
76
75
00
02
0A
7E
05
7F
7D
02
07
02
78
00
00
7C
05
7C
06
76
7C
00
08
10
6C
00
7D
7D
75
6E
7B
73
7D
00
09
02
07
00
78
7F
77
0C
7C
77
75
79
04
7E
0F
77
7D
05
7E
7C
79
7C
7C
0B
00
0B
73
00
71
04
0B
10
7F
04
75
7E
05
7B
01
10
02
08
7E
71
7E
06
00
76
05
6B
7A
74
03
7F
7F
7B
04
12
7F
71
7E
01
78
7C
03
03
73
02
7C
12
03
78
76
7A
7D
12
72
6F
7A
7C
01
0A
01
71
70
04
05
06
7C
7A
19
01
72
07
01
7D
7B
02
00
79
73
7F
01
77
05
08
73
7E
70
01
00
71
7F
76
7D
7A
01
0A
7E
77
14
71
7D
7D
7F
7F
09
05
7D
74
7D
0A
0D
07
7B
00
7E
03
6E
79
7C
10
10
00
01
0A
79
04
0A
01
03
00
78
7B
00
00
08
07
7A
01
03
64
71
7B
03
7F
7F
79
7F
73
00
7B
0D
00
05
00
04
05
7F
00
00
00
7D
0C
00
01
71
03
02
10
0F
00
08
7F
71
7D
7E
0C
01
72
77
03
6E
7A
01
79
01
76
75
07
7E
78
72
73
77
13
79
02
00
00
7F
00
76
00
09
08
7B
7B
00
7F
00
00
77
10
7E
72
00
01
7C
76
73
0B
6C
7B
75
78
06
7D
79
01
08
00
77
0E
78
7D
79
7F
72
00
04
0A
14
7F
79
03
08
00
0D
76
05
04
00
00
74
7B
7E
0D
7A
7B
7F
76
7B
02
01
69
00
06
01
74
7C
7C
2C
7D
01
75
7C
7F
7B
05
09
01
75
00
7E
7F
00
03
06
05
0D
7C
05
68
7C
0D
73
00
00
01
01
02
76
02
0D
77
0D
00
00
06
02
00
00
03
79
02
02
71
0A
6C
79
7D
02
7B
7B
0B
7C
00
7F
7F
7F
07
07
09
7F
7F
7E
7E
00
00
00
00
00
00
00
00
00
00
00
00
00
00
00
00
00
00
00
00
00
00
00
00
00
00
00
00
00
00
00
00
00
00
00
00
00
00
00
00
00
00
00
00
00
00
00
00
00
00
00
00
00
00
00
00
00
00
00
00
00
00
00
00
00
00
00
00
00
00
00
00
00
00
00
00
00
00
00
00
00
00
00
00
00
00
00
00
00
00
00
00
00
00
00
00
00
00
00
00
00
00
00
00
00
00
00
00
00
00
00
00
00
00
00
00
00
00
00
00
00
00
00
00
00
00
00
00
00
00
00
00
00
00
00
00
00
00
00
00
00
00
00
00
00
00
00
00
00
00
00
00
00
00
00
00
00
00
00
00
00
00
00
00
00
00
00
00
00
00
00
00
00
00
00
00
00
00
00
00
00
00
00
00
00
00
00
00
00
00
00
00
00
00
00
00
00
00
00
00
00
00
00
00
00
00
00
00
00
00
00
00
00
00
00
00
00
00
00
00
00
00
00
00
00
00
00
00
00
00
00
00
00
00
00
00
00
00
00
00
00
00
00
00
00
00
00
00
00
00
00
00
00
00
00
00
00
00
00
00
00
00
00
00
00
00
00
00
00
00
00
00
00
00
00
00
00
00
00
00
00
00
00
00
00
00
00
00
00
00
00
00
00
00
00
00
00
00
00
00
00
00
00
00
00
00
00
00
00
00
00
00
00
00
00
00
00
00
00
00
00
00
00
00
00
00
00
00
00
00
00
00
00
00
00
00
00
00
00
00
00
00
00
00
00
00
00
00
00
00
00
00
00
00
00
00
00
00
00
00
00
00
00
00
00
00
00
00
00
00
00
00
00
00
00
00
00
00
00
00
00
00
00
00
00
00
00
00
00
00
00
00
00
00
00
00
00
00
00
00
00
00
00
00
00
00
00
00
00
00
00
00
00
00
00
00
00
00
00
00
00
00
00
00
00
00
00
00
00
00
00
00
00
00
00
00
00
00
00
00
00
00
00
00
00
00
00
00
00
00
00
00
00
00
00
00
00
00
00
00
00
00
00
00
00
00
00
00
00
00
00
00
00
00
00
00
00
00
00
00
00
00
00
00
00
00
00
00
00
00
00
00
00
00
00
00
00
00
00
00
00
00
00
00
00
00
00
00
00
00
00
00
7F
75
04
73
00
76
00
7B
00
01
7E
77
08
07
00
00
73
67
79
7F
03
00
74
06
7C
7A
05
7D
7D
00
7C
02
0D
09
72
7D
04
00
06
00
01
75
72
03
13
79
06
73
7A
7E
7F
16
7E
79
79
09
78
16
7C
04
14
7E
10
7F
00
79
04
0C
10
07
7D
7D
02
6B
0B
00
00
7A
00
06
73
7C
78
7B
00
02
11
76
7C
0B
78
02
7A
73
00
7B
7E
05
7A
7D
7B
05
7B
79
7F
7B
00
78
78
0A
07
05
03
0E
7F
0F
76
04
6F
72
05
0A
00
0D
00
04
7F
7D
72
7A
0A
06
03
00
77
6E
0B
00
76
7A
78
00
7E
73
7F
00
74
0A
13
04
6E
23
06
00
0D
7C
09
00
75
7D
00
6E
7C
0B
7F
7D
07
7E
77
7C
00
05
78
7C
76
01
0E
00
00
74
08
77
04
02
7D
7C
7A
7B
73
0E
7A
7F
6F
78
04
09
08
79
7D
78
07
0C
79
0B
7E
6F
16
08
07
6D
7B
76
01
0E
7C
6E
02
0E
74
06
02
05
7D
00
07
01
0E
74
75
02
7D
7D
7E
0A
75
00
6D
16
00
7E
77
79
02
01
0A
78
02
7F
7E
06
02
0C
78
02
09
03
73
03
79
7F
09
0E
78
76
00
70
75
76
7B
00
7C
77
7B
7A
66
08
04
76
76
79
0E
11
78
74
01
00
08
17
7D
00
09
7C
12
04
05
7B
0A
01
7A
00
7C
7F
08
7E
0A
00
09
00
76
00
75
7C
7B
0C
7A
08
7A
0B
6C
00
78
03
6F
06
00
01
05
00
7A
76
7B
0D
02
02
00
00
04
02
00
7C
7C
06
03
06
07
0E
79
00
1D
76
79
75
10
00
0C
06
7D
08
06
01
06
01
6C
7A
00
78
7D
04
7F
7E
01
7C
00
00
09
00
6B
00
05
7A
00
79
09
71
00
00
77
13
00
0F
00
04
7C
7F
06
02
03
00
0A
02
78
7D
01
7D
03
00
07
02
7D
16
74
77
79
00
01
7B
7C
75
72
0C
04
00
7B
0A
76
7F
00
00
70
75
7F
06
01
00
7A
07
00
00
7F
6D
00
7A
7A
01
16
04
78
06
75
07
02
7E
01
03
77
7F
08
00
77
09
00
11
7D
05
7F
06
75
7F
07
7E
20
02
00
7D
00
77
03
03
78
09
03
00
00
13
70
00
00
11
06
75
00
03
02
7D
7B
79
6C
0B
03
05
05
04
7C
7B
6D
0B
09
0A
04
76
7A
06
09
79
6A
7D
00
0D
00
00
00
0E
03
7F
13
1B
00
07
03
7F
05
7E
7D
00
79
7C
09
78
09
64
01
7A
00
00
0E
03
64
6D
00
7C
07
00
7A
7D
0F
7D
76
11
04
7E
05
7E
10
7A
07
7D
08
7C
10
7E
0B
04
79
09
15
0A
00
07
01
02
00
7B
0B
7D
79
04
0B
05
7E
09
00
79
06
04
7B
7F
00
7D
04
05
7F
7E
0B
02
77
0A
00
74
7D
10
00
02
6D
09
04
04
0B
0D
0D
02
7E
78
7E
04
02
71
75
7E
05
7F
06
08
79
02
00
08
08
7C
7A
7F
7A
09
0B
02
7A
00
7A
08
07
7A
01
00
13
00
08
7B
7D
00
0B
0F
7C
7C
0F
04
14
00
08
7F
07
00
07
0D
01
00
07
7E
03
1C
70
01
07
11
04
01
05
7D
7A
1C
77
0D
00
0E
76
74
7F
0A
72
11
7F
06
04
73
13
09
0A
75
7D
0B
6D
7F
07
01
78
7E
0B
08
14
0C
7A
0B
7E
02
0B
76
7F
7F
78
7E
7D
0F
04
0C
7A
04
76
04
07
77
0F
09
77
07
08
76
06
7C
0B
71
07
7D
78
00
09
76
72
7F
16
7C
07
7A
06
00
7A
05
6F
7E
78
04
13
04
10
74
77
73
0D
00
00
08
7A
09
7E
08
75
00
08
05
17
75
7E
08
04
03
75
7B
7E
7C
0D
0E
0C
0C
03
00
13
74
12
04
62
02
7F
01
7B
10
02
7F
01
04
09
00
00
00
03
00
09
04
02
78
05
0B
04
05
7C
7B
7F
05
12
7F
00
02
11
00
08
75
0E
7F
08
05
00
00
7A
6B
00
0B
0D
0C
79
77
65
7E
79
15
7F
02
05
13
04
01
01
7E
07
01
7F
0A
04
7C
7D
09
72
7E
7D
03
10
04
76
01
00
00
7E
00
00
00
6F
7B
7B
7A
0A
09
00
00
7A
0C
7F
7D
00
03
04
1A
00
03
16
0A
7E
03
04
79
0D
02
0C
00
7E
66
7E
09
0A
05
12
00
7E
03
13
78
6C
7D
7A
00
73
00
0E
7B
00
00
10
0E
15
04
0B
00
72
7C
02
08
69
02
00
05
7D
0A
0B
09
05
01
11
7C
77
7D
7F
00
0C
74
7A
00
7E
05
00
7D
05
07
0E
0B
09
10
7E
15
07
7B
00
7B
7D
05
7F
02
03
74
79
00
00
0D
04
00
00
1A
7F
11
08
07
76
0C
03
09
08
02
7D
04
02
7B
78
0D
05
77
01
7D
77
71
03
01
00
00
00
00
00
00
00
00
00
00
00
00
00
00
00
00
00
00
00
00
00
00
00
00
00
00
00
00
00
00
00
00
00
00
00
00
00
00
00
00
00
00
00
00
00
00
00
00
00
00
00
00
00
00
00
00
00
00
00
00
00
00
00
00
00
00
00
00
00
00
00
00
00
00
00
00
00
00
00
00
00
00
00
00
00
00
00
00
00
00
00
00
00
00
00
00
00
00
00
00
00
00
00
00
00
00
00
00
00
00
00
00
00
00
00
00
00
00
00
00
00
00
00
00
00
00
00
00
00
00
00
00
00
00
00
00
00
00
00
00
00
00
00
00
00
00
00
00
00
00
00
00
00
00
00
00
00
00
00
00
00
00
00
00
00
00
00
00
00
00
00
00
00
00
00
00
00
00
00
00
00
00
00
00
00
00
00
00
00
00
00
00
00
00
00
00
00
00
00
00
00
00
00
00
00
00
00
00
00
00
00
00
00
00
00
00
00
00
00
00
00
00
00
00
00
00
00
00
00
00
00
00
00
00
00
00
00
00
00
00
00
00
00
00
00
00
00
00
00
00
00
00
00
00
00
00
00
00
00
00
00
00
00
00
00
00
00
00
00
00
00
00
00
00
00
00
00
00
00
00
00
00
00
00
00
00
00
00
00
00
00
00
00
00
00
00
00
00
00
00
00
00
00
00
00
00
00
00
00
00
00
00
00
00
00
00
00
00
00
00
00
00
00
00
00
00
00
00
00
00
00
00
00
00
00
00
00
00
00
00
00
00
00
00
00
00
00
00
00
00
00
00
00
00
00
00
00
00
00
00
00
00
00
00
00
00
00
00
00
00
00
00
00
00
00
00
00
00
00
00
00
00
00
00
00
00
00
00
00
00
00
00
00
00
00
00
00
00
00
00
00
00
00
00
00
00
00
00
00
00
00
00
00
00
00
00
00
00
00
00
00
00
00
00
00
00
00
00
00
00
00
00
00
00
00
00
00
00
00
00
00
00
00
00
00
00
00
00
00
00
00
00
00
00
00
00
00
00
00
00
00
00
00
00
00
00
00
00
00
00
00
00
00
00
00
00
00
00
00
00
00
00
00
00
00
00
00
00
00
00
00
00
00
00
00
00
00
00
00
00
00
00
00
00
00
00
00
00
00
00
00
00
7E
06
79
76
00
7F
00
0B
00
78
02
07
7A
7D
00
00
10
79
0B
06
01
00
7B
07
7C
7A
04
74
00
10
07
06
7A
0E
73
01
79
78
76
00
06
11
76
03
7F
07
02
78
7C
7F
70
6C
7D
08
05
02
08
10
06
7B
72
09
04
08
00
7E
7F
0B
10
13
7A
7A
01
77
7F
01
1B
00
00
76
14
0D
7E
09
00
7C
7F
02
0A
0A
7B
71
12
04
00
77
09
75
7F
7B
7C
74
06
79
6B
0A
75
03
16
7C
02
75
75
0B
7E
73
0B
77
7A
01
15
78
00
02
79
12
12
0B
7D
6A
00
04
07
00
72
08
04
7E
01
03
6D
00
74
00
7D
00
79
7C
0F
7E
74
0E
04
00
07
15
7F
00
0D
7D
7C
13
7B
05
7D
7C
0C
07
06
06
7D
02
75
04
7B
77
7D
70
00
06
06
78
19
74
00
7D
02
0E
0D
05
03
7B
02
77
01
77
7E
7D
01
02
09
7F
01
78
72
02
71
7E
05
70
05
7F
7C
16
07
02
08
7C
75
00
74
7A
7F
7E
76
06
02
7E
74
6E
09
0B
07
0C
01
7F
79
7D
7A
00
00
05
7D
0D
04
05
01
79
7B
7A
00
03
07
09
7A
7D
7D
77
77
00
02
7E
0A
7C
00
73
7E
08
71
7F
7C
79
0D
77
6E
76
7B
11
79
06
7B
07
02
0F
07
72
76
11
09
00
64
08
00
7D
02
79
02
03
7D
6B
7E
04
7E
7D
04
00
0C
02
06
00
70
75
7E
7B
68
0E
77
03
77
0B
03
02
76
0A
00
7D
0B
00
7D
75
6A
04
6E
06
00
00
78
7F
00
11
00
12
0A
03
78
01
7C
7A
0A
7D
06
72
09
0D
04
00
0A
79
7C
08
07
01
7B
7E
7D
02
09
06
6C
06
09
0C
00
00
0C
00
60
00
79
7E
01
7A
77
7D
00
00
0A
7C
05
0E
00
7C
01
73
76
08
0D
0E
0F
0A
77
7A
02
07
00
00
02
07
0A
04
0A
0D
01
00
0D
7D
09
04
06
0F
79
00
08
0B
06
76
00
00
0A
7C
0A
03
77
10
7D
04
7D
0F
7D
7F
00
02
7F
79
7B
04
78
0C
79
04
06
7B
7F
02
7D
03
07
00
05
0B
00
00
7D
04
7D
05
02
05
7F
06
00
7B
00
7D
79
0A
76
7F
01
03
05
00
00
06
01
00
00
03
7E
67
07
01
72
0E
79
77
06
03
0D
00
03
0C
7C
09
04
77
7F
77
1C
7A
09
7F
7F
6B
7D
7D
00
03
00
7D
00
00
75
0A
7D
12
00
7E
7C
03
7C
7E
03
00
7A
07
67
7D
01
7E
02
7F
00
00
04
0F
6F
04
79
7C
0C
00
02
0B
72
78
06
09
17
71
03
7B
7A
7F
7C
01
71
05
05
14
7D
06
54
74
0A
05
00
01
7C
01
05
06
01
0C
7F
05
05
0E
03
03
00
09
76
7E
7B
7E
00
7E
03
0D
04
7E
77
0F
00
7E
00
09
05
01
13
0C
7B
0D
7C
7E
08
78
00
15
7E
07
18
06
09
71
04
7E
7E
7B
7F
01
7C
7B
00
04
07
06
7B
02
05
05
05
13
71
00
7C
7B
03
07
74
14
04
00
00
72
74
00
7C
78
07
01
7F
0A
77
00
06
11
0B
00
0A
7B
00
10
03
7E
0F
0B
6B
78
7F
01
01
0D
08
07
00
6F
0B
7F
00
76
7A
7A
00
7C
69
7A
00
7D
74
0B
01
05
03
71
79
0E
76
04
7D
00
03
06
73
17
67
72
7C
03
04
00
7A
01
75
03
79
0A
00
07
07
03
71
75
02
7E
05
7E
75
76
74
03
73
04
06
01
7C
77
7E
04
79
08
03
17
00
00
77
02
05
0C
08
01
7A
04
68
07
0B
18
78
77
0A
75
0B
09
7F
7D
00
0C
07
78
05
02
70
04
7E
79
09
00
76
77
0B
76
7F
12
76
7C
7B
79
05
05
06
00
05
73
07
01
05
7F
12
79
02
02
14
01
17
04
01
00
00
77
7C
00
02
0F
79
07
74
69
7F
6A
6A
01
76
04
02
00
00
01
05
00
00
7B
7F
0C
7F
79
00
00
0D
7B
00
04
05
01
05
67
74
11
7F
7C
1E
7B
7A
06
10
03
01
01
7E
01
06
00
7E
02
0D
1A
70
09
0F
7D
7C
7D
5E
7E
00
00
02
00
79
00
05
7A
03
79
04
7F
00
00
7C
0A
76
03
00
01
03
75
02
7C
72
02
01
00
78
07
12
7A
0C
00
05
64
03
64
04
77
03
00
7B
01
11
7C
63
05
78
00
71
0C
03
78
00
00
0E
7D
74
09
7B
7D
7A
7C
7E
79
05
6E
00
0C
7C
7E
0A
00
08
72
02
7C
05
03
0C
04
04
7B
04
00
76
02
00
0C
0A
01
0D
7F
01
0A
05
02
7F
02
00
7E
03
02
02
7F
7D
03
11
00
00
66
7E
00
00
70
02
76
01
6B
6C
7C
04
76
07
09
7B
0B
7D
06
02
78
72
6F
00
02
7E
5C
7B
76
05
7D
02
02
00
0D
00
03
00
0E
79
7D
6D
7A
00
10
02
06
01
77
03
00
66
0D
00
09
02
0B
07
7E
78
7D
7F
10
0D
14
02
7D
7E
00
16
16
72
7C
6D
0F
00
0E
00
7A
7B
0D
0D
01
12
02
04
01
06
79
7F
7A
7B
12
00
04
09
01
77
73
7C
01
78
09
7C
1F
74
7A
00
79
04
00
7E
07
00
73
71
08
02
03
0A
10
74
00
00
05
77
7C
0B
0B
0E
74
76
7D
77
7D
7E
13
77
04
0B
78
79
05
00
7A
16
06
03
7D
7E
7E
00
7B
7A
7B
7A
01
16
7D
0E
74
02
00
7D
01
04
7A
7F
0F
03
00
00
77
08
00
10
65
7C
09
01
7D
0C
00
79
74
07
00
0A
75
7F
0E
78
02
01
08
60
7F
10
77
79
04
00
00
0F
07
07
05
00
09
03
0B
7F
6D
7F
7A
74
01
77
02
7A
07
1E
7D
78
77
1C
0E
6F
05
78
71
08
04
0B
0B
04
01
7C
01
7C
7E
61
00
7D
13
7E
7D
02
76
1D
7D
7E
09
7E
7F
79
12
10
05
00
00
05
7E
04
02
06
6F
13
06
02
12
7D
02
7A
7F
19
0F
0B
73
78
74
08
01
0E
7A
0B
00
05
76
09
05
79
01
00
01
7E
60
05
01
7B
04
76
0B
06
13
09
04
7C
7A
0E
13
7E
03
76
75
01
01
07
00
6F
0A
74
7E
0F
03
6A
76
06
05
7C
78
72
78
7E
00
01
00
06
00
00
7B
7C
07
09
7A
02
04
00
7C
08
09
04
6E
00
7A
70
00
7D
7F
7A
7D
77
65
00
00
06
0B
00
7F
0B
69
12
7D
7B
7D
00
68
09
7F
6F
7C
03
03
7E
71
06
7A
0C
75
7D
05
07
05
01
05
03
7E
7F
0A
00
03
00
00
02
00
03
00
7F
0B
75
0D
79
03
00
00
7D
07
08
7D
00
67
00
7C
7F
14
06
7C
02
7D
7A
00
08
00
00
00
06
13
16
00
00
00
07
00
7F
04
11
09
78
7F
7B
00
7A
06
04
7A
00
00
00
06
07
10
04
01
0B
7C
76
03
08
05
00
0E
0B
74
75
79
0C
7E
7C
7B
7C
02
02
02
7F
75
02
00
05
7D
00
07
6E
01
79
0C
06
0E
79
01
6E
05
00
01
7C
7F
04
76
04
05
0B
00
00
6A
06
00
00
09
0A
02
01
08
0B
7F
07
06
13
7A
70
05
01
7F
75
77
00
10
04
7D
7C
0A
00
01
09
04
74
03
00
7D
00
7A
00
0A
05
0B
7E
6D
00
7F
15
75
0D
75
0C
00
0A
03
7B
03
7E
7B
0E
7F
03
03
7F
10
7C
0C
6F
0A
03
00
03
0B
76
7C
7D
01
01
7C
03
7F
7F
7C
7E
08
00
02
7E
76
05
6F
09
0A
77
7D
00
78
77
7F
7B
7C
72
00
05
01
02
17
7A
04
00
7C
0B
07
04
00
00
78
76
75
06
03
77
7A
7D
79
00
00
03
6D
16
04
0B
7B
78
08
78
0E
6A
07
7A
03
10
77
7E
14
01
7A
0D
7F
02
7C
02
78
00
76
7C
06
7D
0A
12
7E
7D
7F
0E
00
06
7E
73
09
76
0C
72
00
00
79
01
00
78
66
7B
00
7B
00
08
00
04
0F
75
00
06
73
7F
10
03
02
78
71
7F
0A
17
06
7E
04
7F
0D
05
04
09
78
00
04
7D
75
04
76
05
75
02
06
0A
05
65
71
00
7B
78
72
05
0B
74
14
00
03
02
6D
0D
12
7E
00
7E
73
77
7E
78
7D
7F
02
04
79
77
7A
7D
12
7E
70
7A
01
73
79
0B
02
09
04
7B
7C
75
03
7A
7A
03
08
01
03
01
7A
6D
09
0D
03
00
73
01
7B
07
12
0C
11
0B
7C
6C
08
7C
07
7E
7B
00
7D
7F
77
02
04
7B
0A
02
07
23
03
06
03
06
75
0B
0F
7C
05
77
78
06
7C
7C
00
76
10
74
7E
0A
7E
75
06
08
02
00
00
6A
02
00
00
7E
6B
05
00
7D
05
7C
0F
7A
7B
00
7B
05
7D
7F
02
7A
7B
00
00
7F
00
05
0F
76
19
7A
74
00
00
01
03
00
7E
03
77
01
0A
7A
01
09
71
79
7A
74
72
0F
00
7F
77
00
7B
0A
7B
7F
15
0C
67
13
07
0D
7C
79
04
08
06
00
00
7D
00
0A
00
10
7A
75
09
70
6D
00
00
7D
0A
0C
7B
00
6F
08
73
04
19
7E
05
79
7B
79
01
7F
0E
70
00
05
7D
0C
7A
76
06
02
00
7C
7A
0F
00
0A
09
75
00
11
04
7D
7D
00
00
75
7F
0A
79
7E
7A
7E
01
00
7E
14
7C
00
11
04
7C
6D
79
1E
06
79
78
0E
00
08
01
7D
75
78
00
04
01
00
07
7E
04
00
08
7A
7D
7A
7A
7A
06
00
72
7D
71
7D
7E
02
0E
24
00
00
7D
79
00
00
7D
07
74
7F
74
7D
08
04
7F
0C
0F
00
0D
02
7F
01
77
0F
7E
08
77
04
0C
0C
74
0C
78
01
7C
00
7F
00
03
00
75
7B
7B
70
62
00
03
03
09
7C
04
77
00
03
04
01
02
04
01
08
03
7C
00
7B
0F
04
6F
05
7D
7B
00
04
1B
0A
7D
7E
00
7A
11
04
78
0A
6D
7D
03
07
76
79
71
7C
15
0E
7E
5E
7C
00
0A
74
06
7F
03
74
76
78
14
0D
16
00
7D
00
7F
0B
7C
06
73
00
7D
03
11
7E
77
0F
1D
7D
7E
00
05
7E
7A
07
02
7F
7E
00
7D
08
7E
12
7C
00
7A
74
01
0B
66
78
02
7D
05
0C
0A
7B
09
00
04
7A
74
74
7C
12
01
00
04
6A
00
08
7C
75
7D
76
08
06
00
08
78
7A
00
06
78
7D
0B
0C
21
77
00
67
0B
00
00
09
7F
03
76
09
7D
0D
73
72
7C
02
0A
7F
7A
0A
74
0A
05
76
09
00
7F
7F
7F
7C
03
7F
09
01
7C
03
7E
77
04
01
04
02
7C
75
70
76
7C
7E
79
05
27
02
7E
78
03
7D
05
7B
05
08
79
02
7B
75
7C
0D
03
7B
7E
08
7D
7F
7E
00
7B
02
7A
0A
77
06
78
05
7B
71
0B
07
7E
09
02
03
01
7A
7F
11
73
7B
06
00
74
03
77
78
00
00
0C
01
0F
0A
7A
7E
00
00
11
03
76
7E
01
06
04
7B
06
7A
71
00
76
00
09
6B
66
0B
7E
01
79
00
72
05
00
20
01
73
7A
6E
7F
04
7D
02
7F
10
78
76
03
7B
00
7A
0B
7B
00
7C
7C
7D
77
1A
7F
00
76
0D
00
03
09
0D
7C
00
08
7D
00
06
01
01
75
05
02
00
00
7E
07
00
0C
08
7E
72
6C
7D
01
7E
73
12
0A
7F
18
7A
77
7F
7D
05
09
7F
78
6F
77
78
15
6D
03
7A
00
07
7F
79
71
00
00
7D
00
09
00
74
77
06
01
00
01
00
00
02
76
01
00
00
73
07
06
06
03
75
04
7C
01
7C
05
7B
7F
01
00
7C
74
78
00
00
05
12
00
78
7E
0E
02
76
04
07
00
75
70
78
7A
00
00
11
7E
06
1C
01
7C
0C
7E
7C
7D
69
08
00
79
7D
05
02
7D
70
7A
11
01
7C
04
7D
7F
02
7E
7E
00
7F
00
00
7B
04
77
7A
75
07
06
79
71
71
7F
00
0B
74
05
7F
7A
06
02
01
00
00
0D
75
00
00
7C
73
02
7D
7E
6E
7E
03
13
07
79
7C
15
07
04
03
7C
06
05
7D
7E
74
75
6E
07
6D
0F
12
78
00
7F
00
01
00
73
0E
17
07
68
00
0D
6C
78
03
09
06
00
72
06
7D
15
0A
0E
78
06
08
7F
7A
12
7E
0E
7B
0E
0C
00
76
6B
79
06
08
7D
77
6F
01
16
04
08
0B
07
7A
78
77
6F
78
05
14
6D
73
03
00
7B
0C
71
00
09
7D
02
0F
74
75
07
05
05
00
0A
73
7A
06
00
00
7B
09
0C
03
08
7C
0C
06
07
00
10
06
01
53
06
04
07
02
06
08
01
71
06
09
10
7C
08
10
78
0D
08
02
09
7A
0B
09
07
00
05
7E
03
03
7D
0E
08
6F
7A
02
00
02
0E
7F
0C
77
0A
09
00
03
12
10
00
14
7C
0C
7D
7C
19
05
00
02
09
01
00
01
0A
05
10
06
01
7F
7A
03
07
05
02
04
08
09
0B
07
02
0E
7F
00
7D
04
0E
04
07
15
04
04
03
73
0E
0A
0A
02
11
7F
05
07
79
7A
0C
04
06
7E
17
0C
6B
06
02
01
06
7F
7A
0A
07
09
6E
01
06
0B
06
0E
13
0C
7E
00
05
06
7C
08
78
75
0F
06
0E
6D
0E
01
0E
0D
07
7E
04
06
05
03
06
0B
7C
12
00
79
72
25
00
0C
05
0A
7B
09
0B
05
04
7F
04
00
09
0A
00
0B
7B
07
06
02
7C
73
7B
07
07
07
7B
0A
7A
7E
01
09
0C
6F
7E
79
00
0C
75
01
07
12
0E
7A
06
06
00
05
00
73
07
03
00
7E
00
01
00
04
01
09
14
63
7A
0B
7D
75
0D
74
11
06
05
00
7A
76
00
05
02
06
0B
07
0B
00
00
08
07
00
02
07
07
7D
04
10
0F
10
7F
01
04
05
04
0B
05
11
03
7C
0A
06
02
01
12
03
11
09
07
07
09
0B
7B
0D
01
00
00
7B
00
5A
00
0D
08
0B
0D
09
05
00
00
7D
71
08
09
00
04
08
03
03
0C
7F
01
00
03
00
01
02
01
02
00
10
24
14
11
78
7E
7B
00
01
7D
7A
10
04
01
02
00
02
02
03
08
00
00
12
7D
0E
01
09
06
08
0C
03
7C
11
60
00
00
00
09
02
0A
6F
03
07
06
09
0C
0A
7C
7E
01
0A
00
72
0B
00
7F
02
01
7A
0A
7E
12
06
73
0F
04
00
79
08
0A
06
08
7D
08
0B
00
00
15
78
00
00
7A
7D
09
7B
0B
7A
07
09
76
73
7E
0A
0D
0A
79
05
05
71
0D
73
7E
72
0C
7A
04
78
7C
79
7E
00
08
00
7D
00
7D
00
00
72
7A
00
05
7B
14
7C
01
03
00
79
7E
02
7D
75
7A
78
01
01
7D
7F
09
0B
01
0E
79
7D
00
04
16
07
7D
7B
0A
06
7F
0C
05
06
6A
7B
03
07
79
78
03
0B
02
6C
7A
02
01
00
09
7B
73
02
04
02
7D
7B
70
14
7D
7B
0A
00
00
78
7F
0A
03
00
76
03
0E
7D
00
0B
14
7C
05
00
04
01
7A
03
01
79
7B
00
01
0A
05
0B
14
0A
76
78
7D
0A
00
7E
7D
11
0D
09
7D
79
7C
00
1F
7B
78
02
00
07
7B
7E
7A
01
00
79
7B
07
78
7A
09
0B
00
04
7D
7D
00
0B
7A
74
7D
04
22
0F
00
73
10
7C
00
08
7F
06
07
02
03
03
09
76
7A
7F
20
79
01
0C
77
7E
05
75
02
00
01
78
00
7E
7E
18
1A
7B
03
79
77
7D
79
06
75
7F
01
05
7F
76
02
75
75
02
17
7B
7F
7C
7C
78
00
01
79
7E
7D
7E
15
02
7E
0A
11
06
6B
0C
05
7C
03
76
0A
7F
02
76
7E
7A
73
05
07
05
02
06
02
01
7D
78
00
09
00
11
02
7A
7B
03
7F
72
0B
7D
79
6E
7B
08
00
21
79
02
03
00
0B
02
01
7F
01
0E
7E
79
02
7E
04
11
7D
05
7F
7C
7C
13
0A
05
74
06
01
05
00
03
78
78
7B
7B
10
7F
03
06
00
0B
7E
7E
05
78
00
78
7F
06
00
00
06
7E
01
7D
04
0D
10
72
02
0D
09
02
7F
00
7B
7D
00
7B
0E
07
7C
7A
77
00
00
7F
05
00
04
02
76
04
75
05
7B
03
78
02
7D
7B
08
03
7D
75
7D
07
7D
7C
02
7B
7B
05
19
07
0B
7C
7E
7F
7D
02
74
00
00
7C
00
79
00
0E
04
08
7D
09
74
00
00
7B
7B
0B
06
00
04
05
09
03
76
05
08
7C
7E
7E
01
11
0D
0B
00
78
7B
1A
78
0C
0B
0C
00
78
0A
78
0C
0A
7E
07
00
7F
72
09
7E
00
00
02
09
0B
0C
02
7A
08
7F
7F
7F
04
72
00
0D
04
05
07
7F
01
10
02
7F
7C
7B
79
01
05
7A
7F
00
7A
7E
00
03
7F
7B
02
09
08
03
7F
7B
03
7F
00
02
01
07
7F
7F
04
00
01
00
00
14
02
00
00
03
03
06
76
76
79
7D
01
04
10
04
05
09
7B
7A
01
0B
18
10
74
7C
7B
7B
7C
05
12
7B
74
13
00
04
00
08
00
67
00
09
0D
04
00
07
05
77
7F
01
7F
00
13
01
09
14
7E
04
0B
0D
7D
7E
0B
7E
08
15
6C
7C
01
00
09
09
0B
7F
7B
02
01
11
7E
7D
0A
7A
0A
7E
08
09
05
14
00
0F
06
08
18
0C
00
0C
7C
02
7E
7F
06
00
7F
06
0F
01
0C
07
00
07
04
0B
07
03
00
73
76
11
00
07
7D
03
12
03
00
7D
00
7E
1B
06
14
6B
7E
05
6F
09
74
0E
10
75
0D
08
76
01
77
09
17
7A
05
04
7E
06
00
00
7A
72
7A
67
03
75
7F
08
78
00
78
09
7C
04
7E
0C
0B
00
02
08
06
00
0B
0D
78
07
13
05
7E
00
78
6A
00
00
09
76
01
11
0B
08
7D
75
7D
07
0B
0C
03
07
76
7D
7B
0C
7C
02
00
7A
0D
19
0C
10
1B
73
7C
0D
79
7B
78
6F
07
06
79
71
07
18
09
0C
02
7D
04
0C
0D
0E
69
77
02
07
05
05
0B
02
0C
01
10
71
06
04
08
0E
79
72
7A
0D
79
0C
70
7D
0F
0A
08
71
03
02
1A
0C
06
73
7B
05
09
7D
79
0E
17
11
02
03
09
7E
0F
05
02
7D
0E
7F
7F
0F
09
77
0B
01
00
16
0A
17
0F
7E
7C
07
74
16
1B
5E
01
7F
08
7B
72
09
03
12
7C
0F
79
7C
7C
00
74
0B
77
07
05
02
07
7D
7F
00
02
7E
05
06
7C
00
01
04
01
00
0D
0E
7D
14
08
06
0B
27
78
73
7F
03
0A
03
00
75
13
00
05
62
76
0B
6F
78
00
00
09
0E
00
01
0D
72
7E
7F
08
68
0E
09
14
7C
74
00
14
10
7B
77
07
09
6E
07
0C
0A
73
02
75
07
7D
7E
77
7E
6A
71
00
00
01
00
02
00
77
03
7E
0D
08
73
00
00
7D
7D
02
09
00
16
08
02
03
12
0B
09
04
09
02
78
06
19
7B
00
04
09
7D
0A
07
00
07
00
75
07
0C
21
07
06
7F
00
06
79
78
7D
00
00
0A
03
17
02
7D
02
0A
08
07
08
12
13
00
0F
09
03
6B
7E
19
7B
05
0D
0A
0B
6E
7B
7D
05
7C
00
7F
05
00
08
0E
79
0C
01
03
0B
7C
7D
09
79
00
6A
76
03
0B
79
04
0B
0C
00
00
09
7C
00
00
06
06
7D
7B
11
78
08
7C
7F
09
13
0A
04
7F
7F
03
14
7F
0B
7E
7D
02
02
7D
7C
02
74
07
79
00
13
00
75
00
07
7E
7E
02
7B
00
05
7D
7C
75
01
0A
00
01
7A
04
7B
01
03
02
7E
7C
07
0B
70
7E
7F
03
78
02
00
04
76
72
01
0B
16
08
0A
04
77
7F
09
02
08
7A
0E
05
0F
06
0F
65
06
13
1D
00
07
7F
01
7E
06
7E
05
01
10
0A
76
7A
08
00
7F
05
7D
7A
01
00
0A
01
05
04
11
03
6B
02
7C
00
09
04
03
0B
09
00
7F
03
7B
7C
7A
07
0F
04
7F
0B
01
78
07
7A
02
79
05
73
7E
7D
05
00
09
04
02
75
7C
65
75
7F
0E
7C
00
7B
05
12
02
01
75
14
00
08
7D
04
00
00
06
7C
76
01
01
7C
00
05
7A
03
00
7F
00
03
11
04
03
07
0D
7B
00
73
06
04
00
05
7B
7C
7C
02
7F
00
76
7D
7E
01
7C
7C
75
01
00
79
79
02
7E
0C
7F
0A
02
09
0D
08
7D
08
7F
01
05
7B
03
08
7F
09
7D
02
09
7C
7E
7E
6E
7D
7F
03
0B
03
03
71
0D
03
04
06
7E
7A
03
72
00
02
7F
7D
07
09
1C
7D
04
03
14
04
7C
06
04
0A
0D
7E
05
7C
08
6E
7F
01
05
04
04
03
7C
1E
78
0D
7D
00
01
0A
75
00
77
01
00
79
05
0A
16
01
76
03
7F
07
0A
04
77
06
03
06
0E
78
00
72
06
77
06
05
7F
0F
00
7F
7E
09
00
14
04
03
00
07
12
7B
00
7B
07
77
05
04
03
05
72
79
72
74
74
0C
02
00
01
0E
00
06
05
77
02
78
03
00
00
0C
03
00
7D
05
7A
7A
7C
09
05
16
00
73
06
7D
7E
10
11
01
05
7F
03
78
7D
00
07
08
04
05
07
03
7E
79
79
6A
7C
00
00
01
00
12
00
5A
7F
7B
02
07
02
00
00
79
0B
01
09
00
04
03
78
01
02
02
03
09
01
01
02
00
7C
09
00
0B
74
79
6E
09
76
02
00
05
05
72
14
79
01
03
00
01
02
01
11
00
00
08
03
03
7D
7A
01
7E
00
7D
7F
7D
76
00
00
79
7F
03
04
01
02
7D
7B
07
02
05
08
08
7F
01
00
06
0A
00
0C
00
05
04
03
01
16
7F
0C
03
09
00
7B
7C
03
78
03
7F
08
01
00
00
7E
7B
00
00
7A
01
79
7E
04
05
7C
7A
75
7C
7D
05
70
7C
07
08
7F
0D
12
7D
07
0F
7A
05
05
78
79
7A
7A
00
7B
00
7C
00
7D
02
77
79
0D
00
0B
73
10
7B
75
04
00
74
04
79
71
7E
79
03
76
7E
76
00
7D
79
0A
06
7F
70
00
00
05
78
78
07
01
07
6F
7B
08
06
0D
05
7C
71
79
7B
01
78
77
7D
76
09
75
00
03
78
7F
7A
05
7C
03
7E
00
06
6E
7D
7A
00
7E
76
7D
6C
03
00
7C
09
66
78
02
72
0A
77
77
00
77
01
08
79
7E
69
12
0A
05
12
7E
7F
25
76
08
08
7B
0C
04
07
7C
72
09
06
76
04
7D
00
7A
00
06
79
7D
05
03
7F
08
7E
00
00
79
01
04
74
7A
06
00
02
04
04
00
03
0F
07
7F
7C
01
09
00
04
7E
00
00
05
05
00
00
03
02
7C
0B
78
7A
5D
7D
02
0B
7F
04
06
7F
02
01
00
70
7F
7E
06
03
72
01
7C
78
02
02
0B
01
73
7E
7E
07
03
15
09
7F
7B
06
01
10
64
68
7F
7D
7A
00
7B
72
7A
0E
7D
06
05
01
06
0C
10
01
19
78
01
7B
7E
7C
0A
06
7A
7C
00
09
0C
04
19
77
08
78
7F
08
79
7E
02
78
04
00
78
00
03
01
72
15
0C
19
74
77
7E
75
17
12
7F
7D
00
0B
77
09
00
78
79
7B
03
7B
7A
18
7C
7B
09
7C
0F
0B
78
01
7D
0B
7F
7C
01
00
0F
7D
16
7C
03
00
06
7E
7B
79
01
00
0B
7B
7E
00
01
7E
7D
00
09
06
03
07
78
0B
03
09
03
06
7F
7F
0C
78
00
7A
7F
00
7D
0F
04
05
00
7F
00
00
04
7C
00
73
06
74
0A
07
7F
7A
7E
0A
12
7A
7C
01
0B
03
7D
7E
75
7C
0B
7F
7C
7A
08
09
77
01
7F
06
0C
74
79
01
00
00
7E
00
0E
00
10
74
77
03
7F
7C
00
00
00
00
06
77
00
03
77
02
03
73
0B
7B
03
7E
02
7F
07
01
0A
00
7C
0D
04
18
7D
7A
09
00
7C
7C
6A
78
07
7F
78
00
02
15
7E
08
00
00
6A
06
79
09
05
00
7C
79
03
7A
06
04
00
7B
78
02
02
77
73
72
7D
76
7C
7B
01
78
78
01
02
00
6A
6C
00
01
7E
7A
07
11
72
03
03
7E
09
7A
00
03
15
7B
02
7D
75
7C
02
00
00
79
7D
00
00
70
0C
7B
02
08
24
6F
04
0B
5D
00
76
01
77
7D
75
05
7E
7D
77
7D
7D
7B
7C
75
6C
06
0A
77
00
7D
00
01
00
0A
7D
66
05
0A
00
72
5C
7B
07
01
7E
00
6A
11
0A
05
06
08
77
04
01
08
09
08
0D
7F
02
6F
00
00
0A
60
01
01
06
00
11
79
01
0A
09
05
10
79
00
76
07
7A
07
06
7E
77
06
7F
00
05
77
6D
05
7F
03
02
72
7A
0A
04
08
07
00
7A
74
0D
03
05
00
7E
05
02
09
73
08
04
03
0A
00
70
04
01
64
77
7F
7C
00
7C
07
0A
01
7A
0E
74
71
03
7C
07
6E
04
7A
72
00
02
02
05
00
06
0D
07
0C
08
06
06
0D
0B
0B
00
72
0F
03
70
07
04
03
00
76
05
7F
00
07
76
02
71
03
0F
0C
00
0B
7F
05
00
0D
06
73
78
0A
7D
06
07
75
0A
01
7D
0C
0F
7D
72
79
01
74
07
00
0B
08
78
08
05
02
03
7C
06
00
03
0B
09
01
01
07
0A
05
79
08
75
79
04
7E
0F
16
60
06
02
7D
01
04
7E
04
07
0F
7B
0A
0C
7C
7A
71
07
06
07
03
71
08
7C
7C
74
74
6E
7F
73
75
7E
01
06
7E
76
0C
7B
76
02
7D
74
7C
6F
07
03
09
0A
00
07
79
03
08
7E
05
77
07
0B
77
04
00
01
70
05
75
06
7F
77
0A
79
74
7F
75
08
78
09
03
0C
04
75
0E
00
11
05
0B
00
07
6D
0B
0B
17
67
09
7E
70
03
78
06
01
05
0C
00
03
06
74
00
01
76
02
7C
6D
0B
7E
7D
07
08
7E
06
0A
02
00
7C
19
00
7A
00
08
14
09
0E
00
00
76
04
00
05
06
11
7E
07
08
0D
07
08
16
7E
7F
0E
0D
09
04
7E
07
04
0A
7D
7D
77
7D
07
00
7E
76
04
0F
07
79
01
00
00
04
00
63
00
00
0E
0C
71
02
03
00
00
77
09
7C
03
00
79
08
10
76
79
08
05
02
08
05
73
02
03
7E
00
77
08
04
07
09
14
7B
00
7A
7B
77
0C
79
13
07
00
78
05
08
04
00
00
06
01
09
0A
08
00
7A
0B
0E
76
07
6F
00
7D
78
03
7D
05
01
04
0C
08
70
75
77
05
09
09
03
00
78
0D
00
00
7F
01
7C
01
08
06
7A
09
7E
7C
00
03
7B
03
12
7E
08
07
7D
00
00
18
0F
00
00
79
7D
03
0B
05
6E
77
76
7D
09
08
77
7F
07
01
75
06
5F
7D
7F
07
0B
08
69
09
07
08
0D
7E
00
7D
00
01
00
78
02
09
76
74
00
08
08
05
75
02
09
00
6D
0A
00
04
74
12
69
7F
7F
7E
02
6A
07
06
6E
07
7D
00
7A
01
77
7F
7F
11
01
72
01
0C
0A
76
07
02
05
05
01
71
00
03
7A
09
03
0F
00
02
75
78
01
7E
00
0D
7A
04
00
77
09
7E
00
7B
73
0F
06
0B
00
75
76
0D
7F
03
12
0A
7D
06
00
7E
73
79
6F
07
71
7E
03
08
7B
03
72
0F
08
01
18
7B
75
6F
04
7F
76
7F
00
79
7E
7D
00
79
7E
7A
02
04
74
76
7F
14
79
00
76
7E
03
04
77
72
03
00
02
00
0F
00
0D
01
79
01
01
7C
0C
00
77
00
05
00
05
7D
7C
76
04
79
79
01
7A
76
6B
07
01
09
05
7E
0B
7A
7E
7A
00
7E
09
02
10
03
0D
74
78
04
7A
07
7B
06
79
7D
79
78
03
0A
00
04
7D
73
7E
0C
71
7B
7C
7C
7F
0E
04
6A
75
0A
0F
7D
09
75
00
07
7B
69
79
75
03
04
7E
03
7C
79
06
0C
7D
79
77
7A
7A
7C
02
0C
06
74
02
7D
71
7F
76
06
09
7C
05
70
08
0A
0F
09
02
79
0B
74
0D
04
7C
09
00
09
04
08
07
7D
7E
7A
70
7F
04
09
0B
00
06
06
7F
01
7D
0C
7B
01
06
79
02
00
6E
71
7A
7E
04
01
77
7A
01
7A
04
7A
71
79
7A
00
08
7D
7E
00
03
01
7E
0A
79
79
11
7B
73
73
0B
77
77
7E
00
6F
73
00
7B
7F
7A
0D
74
75
00
00
03
01
00
0E
7C
79
7B
07
08
0B
7D
78
16
0D
7A
06
12
07
7B
76
07
7D
7F
76
04
06
05
78
78
01
10
01
00
7C
7D
76
00
00
03
00
7F
00
76
04
7C
0E
7E
09
00
00
76
6D
01
00
00
7A
75
00
0F
76
0C
14
02
03
7A
7A
0B
0A
7B
00
01
00
7F
76
05
0C
7E
00
7D
73
75
0A
09
7D
00
00
7D
76
7D
7D
00
00
15
01
7B
7C
0D
03
0A
75
03
07
10
02
00
00
0D
06
75
73
71
7C
0C
04
7E
08
01
7E
7E
7D
77
00
72
04
00
00
7B
78
7C
7C
03
77
01
79
0B
01
00
7E
73
00
0B
77
00
7B
7E
00
00
78
02
00
00
7F
7B
7C
0C
7D
0A
04
01
79
71
0D
7A
74
08
02
6F
06
0A
02
74
7F
04
78
01
04
7D
7F
76
0A
00
00
00
07
00
76
06
7E
08
75
00
02
09
6A
02
7F
7A
00
00
6F
0A
79
01
78
0A
09
0C
00
7F
06
6D
06
7A
02
7D
00
03
7F
08
0D
00
03
78
03
01
06
77
07
01
7C
00
02
06
78
02
04
05
7D
70
05
00
7D
03
78
03
05
04
7D
02
70
75
04
05
7B
00
01
06
06
7C
00
00
04
04
6E
00
01
68
72
0F
7F
00
03
03
04
61
02
7D
7A
09
7A
77
04
08
72
04
03
75
02
75
67
07
01
7F
75
75
7F
01
7B
00
7C
7D
00
73
76
76
7E
6F
79
7E
00
07
09
03
7D
05
00
77
00
72
10
06
00
79
0A
01
01
78
7B
6C
00
7F
7D
7B
00
00
03
05
06
7A
05
0B
7F
7E
03
04
7B
7F
09
73
04
76
00
05
7E
00
76
06
70
0D
7A
74
01
05
02
01
78
05
02
7A
7D
7F
74
03
01
0A
05
06
7E
7D
0A
0A
7B
02
74
06
04
07
06
0B
08
00
09
7D
03
02
78
6E
00
7F
76
7F
0A
06
06
69
68
0A
09
05
07
03
02
04
08
08
77
7B
05
05
0C
70
7C
7A
77
78
7D
00
7E
04
7F
74
76
07
02
78
7D
09
01
0B
7E
00
08
08
11
04
0B
7E
7A
0D
7E
03
7D
69
08
73
06
0C
78
69
06
03
00
6F
76
0A
00
79
79
0E
00
78
7F
69
04
7A
7B
00
04
78
7D
02
00
03
08
02
00
03
75
09
7B
74
0E
04
12
70
01
7A
0F
03
0B
00
00
06
00
7C
76
7B
00
01
0C
00
00
7A
6C
00
7F
05
01
03
75
7E
00
0D
0A
07
02
0B
7E
7D
05
03
7E
06
00
77
04
0C
05
00
05
71
7F
7F
06
7F
74
7B
09
00
00
00
00
6F
00
7E
74
06
0B
74
04
00
00
09
7B
03
0E
00
03
00
77
7E
09
09
00
0A
79
00
01
71
05
77
00
05
7D
7B
09
0A
77
04
00
08
01
7E
7F
74
7C
7C
00
72
7A
04
0D
00
00
03
01
70
75
6F
0C
7F
05
01
09
77
0A
00
7A
7A
7A
7F
06
76
6F
74
0A
06
7B
02
7E
78
01
09
00
7B
04
00
7D
78
0A
73
76
79
14
01
7D
05
00
00
74
7B
76
05
05
79
02
08
00
00
77
7C
00
00
7B
78
00
7D
06
74
02
02
73
7D
04
0C
7A
78
7F
03
0C
73
76
7E
01
04
76
0B
76

