0E
17
05
02
00
00
00
7E
00
0D
01
7F
06
00
00
74
7A
6E
08
07
00
00
03
7B
16
01
08
0A
08
02
02
04
7A
7E
05
79
00
03
0D
00
7C
70
70
7C
73
7B
7A
03
7B
01
76
7D
7B
09
04
7E
7F
08
7B
74
0B
04
03
7F
00
7F
79
05
7B
79
7E
77
09
7C
78
05
0C
7F
00
7F
0B
05
0C
7F
00
77
00
08
09
02
07
7F
04
0A
00
79
0B
03
7D
7F
00
02
01
01
75
09
79
13
0C
05
70
7F
02
1A
02
7B
00
7C
66
7D
0C
79
00
00
01
11
1A
0C
08
7F
01
76
13
00
7B
78
04
04
77
04
07
00
76
74
14
00
08
7E
05
05
08
6E
7D
00
0D
07
71
00
07
06
7B
79
09
7E
7D
79
1C
03
04
01
05
71
7B
02
76
1A
03
75
00
7F
7E
7F
0C
06
7C
7A
05
06
06
06
02
04
7B
00
7A
09
03
01
07
0A
7D
11
01
68
00
7F
6D
0B
02
00
03
00
08
05
0C
6C
0D
7E
7C
07
72
10
07
7D
7E
7D
7F
7F
12
74
0F
01
7B
7F
0D
7B
7D
08
0B
01
05
79
7E
7E
02
05
74
01
0B
7A
08
73
7D
73
7A
78
04
76
7F
0B
06
03
01
07
00
76
7F
7F
78
77
75
01
03
07
08
00
06
02
00
03
04
7B
00
04
0A
7C
79
7C
7A
00
75
0A
0E
04
03
73
7C
7F
7C
7A
04
05
07
7C
07
00
05
79
00
00
75
7D
7C
00
7B
14
07
14
02
0A
03
79
7E
01
00
00
03
00
02
06
7F
78
77
04
00
00
6F
7F
00
10
79
07
78
06
00
7B
76
07
65
01
7C
76
75
0E
06
01
02
7E
01
07
7E
08
10
79
17
08
02
01
04
7E
12
03
00
00
03
00
7C
00
1C
7D
01
03
7F
00
00
00
02
02
00
02
00
0B
7F
03
7C
05
0C
05
06
7E
04
7B
79
08
0B
00
7E
6F
0E
11
7D
10
76
00
7C
02
78
01
1D
16
79
00
10
76
7C
7C
00
00
0D
00
79
0E
02
7E
7D
03
06
7B
6E
09
00
03
7C
06
05
79
02
0C
78
00
02
7F
04
01
7D
04
7E
00
01
02
00
02
05
00
02
00
7E
7B
06
05
0E
7F
00
76
03
01
01
79
06
7D
7D
00
00
7F
7F
00
00
7D
7C
78
7C
0D
6C
05
00
00
79
77
06
01
02
7F
78
03
78
77
05
7A
06
0D
04
7F
0D
78
01
7D
00
0F
00
7B
00
7F
01
00
09
11
00
7D
08
66
04
7A
7B
00
00
72
01
7B
01
01
6D
78
09
7C
08
70
05
0C
70
01
01
00
10
02
12
79
7D
07
7D
73
06
7C
06
02
79
7A
00
78
01
04
03
7F
79
06
0A
08
00
04
0A
00
04
7F
00
76
7F
02
0B
00
75
05
00
00
77
78
00
7D
00
05
05
72
7C
01
76
02
7C
7B
00
7A
7D
0D
0E
05
0C
06
04
06
02
7F
7E
05
76
7B
7B
09
02
07
03
06
00
77
70
7F
7A
00
00
77
0F
7D
7F
7F
6D
07
05
74
7E
00
04
01
76
7A
05
79
7C
00
0F
0B
78
00
01
06
7D
78
13
73
7E
00
09
07
76
00
7E
02
03
7D
15
71
04
03
00
7F
7D
7E
01
77
7C
04
6E
70
02
0C
00
06
78
0F
7A
0D
13
73
04
04
07
03
7C
78
6F
16
7C
09
14
17
10
7D
7B
0D
05
6A
73
71
77
0A
7D
6D
7A
77
7A
7C
7D
6E
00
08
7B
01
02
0A
74
6E
7F
75
7E
01
73
10
7D
75
7E
78
78
0F
0D
7D
79
7E
07
77
78
01
7A
76
00
0B
00
7F
01
07
14
71
04
0A
70
7D
78
76
6A
79
07
74
00
01
7D
0B
02
02
7C
08
03
68
0B
62
7C
05
12
79
09
03
78
74
08
0F
05
0D
00
00
0C
7A
06
03
0E
04
0C
0B
7D
11
05
07
7D
07
06
00
7C
78
03
00
06
14
02
01
07
76
0B
71
7C
7C
7E
7A
0F
00
00
01
7E
00
0B
71
05
77
0B
01
00
00
79
0F
00
79
0B
0B
02
72
06
01
7B
14
6A
79
00
08
73
7C
77
7E
05
7F
79
0D
7D
09
7D
6C
70
7D
06
00
0D
06
73
06
00
00
7E
00
7F
00
72
09
7A
08
09
04
00
00
7A
05
02
7D
00
05
03
05
01
7F
02
77
7E
79
06
75
7A
00
7D
00
77
1B
6D
04
00
73
78
00
7F
0C
7C
12
74
04
06
00
77
77
7D
7D
00
00
79
7E
07
7E
03
7B
03
7F
7F
01
00
73
00
06
02
00
7A
09
12
77
04
75
79
06
7F
7D
0E
02
7D
00
11
00
00
01
06
08
15
7F
78
04
03
7F
05
05
00
71
7F
76
7B
06
7B
7B
7D
00
00
01
7E
00
00
0C
04
09
77
02
6B
00
08
74
05
75
75
02
7A
79
05
03
0B
01
7B
03
79
07
04
01
00
00
00
00
00
00
00
00
00
00
00
00
00
00
00
00
00
00
00
00
00
00
00
00
00
00
00
00
00
00
00
00
00
00
00
00
00
00
00
00
00
00
00
00
00
00
00
00
00
00
00
00
00
00
00
00
00
00
00
00
00
00
00
00
00
00
00
00
00
00
00
00
00
00
00
00
00
00
00
00
00
00
00
00
00
00
00
00
00
00
00
00
00
00
00
00
00
00
00
00
00
00
00
00
00
00
00
00
00
00
00
00
00
00
00
00
00
00
00
00
00
00
00
00
00
00
00
00
00
00
00
00
00
00
00
00
00
00
00
00
00
00
00
00
00
00
00
00
00
00
00
00
00
00
00
00
00
00
00
00
00
00
00
00
00
00
00
00
00
00
00
00
00
00
00
00
00
00
00
00
00
00
00
00
00
00
00
00
00
00
00
00
00
00
00
00
00
00
00
00
00
00
00
00
00
00
00
00
00
00
00
00
00
00
00
00
00
00
00
00
00
00
00
00
00
00
00
00
00
00
00
00
00
00
00
00
00
00
00
00
00
00
00
00
00
00
00
00
00
00
00
00
00
00
00
00
00
00
00
00
00
00
00
00
00
00
00
00
00
00
00
00
00
00
00
00
00
00
00
00
00
00
00
00
00
00
00
00
00
00
00
00
00
00
00
00
00
00
00
00
00
00
00
00
00
00
00
00
00
00
00
00
00
00
00
00
00
00
00
00
00
00
00
00
00
00
00
00
00
00
00
00
00
00
00
00
00
00
00
00
00
00
00
00
00
00
00
00
00
00
00
00
00
00
00
00
00
00
00
00
00
00
00
00
00
00
00
00
00
00
00
00
00
00
00
00
00
00
00
00
00
00
00
00
00
00
00
00
00
00
00
00
00
00
00
00
00
00
00
00
00
00
00
00
00
00
00
00
00
00
00
00
00
00
00
00
00
00
00
00
00
00
00
00
00
00
00
00
00
00
00
00
00
00
00
00
00
00
00
00
00
00
00
00
00
00
00
00
00
00
00
00
00
00
00
00
00
00
00
00
00
00
00
00
00
00
00
00
00
00
00
00
00
00
00
00
00
00
00
00
00
00
00
00
00
00
00
00
00
00
00
00
00
00
00
00
00
00
00
00
00
00
00
00
00
00
00
00
00
00
00
00
7B
70
7E
7A
00
19
00
7E
00
7E
01
7B
7A
0B
00
73
7A
6C
79
7F
0D
00
7F
71
05
06
09
09
0E
02
05
0A
06
7B
7E
0A
76
05
0F
00
78
78
08
7D
01
13
7F
7D
06
7E
76
64
0A
07
79
06
0B
05
0E
08
71
07
7C
10
00
05
01
03
06
7E
7A
08
00
78
7B
03
7F
01
00
00
76
08
7D
02
00
01
02
08
0D
06
03
7D
05
07
00
0E
06
07
6B
15
78
02
7F
7C
79
77
7A
05
75
7E
01
79
70
02
7B
7F
74
7B
68
03
7E
7B
00
06
02
02
00
0B
5C
79
77
78
0A
00
78
0B
08
7A
7D
0C
7F
00
00
7D
78
00
7F
00
74
7B
7C
72
74
00
09
07
02
00
7B
02
06
78
7E
7C
0A
10
6D
05
11
7E
77
7B
04
7F
7F
04
06
7A
00
03
7E
72
79
71
7C
7A
03
07
78
7D
01
08
10
11
79
74
07
01
01
05
09
02
7B
71
06
09
6F
02
05
03
08
02
01
75
00
75
7F
70
00
02
7C
6B
6F
7A
7D
76
05
74
7B
09
70
7D
01
7D
72
77
76
11
77
12
09
01
7D
7A
7E
0C
6B
02
7C
6D
00
06
03
06
76
03
04
00
7F
72
00
7A
0B
06
00
7E
11
7A
7B
7C
7B
7B
78
0D
0E
01
03
7F
00
04
74
7C
7B
7B
7D
6B
07
10
05
00
77
08
7E
78
7A
08
05
03
0E
06
07
03
78
02
07
00
01
70
02
00
73
04
02
74
6A
0A
7A
6E
63
77
05
7E
03
11
00
04
02
00
77
02
78
79
7C
76
00
00
07
73
00
0B
04
08
6C
67
03
03
7C
0F
76
06
04
09
72
7D
03
7D
06
00
7C
7F
05
05
0E
7A
7B
01
0A
7A
7D
08
70
00
00
00
02
00
62
00
64
01
11
0C
77
10
00
00
77
07
6A
00
00
74
0E
04
03
0C
7C
11
03
08
76
7E
01
7B
7D
00
79
7A
78
6C
0B
03
79
00
02
06
7B
00
02
01
74
00
0F
77
08
75
00
00
02
02
7D
7A
7C
7D
02
00
74
0B
76
74
00
7F
7F
79
05
0B
7D
7E
02
00
04
77
10
0D
05
76
7C
00
78
07
00
0B
7E
0D
04
01
0A
03
0A
0C
02
05
00
76
79
0A
74
03
08
78
04
00
00
6C
76
00
00
77
79
79
08
7D
6E
7C
08
76
0C
7D
0B
7D
02
0B
02
00
73
5E
03
7E
00
76
05
07
06
05
6F
0B
00
7E
00
05
00
0B
73
0D
0B
18
00
74
08
07
03
78
07
00
12
0B
07
74
7F
71
02
07
7A
02
7D
04
05
0D
12
02
79
00
02
6C
70
02
7C
78
11
72
69
02
75
10
0F
7E
7E
7D
12
24
7C
06
04
0A
7B
08
00
0B
08
18
7E
73
13
04
7B
7F
68
0E
08
7F
00
7E
14
05
6A
77
00
01
7B
6C
7A
75
04
03
0F
74
00
01
0B
14
15
7C
03
76
71
07
7D
7C
07
1C
03
7E
11
09
03
0E
7D
01
02
7F
13
01
03
08
00
75
7A
7E
12
7D
04
09
06
05
76
00
04
0C
7B
08
7E
1B
13
00
79
79
03
00
02
7D
7B
04
00
65
0F
00
76
77
10
00
7B
02
76
1A
01
04
08
78
70
02
7F
66
04
13
7C
09
0F
7A
7B
77
00
0A
06
7D
78
7B
5D
6B
05
0B
09
10
18
7B
08
73
7E
0D
5A
69
7B
01
00
7E
74
0B
05
20
0A
7D
00
07
07
08
78
7E
01
0F
0B
16
0A
0E
05
06
7E
0F
78
0A
7C
11
0B
7D
6D
08
7F
7D
03
7C
19
7D
16
75
78
1B
05
05
05
03
60
11
79
05
05
01
0B
23
7A
13
08
02
0A
7A
16
0B
03
7C
00
17
74
74
0B
09
73
0F
7F
07
07
14
02
7E
05
7D
7F
0A
0A
10
77
75
0A
03
08
00
02
7C
05
7F
77
63
7E
00
06
05
04
79
13
7E
75
00
77
05
7F
00
11
08
00
7B
0C
73
7E
50
16
79
7E
7E
7F
0F
00
0B
03
00
06
7F
02
17
01
05
00
00
0E
7D
00
7E
09
0E
1B
0B
71
07
0C
7E
18
00
03
7D
15
70
7F
78
0D
0B
1F
7F
09
00
18
0D
76
7E
05
7B
7E
7A
09
78
00
00
75
00
02
00
7F
00
0B
08
77
77
00
00
04
01
68
7A
00
75
72
08
0C
04
77
7A
77
0C
7D
0D
10
7A
07
00
07
65
66
68
78
0A
7A
00
78
73
07
72
78
00
7D
00
7B
78
77
13
00
00
02
7D
5E
7E
04
7B
04
79
07
7F
16
73
00
00
0F
00
09
71
02
03
06
11
0E
05
7C
7C
7C
03
7D
00
0C
7F
00
09
00
79
0A
6A
7B
01
7A
09
7D
78
00
04
0A
7E
0C
71
7A
71
0F
00
00
6D
7A
00
00
6F
72
75
09
0B
1C
09
05
05
13
1A
02
7E
7E
03
0E
78
69
60
0C
7E
7B
7E
71
7B
00
00
00
00
00
00
00
00
00
00
00
00
00
00
00
00
00
00
00
00
00
00
00
00
00
00
00
00
00
00
00
00
00
00
00
00
00
00
00
00
00
00
00
00
00
00
00
00
00
00
00
00
00
00
00
00
00
00
00
00
00
00
00
00
00
00
00
00
00
00
00
00
00
00
00
00
00
00
00
00
00
00
00
00
00
00
00
00
00
00
00
00
00
00
00
00
00
00
00
00
00
00
00
00
00
00
00
00
00
00
00
00
00
00
00
00
00
00
00
00
00
00
00
00
00
00
00
00
00
00
00
00
00
00
00
00
00
00
00
00
00
00
00
00
00
00
00
00
00
00
00
00
00
00
00
00
00
00
00
00
00
00
00
00
00
00
00
00
00
00
00
00
00
00
00
00
00
00
00
00
00
00
00
00
00
00
00
00
00
00
00
00
00
00
00
00
00
00
00
00
00
00
00
00
00
00
00
00
00
00
00
00
00
00
00
00
00
00
00
00
00
00
00
00
00
00
00
00
00
00
00
00
00
00
00
00
00
00
00
00
00
00
00
00
00
00
00
00
00
00
00
00
00
00
00
00
00
00
00
00
00
00
00
00
00
00
00
00
00
00
00
00
00
00
00
00
00
00
00
00
00
00
00
00
00
00
00
00
00
00
00
00
00
00
00
00
00
00
00
00
00
00
00
00
00
00
00
00
00
00
00
00
00
00
00
00
00
00
00
00
00
00
00
00
00
00
00
00
00
00
00
00
00
00
00
00
00
00
00
00
00
00
00
00
00
00
00
00
00
00
00
00
00
00
00
00
00
00
00
00
00
00
00
00
00
00
00
00
00
00
00
00
00
00
00
00
00
00
00
00
00
00
00
00
00
00
00
00
00
00
00
00
00
00
00
00
00
00
00
00
00
00
00
00
00
00
00
00
00
00
00
00
00
00
00
00
00
00
00
00
00
00
00
00
00
00
00
00
00
00
00
00
00
00
00
00
00
00
00
00
00
00
00
00
00
00
00
00
00
00
00
00
00
00
00
00
00
00
00
00
00
00
00
00
00
00
00
00
00
00
00
00
00
00
00
00
00
00
00
00
00
00
00
00
00
00
00
00
00
00
00
00
00
00
00
00
00
00
00
00
00
00
00
00
00
00
00
00
00
00
00
00
7C
11
0C
01
00
7D
00
7B
00
70
7D
7E
7C
10
00
09
6D
05
7D
7F
0B
00
79
0A
13
09
7A
0A
03
7A
74
03
02
79
06
0B
03
79
00
00
7B
6C
06
7A
7E
7E
0B
7F
75
6B
7B
7A
7F
7D
7F
78
7D
08
7F
77
00
76
09
72
00
7E
0A
7C
7A
7D
0E
08
7A
7C
7A
7C
76
06
00
77
7C
02
02
7C
00
71
00
75
7D
7D
03
6F
73
08
00
03
7D
0F
00
70
06
75
75
03
7E
04
77
79
7C
78
14
78
79
1D
77
03
7B
7E
7B
7C
7C
00
00
03
7D
74
0D
7A
06
01
07
10
1B
00
7A
79
06
79
7C
65
09
00
7F
03
05
00
06
7E
77
7F
79
78
7B
00
00
77
0E
00
7C
03
7C
7C
04
02
75
7D
10
01
00
04
7F
0D
05
05
79
01
06
77
00
7D
7E
08
7B
7E
06
7E
04
7E
02
01
12
06
7D
1B
7F
02
1A
77
78
03
71
03
08
75
7F
00
77
05
74
02
7D
7C
7B
79
7F
76
08
03
7D
04
05
7B
03
0E
7C
7A
09
79
24
04
7D
7D
78
79
0B
0E
05
08
08
7A
7E
09
03
77
08
7F
70
0A
05
7B
03
7C
02
0F
01
0D
08
7D
06
00
73
07
7C
02
00
72
03
78
7D
7E
7C
03
7C
01
0C
70
77
7E
03
7C
70
08
00
00
79
09
01
06
73
00
71
09
04
01
7C
02
01
01
00
7E
7D
7A
7E
7F
7C
00
76
04
7B
00
00
0B
00
05
7A
0A
04
05
0A
77
76
7F
7E
7B
00
7C
05
00
06
01
7D
10
04
79
00
00
09
06
00
7B
75
73
79
10
0D
78
7E
04
0A
02
77
02
14
01
7C
78
7B
7D
01
75
08
03
00
00
12
7E
74
79
7F
79
25
7A
00
00
78
00
77
00
08
0C
74
05
7C
0D
00
00
79
07
00
77
00
7D
06
08
03
04
73
79
77
00
75
7F
10
05
05
00
01
12
0C
7E
79
05
78
00
79
0F
7A
04
13
04
0A
00
0B
00
0C
00
00
00
7D
01
08
70
7A
7F
7D
03
01
7C
16
7E
00
78
00
7C
07
02
17
7F
03
02
03
7E
78
7C
01
00
7A
00
79
7D
00
0B
02
7A
06
06
03
7F
71
06
77
7F
00
06
06
7E
7B
7C
7E
04
13
00
00
7E
0B
00
00
14
7F
04
7F
02
05
00
75
72
05
15
7C
7F
79
78
7E
02
05
02
00
00
7C
19
79
03
09
12
12
6E
00
7E
00
7E
00
7A
01
17
17
6D
00
00
1D
69
7F
05
0A
00
13
0E
01
12
7E
0E
03
06
7C
7F
7D
00
7D
05
7E
04
7F
00
78
73
7A
09
14
79
7F
00
7A
6F
7A
7F
02
7D
04
05
7A
72
03
09
6D
7D
7F
08
00
03
0A
0A
76
11
75
02
7F
7F
7C
01
0C
01
00
05
6A
73
0D
7B
00
00
01
08
03
03
08
72
04
7E
00
0A
04
7E
73
78
0E
77
7E
7C
6E
7F
00
7B
72
05
0F
0A
79
73
73
05
00
72
07
7A
06
00
00
05
01
7C
7D
79
09
72
7C
15
05
00
03
09
01
05
02
76
05
00
7A
7D
07
00
01
0C
7D
76
00
00
06
00
78
70
13
00
79
77
7F
07
7F
79
03
02
1A
08
17
7B
00
0C
7E
03
79
77
7D
78
00
7F
09
05
7C
02
04
7B
06
7E
7D
79
08
09
00
0A
09
7B
09
78
04
7B
0F
05
73
08
06
00
04
70
09
7E
74
12
07
7D
01
69
7A
7E
00
74
79
7D
01
00
02
01
76
72
06
73
7A
04
04
06
05
0B
78
74
0A
05
7C
08
0A
02
77
03
76
74
0C
04
7F
00
79
00
08
0F
7F
03
09
08
05
06
03
7E
00
7F
05
02
7A
75
7D
03
7D
7B
05
76
7B
7A
7A
7E
7D
04
7E
71
00
7C
01
02
73
00
75
7D
71
07
13
7C
76
7D
03
00
7C
7B
00
03
7E
00
07
0D
7C
00
72
78
7B
04
0C
7A
7F
6F
08
75
75
71
00
7F
00
06
0A
00
7D
6D
76
0F
01
06
00
00
08
0B
00
75
78
05
03
7A
14
14
02
78
07
01
04
76
18
05
7F
07
78
00
77
03
74
7C
6E
7E
7E
7F
7E
02
72
76
11
7F
00
00
01
00
75
00
04
7F
74
7D
7C
05
00
00
03
74
00
07
00
04
03
75
7F
15
00
79
03
03
04
7D
09
77
03
00
05
06
00
74
7F
79
75
00
06
76
00
0C
03
73
01
00
79
0E
76
7E
00
00
7E
7D
06
68
7F
03
09
07
7C
72
11
70
00
7C
7B
7D
00
07
02
7B
7D
77
0B
08
00
02
01
08
07
00
14
7F
00
05
7F
02
77
72
02
08
7E
74
74
7D
00
7D
79
04
77
09
7D
05
0F
00
00
77
76
00
00
7B
77
7D
04
75
02
0C
7B
71
02
00
08
7D
7D
07
00
73
7D
7F
05
00
03
09
07
7C
65
00
01
01
00
04
00
08
00
74
07
71
5E
0E
00
76
64
7D
0F
05
7A
00
77
78
07
7E
05
7F
7C
03
00
05
7C
09
78
04
7A
03
03
00
7B
01
7E
09
00
01
00
07
0F
7D
7A
01
7D
06
70
7E
79
07
02
04
7B
70
0F
7F
00
09
6C
6D
7D
06
7C
02
03
07
03
08
7B
02
00
7D
7F
7A
09
02
00
02
0B
7C
08
02
7A
7A
7F
00
00
02
0A
04
17
7F
08
05
0A
7A
7B
76
7E
78
72
05
74
7B
08
0C
05
05
7F
7D
77
0C
0B
03
00
74
7C
06
02
03
00
7D
05
78
76
00
00
0F
7A
00
0C
06
03
00
77
77
00
00
05
75
0A
7E
08
03
04
00
10
0B
79
00
08
05
05
74
7E
7B
05
02
07
07
6A
74
7D
7D
03
7D
01
04
02
03
00
04
7E
05
01
7E
78
08
05
7C
7A
02
76
0D
00
00
7C
7D
0B
18
77
7E
05
0D
7F
01
7B
7C
76
7A
03
05
7E
07
7E
07
7B
70
7C
7C
09
76
01
10
00
71
7F
00
78
7A
02
14
6E
7B
09
13
77
76
7B
73
05
01
7D
70
7C
06
03
05
08
05
10
7E
7F
1A
0B
70
7F
7C
7D
03
01
0B
73
7A
02
06
00
0A
00
01
7A
01
15
03
0E
7B
08
7E
7C
0F
00
01
76
0F
7C
7B
76
67
77
0A
00
00
03
78
02
04
7C
08
1C
06
00
7B
6E
7B
0E
7F
06
00
7F
7F
0E
00
74
7E
05
75
77
01
79
01
7C
0C
77
07
79
75
00
04
09
00
7E
08
0A
70
09
01
00
00
79
7E
00
79
0A
7F
7D
78
7E
7F
6D
7A
02
03
03
7C
73
76
0D
78
7A
7F
7F
0B
0B
01
7F
01
7A
08
77
0B
7C
0C
05
15
00
00
00
00
73
00
07
7C
02
7F
77
07
00
00
02
16
6E
73
00
79
06
7A
76
07
0C
72
00
7F
08
03
79
07
78
00
03
16
00
11
78
7C
7D
00
0E
00
7A
7E
01
0B
7B
00
7B
0B
03
6C
00
00
73
02
77
08
7C
05
72
00
05
76
77
03
00
09
78
78
0A
72
17
79
7B
00
7C
7A
03
04
01
04
0B
00
6D
79
00
7E
7A
01
0E
00
06
00
01
7E
05
7F
00
0C
7F
00
7C
07
7F
01
71
00
00
7E
09
00
00
79
01
07
78
7D
79
6C
0A
7B
72
7F
01
01
02
05
00
78
04
72
08
7E
7D
03
04
00
74
0C
01
7E
00
7E
00
7B
00
0C
03
7B
04
6E
00
05
68
0D
76
03
7D
00
65
7D
12
75
01
7A
7A
7C
7F
7E
79
79
04
75
7B
79
7A
00
7D
78
7A
03
02
77
02
03
03
0E
09
08
02
00
6B
02
7F
75
7E
02
73
75
74
6E
00
76
7B
67
0F
01
7C
7F
7F
70
02
7C
02
02
00
78
68
08
73
03
00
07
0A
02
02
7E
09
11
06
7D
00
7C
7F
7E
56
79
6E
03
77
7D
00
00
75
15
0F
7A
7D
03
09
0D
00
03
7E
04
6A
7D
7C
02
00
05
02
03
15
04
0D
7C
7B
0B
10
00
73
7D
7C
79
7F
0D
74
00
7E
05
7D
00
7D
70
7F
79
6D
1F
79
00
09
14
76
00
7C
7D
04
08
09
08
7C
6D
01
7B
63
10
7F
76
7B
7D
0B
7E
02
01
00
75
06
7E
01
7B
06
06
7B
7D
62
00
7E
7C
79
7C
02
7F
7E
7B
7A
7A
00
0D
7C
0C
73
6C
11
09
04
7E
08
75
7A
01
01
78
7F
03
7C
00
13
5F
18
78
7B
01
04
7E
0E
73
6E
02
7D
79
76
7C
0B
0D
0F
03
7F
0F
7E
01
73
79
7F
7D
7C
7C
07
02
7B
01
7E
09
7D
00
7C
75
09
7E
74
7B
00
73
77
7D
01
7E
07
78
7F
7F
7D
0C
03
7E
04
00
15
77
00
01
0A
05
03
7C
06
00
02
7E
7E
7C
7E
79
7E
7F
02
02
11
7D
7C
7F
00
00
00
06
77
00
0A
01
06
03
69
79
07
7C
75
00
00
0E
7D
03
00
7A
78
00
7D
02
7E
78
7E
03
00
00
06
03
00
06
7D
07
00
1E
06
06
0B
03
16
7D
7B
7D
7C
0E
7E
08
06
7F
02
7B
08
04
12
08
0C
00
04
7E
07
00
0C
04
00
00
02
00
68
00
1D
7F
0A
7F
7D
76
00
00
75
0F
06
09
00
7D
00
70
08
6C
78
0C
01
04
7C
01
6D
01
07
00
7F
78
0D
79
7C
05
7B
00
7D
08
73
04
06
7E
08
00
0C
7A
73
0D
00
00
08
79
05
10
05
7F
02
7F
7F
03
75
6C
00
6B
01
02
02
01
6F
7D
7A
08
79
00
7E
02
7C
05
7D
00
74
05
00
00
7E
7F
09
06
7F
7B
07
75
0E
7A
00
7C
7E
7F
01
02
00
7A
73
00
00
09
7D
00
00
78
0A
7B
02
76
03
00
75
75
68
07
7A
02
7F
03
0A
7A
70
10
6F
02
7E
09
6D
06
0F
07
7A
7E
00
6E
00
7A
00
09
05
6F
03
67
00
7B
06
0B
75
7E
00
00
7F
75
12
78
76
76
7E
79
76
7E
0A
0B
03
69
7F
02
71
00
72
16
6F
7D
05
77
6C
0D
04
05
09
75
02
74
7F
7F
74
77
7D
00
0C
08
05
78
00
7C
7A
00
03
7C
03
74
7D
11
09
0A
01
7B
00
02
7D
76
7F
7E
00
7F
04
03
7C
01
7A
11
73
77
00
74
75
78
1C
79
72
0A
04
04
12
06
13
6D
7A
04
74
7D
0A
0E
00
04
6E
0C
77
76
7F
04
00
01
05
02
02
03
1C
02
04
7A
07
00
06
7A
7C
7F
02
01
7B
00
04
73
7C
00
71
08
03
09
00
0B
06
00
01
09
72
00
7D
7E
7A
76
7A
73
7E
7D
04
7D
6F
03
03
7B
79
7A
79
77
7D
07
00
7A
06
73
02
09
7D
0E
77
7D
08
77
7C
7E
7E
6F
03
04
04
74
04
01
7B
7C
79
05
7E
7D
04
73
00
73
7B
6E
78
07
7C
77
7A
73
79
7C
73
0F
15
75
08
77
00
69
04
06
0E
74
00
00
06
74
60
04
09
7C
02
64
7D
78
7E
70
11
67
09
01
06
05
6F
6F
7E
70
7F
09
79
78
7C
03
6D
7C
00
01
72
00
02
7D
00
7E
04
77
61
09
09
7E
70
00
7C
7E
7C
79
7F
6E
02
7F
7F
00
0D
14
0B
7E
02
7C
75
7D
79
7F
7E
7E
76
7C
05
00
05
75
7A
00
7A
79
7E
7A
14
7A
76
02
19
02
7C
05
00
7D
00
06
77
00
7B
07
04
70
06
00
00
00
70
7B
00
79
06
02
72
02
01
7F
70
74
0C
7E
7B
05
79
7E
7F
03
00
05
70
77
77
70
6F
11
13
7C
05
00
06
7B
0D
05
00
00
02
00
23
00
1E
70
7E
70
06
6D
00
00
03
7D
7B
7C
00
04
73
7D
08
01
7E
7E
03
7D
09
7B
76
7D
72
00
7C
75
0D
0A
71
7E
0B
00
7F
60
7B
70
7C
79
06
00
06
07
7C
7A
00
00
74
00
7E
0B
02
79
78
7C
01
73
6D
02
00
03
77
08
7B
7F
70
7F
04
01
7B
7F
77
7F
7B
7B
7F
00
00
76
00
7D
7A
7D
73
02
74
01
07
7C
0E
7D
00
7E
76
74
0A
06
7C
03
79
00
00
1B
79
00
00
7B
7D
05
7D
05
6F
7E
7B
0E
6E
7A
79
07
7A
7C
70
7E
1A
7B
05
07
7C
09
0F
00
6D
02
09
0C
00
0A
00
0C
00
7B
00
7D
7C
07
00
7D
71
70
05
07
03
00
04
01
14
0F
74
0D
11
05
09
7E
08
77
05
02
71
7D
7A
00
06
7B
0F
06
75
7D
77
01
09
75
78
72
04
7E
0F
7B
03
01
01
0D
6B
73
78
00
00
06
00
70
77
03
08
70
78
0B
09
02
0C
03
00
03
09
7E
0D
78
00
7E
7A
11
04
01
05
02
09
7C
00
7C
77
79
72
76
19
72
03
08
6A
03
7A
7D
79
72
72
02
71
67
77
09
11
76
7E
7B
76
04
00
73
06
77
77
05
6D
7D
15
7E
00
00
7C
11
70
7D
00
75
01
00
7B
16
0A
00
08
7D
71
75
10
7A
68
00
0A
0F
6B
00
05
7C
01
09
0E
02
01
03
7B
15
0F
0B
05
7C
75
79
6F
0A
76
7D
00
03
05
07
05
02
0F
7F
7C
02
00
74
7A
02
06
10
79
6F
16
7E
7D
06
05
77
01
79
0F
7F
07
6E
02
0B
02
05
03
6D
0A
6A
77
72
04
7A
6C
5A
6F
7A
7C
03
70
04
70
0C
76
03
0C
7E
77
05
02
0F
76
7A
7C
05
00
00
78
08
02
7A
79
04
01
04
13
77
74
7E
0A
03
79
09
74
6D
15
02
00
00
7B
05
03
7F
05
08
7B
0E
10
74
71
06
02
7F
00
02
0A
07
05
0E
02
7C
74
00
70
72
6A
06
7F
09
05
0A
01
07
0E
7D
02
08
01
00
7F
00
03
00
0C
05
05
6E
79
12
05
6F
73
7C
05
07
11
7E
00
73
0E
00
0C
76
7A
7B
79
0A
00
00
7C
0B
00
00
08
16
70
00
14
70
0F
0D
70
01
02
08
02
04
7A
78
07
02
6A
7B
0B
04
72
78
71
05
01
03
79
06
7C
15
00
00
7B
00
5E
00
68
78
77
0A
02
08
00
00
7C
16
05
03
00
76
11
03
7B
12
07
01
00
7C
0C
73
7B
0B
05
00
0A
10
03
65
09
01
70
00
7D
12
17
21
71
0D
0D
00
74
6F
00
0A
00
00
0A
7D
10
79
72
05
7F
02
04
77
7C
04
00
72
7F
05
6E
7C
04
7A
7E
03
02
07
73
00
7C
0B
02
00
7A
0A
00
02
12
07
7D
6E
05
0B
76
7A
75
77
00
70
6C
7B
08
09
03
06
02
00
00
6E
06
00
00
0B
63
0D
73
7D
56
03
7D
66
02
7A
0E
07
01
03
7E
7E
78
01
71
7F
05
06
7C
77
00
07
02
7C
00
0C
00
7E
00
05
05
79
02
6C
00
79
76
0A
05
7B
03
00
70
7B
15
01
7D
01
7E
73
79
06
07
7C
05
71
02
03
77
00
02
76
07
78
77
15
7C
73
0C
7E
0E
03
0B
05
71
05
7C
6A
0D
1C
7F
0A
0A
0E
00
12
06
7A
05
01
7D
02
02
7F
7C
71
0A
08
00
7F
7E
02
7D
79
00
7F
79
06
02
04
06
79
74
06
00
78
7A
07
5F
0B
02
7E
11
0C
01
05
02
72
77
6F
79
03
7F
78
70
01
0B
0A
11
03
79
04
00
06
05
05
7C
04
7A
00
02
7B
7F
00
7B
7F
0C
7E
03
75
1B
00
08
05
0A
00
0A
03
79
74
1A
00
7C
00
6D
07
7D
00
0B
05
06
05
06
7D
10
1E
0F
04
06
11
00
79
02
76
0F
72
79
0A
00
04
06
00
7A
07
0D
01
7C
04
05
01
01
70
01
7B
02
0B
0A
73
7F
05
00
78
7A
73
0A
00
00
02
00
6D
01
77
03
79
0A
15
0D
7F
09
0A
74
07
75
07
0A
71
06
09
02
71
76
76
05
77
06
06
6E
7A
7C
01
06
7D
01
7B
7F
7D
7C
79
03
01
0B
78
76
7F
7B
73
0A
04
0F
7E
67
7F
03
77
00
0C
79
73
7D
00
7F
05
76
07
7D
7B
0B
75
01
0B
02
78
04
02
7C
06
06
7A
7E
00
77
7D
09
03
7B
00
6D
00
7E
03
7C
04
7B
06
07
00
07
7B
02
00
76
7E
7A
76
7C
0D
0C
09
01
79
79
6E
04
0C
00
77
73
00
03
04
01
7B
05
79
00
00
02
0A
00
10
0D
7F
0D
01
0A
77
07
00
70
01
7C
09
7A
7F
7B
08
0F
02
76
06
62
7D
73
08
01
07
0A
7F
08
04
7B
7E
00
00
04
00
7A
00
7F
03
7F
01
0D
71
00
00
6E
7F
02
03
00
09
7C
04
15
03
0F
11
0A
0C
00
7B
0E
76
06
00
7A
00
7C
02
03
0D
08
00
78
05
03
14
14
7A
10
00
02
77
7E
06
00
00
7A
09
7A
02
11
74
7F
05
76
79
00
7C
00
11
76
0D
7B
7A
75
02
0B
77
7D
05
7C
03
06
02
7C
00
03
7E
00
74
02
02
78
01
7F
08
06
0E
7D
02
00
00
03
03
08
03
07
00
78
00
00
0C
0A
00
00
06
07
0F
08
0A
7E
05
02
7B
0C
70
7B
7B
03
01
7A
76
02
09
01
0B
03
08
7A
07
1C
0E
02
74
00
7D
00
7B
00
75
01
7E
06
71
00
7A
10
73
00
78
14
00
0D
05
0E
7A
7F
06
07
7D
78
03
7B
05
74
09
72
7D
73
00
7B
0D
77
7B
0D
7C
08
14
06
7A
06
78
06
06
04
7A
79
6E
7A
03
10
10
77
7C
00
09
7A
0C
7D
7B
7F
09
02
19
76
7D
02
7E
00
7B
05
04
7B
78
00
00
02
7A
7F
06
72
03
76
02
00
7C
7B
7A
14
7F
7D
7E
03
0B
73
0A
07
7C
00
7A
12
7E
09
78
79
00
76
01
7F
77
7F
04
00
78
07
0A
01
03
14
7C
67
0D
05
00
7D
7B
78
03
01
7D
0A
00
02
7F
05
00
7F
7C
7E
08
0E
1A
01
00
6D
7A
09
00
03
7F
79
77
04
76
02
01
06
7C
75
07
01
09
01
01
7F
07
7C
06
00
76
04
02
03
06
0A
7C
7D
07
0E
7F
77
76
6F
05
04
03
04
7E
03
05
7E
0A
03
1D
7E
04
7F
05
02
7A
7E
76
08
00
07
6B
0A
7B
06
03
73
7B
14
06
7F
7C
05
76
02
77
17
7C
76
7C
0B
04
7B
02
0E
7A
03
7B
00
7A
7C
7E
0F
77
00
02
0B
76
77
10
11
15
0A
06
7C
7C
18
05
02
74
00
0B
7D
79
00
7D
7E
01
02
7E
70
7E
7A
7C
04
08
70
07
73
03
07
75
0B
7C
00
00
10
12
07
02
0F
76
6B
7F
74
79
05
01
79
03
7F
00
00
7D
7E
00
77
7C
78
0C
01
0B
05
08
1B
06
00
78
02
05
00
01
75
00
07
79
7F
17
7B
7F
00
00
7E
01
00
08
04
78
7E
7F
07
14
7E
03
26
03
79
02
18
7E
7E
04
7A
04
7D
7A
6F
00
7E
07
0B
05
06
01
03
7C
02
00
00
00
01
00
12
00
13
07
01
7D
7E
00
00
00
7E
75
00
00
00
04
77
72
0A
76
04
07
04
0B
08
78
13
00
73
00
7D
06
09
0B
7B
01
10
00
7E
7F
78
0A
16
00
01
00
08
7B
7A
73
00
00
7A
02
7C
7A
04
76
7B
02
03
7F
17
1F
00
7B
7C
07
79
79
6D
03
7E
7C
01
7E
7F
7D
09
06
00
00
10
7F
00
76
7A
7E
71
7C
76
01
07
05
00
00
00
78
7A
7B
05
7B
7C
7F
0E
00
00
09
05
00
00
7A
79
7F
08
10
6D
07
7E
05
72
0D
78
7D
78
78
7A
7E
08
79
77
01
03
08
04
00
0F
76
75
18
00
7C
00
7D
00
7D
01
79
75
6B
00
73
0A
00
7F
76
77
00
03
79
6F
00
7F
73
7F
7B
7E
7E
00
05
0B
05
16
7C
7B
00
78
14
14
79
74
02
78
19
05
08
7F
72
7C
01
05
0B
7A
7C
00
76
05
07
71
7E
00
7C
76
06
09
03
78
79
7A
28
76
0D
7E
7F
00
00
01
7A
7A
76
00
12
7E
77
01
7F
79
02
01
7D
00
7A
7D
70
75
7E
04
75
7D
03
7D
76
0C
72
09
7C
02
01
02
6A
00
7E
7E
0C
1F
7E
00
7B
00
7A
7F
7D
77
7E
01
7D
6E
71
77
00
12
02
78
7C
14
08
79
00
0E
79
76
00
7C
71
77
08
7F
04
79
00
67
7A
77
00
02
74
04
05
7A
74
7A
7C
6E
01
7A
05
7C
77
79
75
0D
73
7E
05
00
03
7C
0B
75
7F
7F
7F
7F
00
00
7A
69
72
03
01
16
79
7E
74
6A
05
7C
76
04
78
74
7E
75
7E
7B
72
78
23
7D
78
7C
6F
7E
74
07
71
78
02
76
1D
7F
0D
7E
70
73
77
7D
77
00
00
08
7A
76
03
01
78
7F
6F
03
78
71
02
02
79
79
0D
7D
76
07
7A
76
7E
7B
00
73
1F
69
7C
05
7B
00
00
7D
7A
7B
03
06
12
7C
7D
04
6B
00
00
01
10
71
68
1C
06
07
70
01
7B
02
00
79
7E
6F
78
72
7E
64
7F
01
03
7D
7D
6E
03
7D
00
7C
24
7D
00
76
7F
04
6E
22
77
07
74
22
05
03
02
7D
01
00
05
69
00
0B
76
00
78
02
75
00
00
7C
7B
00
7F
05
7F
77
5B
6D
75
6A
7A
7D
06
01
73
79
7A
78
03
7C
7F
78
74
79
05
02
09
7D
11
7C
7E
7C
7B
77
7C
00
00
7D
00
09
00
73
7F
00
02
03
6E
00
00
01
6B
7E
04
00
70
7F
7E
01
7F
7C
00
79
7A
0D
0B
7B
08
00
00
10
05
07
71
7E
7F
04
00
7B
1B
09
05
67
77
0E
00
78
78
75
76
00
00
79
7F
01
77
7C
7E
00
01
76
7F
02
07
00
7F
02
7E
70
7B
79
04
00
7B
7D
04
79
01
7D
09
7F
00
24
78
00
7B
02
7E
71
7B
07
02
7D
76
6D
0E
00
0A
00
7F
79
02
03
7F
7F
00
00
04
19
00
00
08
78
03
7C
7B
6F
75
00
05
6B
7A
7D
0D
7D
7E
04
7E
06
7E
03
02
7E
7F
01
7F
0C
03
7E
7D
00
7B
00
00
00
14
08
09
06
0E
00
05
1E
11
04
03
7E
00
26
0B
7E
74
7F
76
79
02
0C
79
7A
70
00
04
04
05
7A
00
00
06
07
05
0D
75
05
05
7B
7F
79
10
08
7A
03
73
10
75
7C
05
6F
01
09
75
00
00
10
12
70
7B
01
00
07
1D
77
76
7B
06
00
09
02
75
70
7E
00
7C
00
76
7B
77
7F
10
07
79
00
04
0B
7E
15
7A
74
7E
02
03
08
09
7E
12
7E
00
0B
06
0D
01
06
04
7E
7F
78
7E
78
7D
00
73
00
7C
7E
06
09
0F
09
07
0D
00
13
09
70
7F
02
12
71
00
7B
7D
00
00
78
03
78
02
76
74
13
00
0C
76
07
00
01
7A
7D
00
03
01
78
76
09
7B
71
72
01
0D
75
0E
7D
7A
03
7C
00
0B
7D
00
7E
06
01
7B
0A
0A
10
7F
79
0E
0D
05
76
00
00
07
0F
04
74
08
0C
76
18
12
02
04
78
7A
75
17
00
7A
7D
02
03
0E
01
03
08
00
06
03
7A
7E
7B
03
7D
09
04
00
7E
7B
7A
04
0F
0B
04
7C
7A
18
7C
7F
02
08
14
7E
70
7F
7B
01
04
11
0F
0B
7E
02
73
75
12
05
05
7D
00
7D
00
04
08
7B
05
06
0D
01
73
04
08
0C
01
76
7F
07
09
7E
00
0A
02
01
7A
00
7D
0A
02
01
05
00
00
07
0C
0A
06
7C
77
06
7F
00
77
08
06
00
07
7F
02
0C
0C
74
03
7F
18
08
04
0D
09
06
00
07
11
00
0D
01
7D
0D
01
06
00
00
03
07
00
72
03
78
03
0B
7D
0A
05
0D
13
7A
0B
72
15
7F
79
7B
7D
7D
16
0D
7E
0E
04
78
14
04
7A
7B
7E
7E
01
08
00
00
77
00
22
00
0F
7D
7C
09
7B
08
00
00
03
0B
04
7D
00
7D
07
10
7D
7A
01
74
73
7E
0B
09
0B
06
00
00
7A
03
04
7A
00
0F
0A
00
76
0C
74
02
01
14
04
00
79
05
75
08
00
00
7E
00
03
0C
08
01
00
7A
7C
00
0B
03
00
75
0B
7D
7C
0A
00
04
7C
00
7E
00
7B
78
02
01
00
00
17
77
00
11
03
7C
04
08
00
06
7B
7A
7D
04
00
04
05
7C
01
01
78
79
02
00
00
79
06
00
00
09
03
00
7A
66
7F
06
04
0C
7D
08
04
78
70
7A
11
03
16
10
77
78
73
0D
11
73
78
03
77
03
00
78
00
01
00
6E
7C
08
04
74
00
06
7D
71
06
7E
06
00
02
73
02
04
00
07
0C
0F
03
00
7D
0D
62
15
6B
09
05
00
7F
01
02
03
07
02
7C
75
7D
10
06
08
03
7F
6A
03
7A
79
7B
13
15
00
79
0F
00
05
06
7E
07
04
7E
7B
03
74
73
0C
0B
04
00
0A
05
06
06
77
00
78
76
7E
7E
02
70
7D
11
02
00
05
08
71
7F
05
0E
00
09
0B
79
07
78
07
05
06
0C
09
09
73
07
03
0F
7B
01
7C
0B
0B
00
6C
7F
03
04
74
12
0E
68
7F
72
00
7C
04
78
08
7D
0F
7C
00
0A
10
09
00
7E
00
7E
7F
11
1A
00
00
74
01
76
00
07
78
7E
0E
7E
7C
08
71
0C
79
10
07
06
06
01
0F
78
02
00
01
00
6D
03
12
10
10
11
6A
0C
09
7E
00
7A
78
00
03
00
79
7D
7D
02
07
03
7C
72
07
17
0E
7F
76
01
79
78
11
08
11
08
62
04
0C
79
72
79
0E
08
6C
05
05
01
09
7B
6F
16
09
79
02
73
0D
13
6F
12
7A
01
0D
7B
02
6A
07
11
78
73
7F
7F
70
06
0B
0D
0F
0D
78
78
01
78
07
07
7A
00
0F
09
0F
12
00
78
04
79
71
0A
6D
71
7C
06
01
7A
04
6E
18
72
04
76
75
04
00
08
76
03
02
0C
7F
7F
03
73
05
71
7B
79
07
00
00
7C
7A
79
00
16
00
04
0A
7D
03
06
0E
79
06
75
7D
01
08
00
7F
79
00
00
73
7A
12
05
01
00
00
05
70
00
7E
0A
7E
01
08
00
01
0B
78
16
7B
7E
7E
06
00
01
7B
0A
0B
75
02
77
03
66
01
0C
05
04
02
05
73
03
76
00
00
75
00
74
00
7E
7B
03
07
00
79
00
00
08
72
17
04
00
7F
78
63
09
7E
0A
06
06
07
7A
02
01
09
6B
00
7C
02
09
08
0A
76
7F
00
7C
79
11
0A
0A
74
7A
00
05
7C
7E
0D
00
00
7A
79
00
73
78
01
70
01
0B
02
19
07
00
04
7E
06
7C
04
71
6F
06
7F
07
06
05
76
06
01
03
00
07
77
00
6A
0B
76
77
78
78
0A
08
78
00
05
00
76
7A
76
16
7D
77
01
0A
00
00
02
01
00
00
01
7F
00
01
04
77
11
7E
70
79
0E
0A
7E
6E
75
0C
02
7B
0E
10
03
06
78
76
75
00
75
7E
00
00
0F
00
02
00
79
7A
7B
08
07
00
7C
06
73
05
7F
7C
00
77
05
6C
04
07
02
00
04
7E
09
09
14
04
03
05
7B
7F
00
0A
04
01
02
01
07
7F
7B
00
7D
00
0A
01
0B
7A
02
72
11
07
14
00
0C
76
09
00
03
07
0D
7A
04
73
7A
7D
05
02
1C
01
7C
00
07
7B
09
05
7A
00
05
07
0D
08
06
7C
04
04
7B
00
75
07
04
77
06
15
00
7B
01
76
7F
07
0E
07
7D
78
01
0D
65
7D
07
0F
00
79
00
02
00
00
02
06
0A
72
00
76
08
00
05
71
00
02
7E
0A
00
09
0A
0B
00
08
0A
75
00
07
7A
07
7F
0F
0E
7B
00
08
09
73
00
09
0A
7D
08
0B
02
06
01
60
03
16
01
00
76
75
7F
76
73
79
0C
00
02
06
03
04
7D
7A
06
04
02
0C
0B
0E
7C
78
01
09
04
14
74
00
7D
05
10
00
21
08
7F
7F
14
7F
7A
04
03
01
01
05
68
06
0A
03
7D
76
03
78
0B
0C
01
06
0C
62
03
72
03
02
05
76
09
05
08
77
01
06
01
01
06
0C
01
05
7B
7F
05
03
07
04
0A
76
00
7C
74
7D
0B
06
01
0A
7C
00
0E
00
78
7A
05
03
04
07
79
10
5B
7C
7F
00
06
0F
01
03
03
04
02
08
08
0A
00
12
69
02
05
00
00
08
7E
01
05
71
08
0C
03
03
00
7F
03
00
00
06
7F
00
7F
02
02
06
65
69
0D
01
04
07
00
00
01
0A
00
04
75
00
02
09
06
00
00
00
02
00
05
08
06
04
7C
11
09
05
0A
1C
03
01
05
01
04
02
04
04
01
7E
01
04
00
69
17
5F
07
73
02
0B
07
6A
00
00
00
05
00
64
00
65
0B
79
7E
0D
78
00
00
03
7C
09
03
00
74
05
7E
79
06
7C
02
04
00
04
7F
09
06
7D
00
03
02
74
7A
07
00
7F
00
03
12
09
06
66
06
09
00
7A
7C
02
0C
00
00
01
02
7E
0E
06
00
00
09
06
05
0D
00
00
05
7E
03
04
00
02
06
7E
7F
7E
7D
03
03
06
08
04
00
05
0A
00
7E
04
06
0D
7A
01
10
06
07
7C
09
00
74
7B
06
03
7D
08
05
01
00
00
09
0B
00
00
02
73
03
0B
7F
5F
08
03
01
09
7C
79
07
00
05
7F
79
7B
08
0F
08
0B
77
70
09
75
05
78
15
00
01
00
0C
00
6C
7B
18
0C
09
00
0E
0B
70
09
0A
71
00
0F
78
7B
0A
76
06
03
0D
06
6F
7E
02
04
78
73
06
01
00
79
7E
7E
06
16
7A
77
1A
78
7C
07
02
0A
75
09
7B
7F
19
75
03
08
01
7C
74
00
00
0B
0B
75
0B
06
6E
7C
6F
0C
77
0C
09
00
09
17
72
04
04
00
74
7F
7E
7E
02
7E
76
12
7E
00
10
0A
07
0D
7A
1C
7F
05
7F
00
02
78
15
10
02
6A
0C
04
0F
04
09
19
7D
7C
03
10
09
00
03
72
75
0F
7E
0F
12
00
62
00
00
06
02
76
0A
74
0D
0B
00
70
01
0F
00
7F
12
07
08
10
73
6C
00
03
77
68
00
7F
09
7E
15
0D
0E
7C
75
07
04
0A
75
07
73
00
0A
79
7D
7F
77
00
75
05
0A
0C
10
06
01
0D
0A
09
08
03
05
04
00
7F
01
7B
01
03
09
7C
07
09
0B
1A
22
6E
08
01
09
01
0D
07
0D
06
7E
05
00
05
05
0C
0F
7F
68
79
08
65
03
08
0B
0C
14
0C
05
0B
09
1E
0C
05
78
76
0B
0B
08
0F
14
00
13
7C
08
01
09
0E
65
78
6B
12
06
0B
06
18
7E
09
0B
00
0B
06
16
15
06
7D
09
03
03
11
64
7E
03
04
77
6E
7F
71
0F
08
7F
6F
7A
7C
00
7E
0A
7D
07
7E
01
14
7C
05
79
7D
72
10
0A
7A
00
7B
75
03
00
10
0C
08
7C
0F
7D
7F
0B
0E
01
7A
05
09
07
00
02
12
00
03
6E
05
64
00
0F
00
00
75
7F
00
74
01
7D
05
7A
7C
6F
08
7B
6F
7F
7D
7B
72
0B
02
05
7E
08
02
05
18
0B
6B
02
75
01
79
06
05
79
0D
73
00
00
7B
00
77
00
0D
77
02
07
7C
7A
00
00
12
01
10
09
00
13
08
76
7C
11
0B
7E
02
0E
0B
04
72
1A
7D
00
09
10
05
77
01
00
04
00
77
7A
10
04
00
0F
78
00
79
05
78
0A
00
00
0E
7F
17
04
76
07
07
7D
0C
7B
74
0A
00
0F
7F
7F
00
7D
1E
01
0C
0C
0C
0F
7A
7B
79
07
05
00
78
03
00
04
09
7C
08
07
00
0E
7F
6A
00
7A
00
72
7A
03
09
7F
7D
09
6A
00
00
04
6E
00
00
78
7F
7C
75
7C
78
0C
05
7F
7F
7C
13
06
7F
02
0B
08
06
77
02
74
76
02
7C
75
00
7E
7F
74
00
74
00
79
00
7A
7E
7D
73
1A
00
11
7D
02
79
00
7E
00
7E
04
72
79
7C
03
67
7C
00
77
01
7A
07
05
0A
05
73
00
01
09
78
02
14
72
09
00
7A
74
77
7F
78
7B
79
7E
7D
0F
7A
6D
56
02
14
77
00
71
09
01
7B
01
04
02
78
02
0F
79
00
7C
00
02
63
04
7E
7E
00
7F
7E
78
78
7B
79
0B
7A
02
00
79
7E
14
1A
7B
7B
7A
03
7E
7E
00
0B
67
71
7F
08
00
01
0E
7F
7E
03
7B
03
7C
00
76
00
04
7C
73
7B
7E
02
75
08
0B
7F
00
00
02
05
7F
04
7E
79
00
7B
11
76
00
09
1A
7A
03
6F
04
13
00
0D
6A
07
00
7B
06
7E
7D
7B
7A
01
7D
09
77
7A
7A
7C
06
00
0A
00
66
7F
7C
00
01
7E
72
04
7E
7E
07
00
7E
7D
02
18
01
7E
12
7C
02
7F
7D
0B
7A
7D
7A
03
08
66
6A
07
73
7E
76
7C
78
76
7F
05
02
06
7A
7F
0B
7B
6D
02
00
7C
77
7F
00
78
0C
7A
7C
7F
00
09
0C
05
70
02
7F
7A
7E
7E
7D
09
7D
0F
0E
00
7C
03
0D
04
0B
10
7C
6C
77
0C
6E
03
07
00
7C
00
76
7F
7D
79
7A
7E
6D
06
6D
62
7E
08
79
7C
7F
7E
10
01
79
6F
10
06
05
79
00
00
01
03
00
11
7C
0A
04
7D
7E
72
7D
0C
7B
7D
00
7F
7A
7E
00
73
09
78
16
00
6C
7F
7C
6E
02
7C
7F
73
05
00
02
0E
00
7C
73
7E
0A
78
01
00
00
00
02
00
08
7B
7D
07
7C
03
01
75
0B
12
78
04
7B
0F
74
00
7C
79
78
02
06
0A
01
6E
12
70
7B
01
7C
7E
06
6C
75
00
00
7E
00
01
00
05
02
79
7F
77
01
00
00
7D
05
05
7C
00
11
76
0B
7D
6D
6C
7E
78
03
75
7D
7E
6A
0B
00
7C
07
08
6C
7E
7D
7F
00
7F
04
62
78
04
09
02
00
7C
78
0D
7B
00
00
71
02
00
17
04
00
09
74
7D
7C
0E
7A
00
02
00
77
02
7E
10
7A
7E
75
7A
78
7C
7C
76
7F
7D
00
6B
03
00
0C
7E
01
7E
7E
00
74
7B
0B
7F
7C
00
01
7F
08
78
04
7B
78
04
00
00
66
78
00
00
74
7E
79
03
5E
7B
77
7D
05
7D
00
01
7E
02
05
07
05
74
00
68
7D
7B
7E
7F
7A
09
0D
0B
08
00
78
00
02
00
79
7D
7B
75
7E
00
01
7D
6C
7F
6E
7F
00
77
7E
70
02
7B
17
04
7B
04
7A
02
72
23
1E
7C
7F
64
00
7E
7C
68
7B
72
6E
07
10
7A
09
02
07
79
78
08
7D
00
7A
7B
75
2A
00
79
7E
00
77
76
0A
7F
79
04
74
7E
71
01
77
7B
77
00
01
13
04
7B
76
00
7E
7D
67
7C
77
7A
03
7D
72
00
76
02
7C
7D
01
13
02
7D
05
7D
7B
7B
77
01
04
00
7F
06
6B
06
01
76
7D
71
77
7C
7D
00
76
05
04
74
06
77
03
00
77
71
00
7F
7B
06
00
79
6F
7D
00
7F
0F
7E
00
00
77
7E
03
00
75
7C
00
00
7A
7B
00
7E
02
77
75
00
0F
75
79
6B
7B
75
75
01
01
70
7F
75
1A
05
7D
00
7A
04
03
00
7C
1B
00
7C
79
04
10
7C
6D
02
16
7A
04
10
66
76
00
02
7F
7E
75
0E
02
0C
73
05
78
04
75
0A
01
0B
00
7F
06
7A
06
7E
73
78
77
02
03
7F
79
6A
06
0E
06
79
74
06
10
77
7C
76
7F
7C
00
09
00
02
7C
78
7D
6D
03
03
75
20
07
7D
06
0A
01
70
77
0C
0E
79
7B
00
73
79
03
0A
7F
7C
03
7F
11
73
7B
03
01
00
7B
09
03
04
0B
75
00
03
06
05
00
03
7B
01
02
0B
78
6F
03
78
7D
01
02
03
7C
01
00
02
01
77
00
0D
02
01
04
00
0C
7A
23
70
06
09
09
7E
7D
00
7C
79
00
05
00
01
05
7C
77
00
00
02
1A
00
7E
76
00
76
7C
27
0C
7A
7C
02
75
02
79
06
74
7B
7A
7C
7F
7B
71
06
00
69
7A
60
7A
7B
7E
03
7D
6C
05
00
00
00
00
02
00
75
0B
03
7A
00
75
00
00
04
7B
7D
7E
00
74
75
06
7D
7A
0F
01
7D
78
78
03
7A
09
7C
00
7B
1E
73
14
7E
7E
7E
00
7B
74
6D
0D
63
07
07
00
74
7A
78
7C
00
00
6B
78
7A
04
7C
7E
14
7F
00
03
1D
23
00
72
0A
7D
77
01
7C
02
76
07
7C
07
04
7D
73
0D
79
00
6D
0D
00
7F
7F
00
7A
78
78
77
03
7F
7A
00
00
76
77
79
04
7B
7B
74
76
00
00
7E
01
00
00
0D
6B
00
7E
14
6D
79
7C
04
6A
01
0B
02
7C
7A
7C
0A
79
7C
7D
08
02
0A
02
7D
05
6E
19
7C
00
73
00
06
00
12
05
77
76
20
00
04
02
13
05
78
01
00
79
09
6E
10
01
20
01
01
06
03
7C
06
15
79
11
03
0D
00
0C
0C
72
09
04
01
7D
07
08
11
79
71
08
7A
7B
02
0A
12
7F
13
09
09
15
0A
00
0B
04
7E
77
7F
09
74
05
71
10
7B
7D
01
00
07
71
7E
0E
09
00
79
7A
00
7C
7E
09
0C
02
7D
00
02
01
7F
1E
7F
06
77
0B
05
0A
0B
0A
6E
75
00
04
74
08
0D
7D
00
7D
0C
11
06
08
03
00
19
01
00
72
05
78
79
0C
73
70
00
05
00
05
04
7F
05
10
00
06
22
03
00
10
0B
0B
78
08
0B
0F
00
7E
78
12
00
00
7B
08
75
73
0A
0E
14
72
7F
7F
01
05
0D
05
7E
0E
00
7A
05
00
0C
0B
75
01
03
7E
1D
04
77
07
06
7D
77
7D
19
7B
03
06
7D
74
7F
03
76
7F
0A
7D
7D
15
6C
04
0A
73
7E
0B
06
02
0A
7F
05
04
02
7E
07
73
11
07
02
10
08
78
19
6E
75
0B
0E
07
1B
77
07
01
03
03
03
00
08
18
7C
06
04
02
01
01
1A
06
04
04
6A
79
03
14
01
16
09
04
0A
00
00
7D
03
7C
03
7F
00
04
07
57
1B
00
09
73
7C
0A
11
05
01
74
05
03
05
06
00
07
73
0A
79
11
00
05
05
7D
7E
74
04
0D
00
7A
00
08
0A
06
00
07
7F
02
00
08
0C
78
0C
7D
06
0D
02
7C
7C
00
7E
7D
00
7D
0B
06
7F
06
71
00
00
7C
0E
00
78
08
70
7E
7A
7F
0F
08
7A
15
7E
03
71
0E
71
03
7E
02
7E
7C
03
76
71
03
14
70
03
7A
0B
7B
0B
7B
08
00
00
04
00
0A
00
79
7B
0A
77
7D
04
00
00
01
09
08
7B
00
03
70
0D
08
78
0A
76
07
06
03
08
0F
0A
09
00
06
2F
7D
0B
04
06
0A
00
0D
72
70
10
7D
7D
04
00
7B
08
0E
09
00
00
7B
03
03
0E
0B
03
06
00
02
01
14
7A
00
03
78
7F
0B
06
0C
04
03
03
7C
7F
7C
00
7E
0B
04
00
0E
7A
00
02
71
7B
74
73
7F
0E
00
0D
7D
01
00
0A
79
7D
01
05
7E
7A
7F
00
00
0F
08
00
00
04
78
05
04
05
1C
7C
02
05
10
05
02
08
09
00
78
07
01
13
05
03
7A
0C
7F
0A
7D
21
7E
03
00
74
00
74
00
00
06
73
6D
72
00
7B
72
13
7F
05
0B
00
75
78
25
07
04
03
7F
7F
02
03
7D
08
73
6D
7C
06
01
00
77
0C
07
01
05
7A
78
7B
09
7E
7B
78
01
06
6B
04
7F
75
7D
72
76
7E
02
7A
00
78
74
78
01
05
7A
7E
06
07
79
11
00
7C
00
7D
71
7B
07
01
00
05
04
07
04
06
09
07
06
01
00
7E
00
76
00
03
06
06
07
03
01
7D
07
7F
79
02
7F
7A
76
1D
09
7E
77
02
7F
00
7B
79
00
7E
03
03
1D
08
28
74
7F
79
1B
00
02
7F
7D
7E
0A
7B
78
00
06
05
02
00
7B
08
02
78
6B
04
7E
00
05
04
7D
00
7B
7D
7E
7F
7A
76
7C
70
2A
06
79
0A
7D
78
01
77
02
6D
05
02
00
7C
01
76
02
03
73
03
07
02
7A
6A
03
0C
72
75
00
75
00
7C
00
04
01
77
7B
08
5E
66
06
77
7E
05
00
0A
7C
00
00
64
02
78
04
04
75
04
25
0A
00
04
07
73
20
02
71
7D
7E
0B
76
03
7D
04
1E
07
05
00
7B
7C
77
01
79
75
0A
7C
01
01
77
78
03
7D
7C
00
7D
15
07
01
78
05
00
77
02
04
7B
7D
04
04
7B
6D
07
07
07
7E
7F
09
03
76
09
7E
00
7C
7E
77
00
00
09
18
7E
7B
7E
7F
74
01
7F
7E
0E
03
76
02
09
00
7F
0E
7B
00
7E
79
01
7B
7D
7D
04
77
29
08
7C
09
02
04
00
00
78
00
7E
03
7C
01
07
06
00
00
7B
74
00
04
7D
03
73
1B
76
0A
7F
7A
00
0C
07
04
05
07
7D
05
76
76
78
76
7E
7E
01
0C
1A
7E
03
7B
7D
0B
33
0A
00
00
02
00
0B
00
20
7F
02
04
05
0B
00
00
7D
79
07
7B
00
09
04
75
02
06
69
03
7B
03
08
03
78
09
7D
00
03
78
25
75
7F
03
06
00
09
7F
08
77
2A
04
7D
00
1B
7F
7E
03
00
00
09
7E
79
7F
06
02
77
03
7C
7E
7B
73
00
7C
7E
00
7A
79
04
02
7F
77
01
7A
04
03
05
7F
02
00
74
7B
00
7D
79
00
6F
72
06
7C
0D
76
72
0C
00
06
7A
07
78
04
09
00
07
00
00
02
06
00
00
72
74
01
02
6F
75
73
7D
06
6E
7C
76
0B
03
01
7D
00
75
7E
06
00
01
1C
7D
07
69
0D
73
01
00
05
00
03
00
00
75
02
0E
7E
00
08
68
13
05
00
08
00
7F
6A
06
7A
7F
76
0A
7C
02
7C
0E
09
73
7A
09
7E
79
00
14
6F
00
7D
78
08
78
72
04
7D
07
23
77
01
7D
04
03
7F
0C
78
01
00
72
09
00
00
0E
01
73
7C
7F
04
75
67
00
0E
77
03
00
02
00
02
01
7E
00
09
02
78
01
07
72
03
7B
77
00
7F
7E
68
65
0C
07
04
7B
05
0C
05
7A
75
7E
7B
76
03
12
16
7F
05
18
00
17
08
7E
01
00
72
0E
07
0B
01
1E
0A
77
78
15
00
7F
00
07
7E
15
10
04
00
13
0B
08
00
7F
6C
7C
79
0A
00
66
00
02
6F
76
00
06
7D
7E
19
08
08
7D
01
02
7A
13
7E
01
7A
7A
11
7D
0D
7A
17
00
00
75
02
7B
06
7B
08
01
7E
7F
01
71
03
05
72
08
0E
16
7F
72
7D
7F
08
7E
7B
18
02
0B
05
08
02
06
7D
00
7B
79
14
77
0D
02
6F
10
78
11
02
09
01
71
11
15
08
74
79
7E
7E
6E
12
02
6D
14
7E
09
27
7E
00
7A
7A
04
01
71
03
7B
7B
7B
70
73
6F
0A
78
76
7E
5B
77
01
0B
00
0B
02
7B
04
7D
7A
07
01
06
05
00
75
02
04
03
0D
6F
79
01
78
0C
04
1A
02
00
0D
04
73
02
6D
02
79
01
7B
0D
67
7A
77
05
7E
00
7E
6B
03
00
10
07
7D
6D
7A
01
7A
08
77
04
07
09
03
74
00
70
02
00
0B
02
06
79
09
78
00
00
72
78
00
02
0D
7A
24
2C
7C
6F
21
7B
04
00
00
13
78
75
7F
06
7C
04
75
7C
02
05
75
0C
15
0A
72
01
09
02
0B
03
00
00
7E
00
6C
00
19
7F
00
77
0F
77
00
00
78
08
0F
7A
00
72
7E
6E
76
01
00
05
05
76
06
03
7C
7F
6E
00
7E
09
19
78
7F
79
7C
00
06
7D
01
03
7C
7E
10
00
0E
07
78
0B
00
00
73
7C
00
74
78
00
70
7B
03
09
71
70
00
7B
79
00
79
75
07
00
06
7D
7D
05
06
7D
0E
01
7F
00
0B
06
00
75
04
0A
7A
7D
7B
02
02
0A
69
0D
00
07
0A
00
7F
7A
00
7D
78
00
00
67
03
00
00
0A
7E
0E
7A
06
27
0A
7E
7B
06
7B
02
7E
7C
7D
0A
74
71
27
7F
05
07
11
75
02
7C
79
0C
0D
00
7B
00
01
00
7D
08
7B
79
6E
00
00
0E
11
06
0B
7E
00
79
01
74
0A
00
03
00
0A
06
03
78
15
75
0D
01
7E
02
00
00
09
6C
02
7B
75
0A
71
08
10
7A
03
77
06
7A
01
71
72
7C
6A
08
78
0C
6E
00
72
7D
78
0D
7F
7D
10
03
78
77
1C
7D
7D
00
77
77
07
11
14
00
7F
01
18
05
7A
05
79
0A
04
00
7B
7A
74
7B
7E
06
01
79
77
07
00
08
7C
0B
05
07
75
05
73
07
7C
14
0F
19
03
7D
7B
00
05
77
7F
7E
7A
7D
01
73
0B
77
00
7D
02
00
02
07
00
6B
00
7D
04
7F
00
74
06
7F
7F
6B
17
10
00
0B
05
04
00
7B
7F
79
7F
03
05
79
78
7B
04
06
79
7D
0B
09
00
7F
79
03
02
00
74
7F
7B
09
78
02
0F
7E
00
76
7F
00
10
65
00
7C
7D
06
0C
00
06
7B
00
7C
08
76
75
7C
08
7B
0D
10
6F
7A
7E
7F
16
7C
78
03
73
7B
23
0A
7F
7C
09
00
04
7C
71
13
09
79
7B
7A
00
04
74
7B
06
02
7F
02
00
01
01
17
03
19
7C
7D
78
7C
03
08
07
08
7B
02
11
74
04
6C
0D
00
7B
0A
08
03
00
09
02
01
6F
13
7E
04
05
7E
03
1B
0B
6E
03
08
7F
77
00
00
00
01
7B
7B
01
04
02
03
7F
7C
76
77
7D
01
7E
06
00
03
75
7E
00
08
7F
06
10
00
77
76
05
7A
03
7F
0B
78
72
00
7C
7B
00
7D
0A
06
09
76
09
00
00
01
76
00
7F
02
05
16
01
08
04
0F
7A
15
0B
78
04
0A
06
04
05
7B
7C
7F
79
0E
03
09
08
78
7C
06
7F
74
02
7D
04
00
00
7E
00
7F
00
7B
04
04
7F
7E
06
00
00
04
75
00
7B
00
05
01
6E
77
0D
7A
7E
7B
7C
05
7D
77
0E
72
00
02
04
01
12
7C
7C
7B
00
03
77
09
74
6F
01
7D
00
79
0A
07
0C
00
00
0F
7C
0F
79
7E
03
7C
04
7F
05
04
07
00
08
05
78
03
7A
13
7B
7C
08
09
04
02
01
7E
7C
7E
00
04
05
00
77
74
00
08
09
7C
73
7F
7F
18
01
00
09
02
7F
02
03
02
09
14
00
00
15
7E
00
00
7C
0C
7D
05
07
07
73
00
01
76
07
7D
10
08
7C
7A
04
02
0E
00
7B
00
70
0A
03
01
04
15
02
00
00
00
03
00
7E
70
00
77
70
00
79
09
76
7E
7D
07
00
05
17
01
12
7B
17
04
03
7F
02
04
14
04
16
06
72
02
00
03
76
7B
00
0B
7D
12
02
7E
75
77
7A
7F
04
7E
05
7C
00
7F
78
00
7D
6C
00
00
01
78
0B
72
7D
7D
14
7B
07
79
0F
79
03
00
7D
0B
06
06
03
00
00
01
09
03
02
17
16
07
7E
00
00
7E
79
77
7C
08
76
79
71
72
7F
06
7F
07
7A
21
7F
01
00
79
06
02
77
0F
03
7E
7F
00
74
79
7F
00
01
0B
7D
78
29
04
00
00
04
04
04
7F
0C
02
00
78
7E
78
00
01
75
7E
04
02
07
14
00
78
73
1E
00
05
76
7A
01
7F
7A
05
75
72
7F
02
77
00
16
7F
7D
06
00
7A
7E
00
7C
7D
7D
74
74
0A
79
00
7E
7E
04
08
1B
0A
76
04
00
00
72
6C
79
05
06
76
7C
0E
03
0A
7C
04
0A
02
06
03
7B
00
0B
03
7B
01
77
7F
7F
14
07
7F
06
6E
02
03
6F
7C
7F
03
7F
79
7F
7C
09
7F
7E
03
05
08
04
7E
03
16
78
05
05
78
76
08
0D
10
21
08
00
08
09
7B
07
02
07
00
07
05
77
7B
04
76
7F
7C
01
79
76
7D
7E
7C
7E
7B
10
14
7F
7E
77
09
02
02
00
7D
04
78
05
16
78
01
7A
00
7C
02
01
7F
7E
77
00
78
05
00
00
7D
79
7F
13
0B
79
76
65
04
01
00
05
0E
77
00
02
06
00
04
7F
7F
27
76
75
00
00
06
08
00
77
0C
03
13
71
0D
15
0D
7C
11
05
00
0F
28
06
0A
7F
7B
02
05
03
09
01
06
12
03
02
6A
7E
75
77
75
79
00
00
04
00
01
00
07
07
09
77
7F
06
00
00
05
7C
79
7F
00
76
02
07
6F
07
7D
73
7D
7F
7E
7F
13
7D
07
00
0A
06
77
6F
01
7B
7B
00
7B
77
06
7A
6C
04
03
00
7E
0C
01
78
00
00
12
7E
04
76
02
7E
09
7F
04
01
20
7D
00
07
08
7A
05
74
78
7C
7E
05
7E
7D
7D
01
06
07
04
00
00
0A
00
01
78
00
79
00
05
06
7B
7C
7C
00
00
0C
02
09
00
76
05
02
18
00
00
6B
7E
00
00
73
7C
75
0B
06
07
06
7D
03
7F
0F
03
0B
05
04
05
76
06
04
04
02
05
7E
7C
01
0B
7B
08
07
00
7A
00
01
00
07
01
13
72
1D
00
11
07
04
7B
01
07
00
7A
0B
75
0C
09
0A
04
06
06
7C
0A
7D
03
01
73
13
09
00
7C
7C
01
02
10
7B
7A
78
01
07
7B
73
07
79
07
02
79
14
7F
7D
1B
7C
7B
7F
00
7B
7B
08
0B
78
78
0A
00
7C
05
73
7B
7D
00
01
7F
0C
04
0D
00
74
02
10
76
7F
7C
74
06
6D
00
0C
7E
6F
17
0F
7E
04
06
06
01
7C
74
78
06
0B
13
7E
7B
11
0D
06
01
06
7E
02
75
04
00
70
7D
76
0B
7A
03
08
0A
7B
0D
00
0D
7B
6F
06
73
76
77
00
0F
09
06
00
03
74
02
7F
79
74
0A
00
03
7D
75
00
76
74
06
13
79
09
7C
76
07
03
09
02
7C
7B
0D
04
07
05
12
7E
00
0E
01
73
05
06
7A
77
07
7E
7C
0C
77
08
0C
08
73
76
0C
06
76
0A
7F
78
02
77
7D
07
03
78
02
09
68
77
7C
02
7A
09
72
7E
7A
76
7A
11
71
6E
00
00
07
7E
0F
1C
12
09
04
0D
7A
01
78
10
02
11
7D
0B
02
7D
02
7F
76
7D
0C
72
7E
0F
14
0D
12
74
03
06
74
78
10
08
04
07
00
7A
10
0D
0D
03
7C
03
7F
06
69
7F
09
01
7C
72
03
18
76
06
05
78
07
0B
01
00
7E
15
08
76
08
7E
0D
7D
0C
7B
7E
7C
75
7D
09
00
7C
7A
06
00
0E
7E
09
05
75
78
75
04
7A
7B
0E
0A
04
02
00
02
05
00
01
0A
7C
7F
09
05
00
00
7E
79
00
07
7E
0E
75
0B
74
03
02
77
7B
7F
09
7A
0B
6F
07
75
03
7D
0F
01
0C
7E
77
6A
07
7E
10
7E
7E
06
0A
7E
00
00
7D
00
10
00
79
79
06
0C
77
0E
00
00
06
0E
07
08
00
73
02
00
0D
1C
78
02
01
04
00
04
09
03
71
00
02
05
7E
0F
03
7A
0A
00
03
72
23
7C
0C
7E
7E
00
7E
06
77
07
00
00
0D
76
0A
7A
06
7F
0A
7F
77
05
06
0D
00
09
0E
7D
6F
03
0A
7B
02
0A
05
0A
0F
01
7F
72
7E
00
75
7E
00
15
09
04
73
7E
03
76
03
70
6E
0A
00
00
7A
7E
06
09
01
02
11
00
00
76
78
00
00
7A
02
06
02
01
0D
03
11
04
71
09
7E
7F
01
04
79
71
09
04
0E
00
71
09
0A
04
07
00
7C
00
00
03
00
7D
00
12
05
14
14
7B
00
78
08
19
7D
7C
02
00
0B
73
7B
7D
05
0D
7C
76
07
7B
00
7C
01
02
0A
0D
0D
00
02
7A
03
7F
79
04
04
7E
06
7E
07
05
0C
7F
10
78
04
05
09
71
5F
0B
79
73
00
7B
10
0E
7A
71
05
7F
78
06
7E
75
76
03
00
7A
79
01
79
77
00
7F
7D
02
7E
78
02
04
74
02
00
06
7E
7E
0C
00
76
02
01
07
7F
05
04
19
03
72
7A
7F
7C
03
03
7D
09
02
7C
04
73
76
00
03
00
7A
7B
05
0C
08
00
7E
02
00
0F
7D
78
70
0B
03
7F
00
07
7C
78
00
0B
71
70
7C
07
75
79
00
7A
7E
03
00
01
07
08
07
00
02
7D
06
76
00
7F
02
76
0A
0C
06
0A
76
7E
0A
00
0E
78
7F
74
7D
01
09
01
7F
0D
00
7A
7D
00
7E
03
05
05
74
02
77
73
77
02
7C
0C
08
09
7E
75
03
07
7A
79
72
7C
01
7F
04
0C
0B
0A
65
7F
04
7A
79
7B
00
09
07
0A
76
77
76
03
7F
02
7F
06
03
7E
0F
79
7E
73
7C
7E
0E
73
7D
01
7F
00
7F
7C
7C
76
03
0B
6C
0F
7B
7C
05
00
79
7F
72
04
03
05
04
7C
01
73
0F
00
05
06
7F
06
77
03
06
01
00
06
7A
7F
00
00
00
66
77
6F
12
7E
7E
09
0B
09
70
7C
05
79
00
73
00
02
00
7C
07
01
79
11
75
07
69
08
77
04
06
0A
02
00
7E
7B
00
05
08
0A
79
06
79
00
00
09
0E
00
05
7F
79
04
7B
7A
7E
09
7B
7C
01
7D
01
75
76
7B
7A
09
79
7F
00
04
00
10
78
0D
00
7D
76
06
06
79
02
00
00
7A
00
16
00
00
04
04
05
7B
77
00
00
7C
03
0B
75
00
7D
7F
76
09
6E
7B
02
72
7E
0A
06
06
7C
06
00
74
09
10
5E
7F
7E
03
00
77
07
76
7F
02
07
08
00
7E
75
00
04
00
00
03
0B
03
7E
7C
7E
03
78
72
05
7A
76
00
75
08
79
7E
07
6F
7B
05
79
73
7E
04
7F
03
79
76
00
23
7E
00
07
03
03
7E
7B
03
79
7D
7A
66
05
00
0B
0F
03
7E
05
00
6F
6F
00
00
6B
02
00
00
08
05
06
7E
75
04
0C
03
04
15
02
73
78
78
76
09
7E
0A
06
75
79
6B
79
04
7E
74
7E
76
0F
00
06
00
06
00
02
00
74
7E
00
00
06
74
14
0C
7A
7C
00
78
07
6F
7C
02
6C
7A
00
0A
02
71
08
75
0B
7A
7B
05
00
17
72
18
02
7A
7B
01
73
03
0C
01
0E
7F
7D
6F
7C
06
71
7B
00
07
72
7D
7E
00
0E
03
76
04
7F
01
03
04
74
75
7C
79
7F
00
7A
73
07
75
0D
00
02
7F
7F
7E
77
03
7D
01
7D
00
77
00
07
61
01
79
7C
03
7C
03
06
73
16
07
7F
00
7A
00
6D
08
79
0A
07
1D
05
7F
7C
00
7E
7B
03
6E
7C
06
7F
71
06
6D
00
01
01
73
7E
03
7C
7E
00
7B
09
76
00
7A
01
00
76
0F
01
7F
00
7C
05
00
00
06
79
03
07
7E
7F
07
79
7D
01
7E
79
02
06
79
0D
05
6C
7F
01
00
78
7C
7F
03
7C
6D
7A
7E
7F
78
6C
7D
02
77
74
00
7F
66
1F
09
7E
7F
04
7C
74
01
68
11
78
7C
07
7D
01
0C
7C
77
29
02
07
00
72
13
01
04
73
77
01
0B
19
7B
70
03
7D
7B
7F
74
08
1E
7C
77
7A
7F
08
7B
05
62
7C
7A
78
09
03
00
75
66
02
04
11
7E
7E
76
7F
74
0A
03
0B
00
02
78
11
7D
13
07
02
0C
75
0C
18
79
0C
7D
7E
17
7B
02
06
0B
00
79
75
10
00
09
71
0E
79
7C
7E
74
09
7D
7A
73
05
71
7C
7B
00
7D
16
08
00
0C
79
08
05
71
74
7C
77
77
08
7A
05
09
7D
00
7E
71
00
7B
05
07
03
09
04
00
00
05
6C
00
71
04
04
1F
04
6C
09
0B
0B
05
7D
06
04
0B
01
77
04
05
7D
7A
10
7C
7F
0E
6D
7B
06
7F
00
7B
75
07
0A
00
00
76
00
71
00
7D
7D
09
7D
76
0A
00
00
02
6F
0C
00
00
74
01
01
78
78
08
74
79
7D
0A
01
10
01
77
00
77
7A
7B
7B
0D
7E
7C
00
7B
7D
7C
60
76
77
00
00
76
02
09
15
00
00
02
00
7D
76
00
06
6F
05
02
04
7D
68
00
10
00
7B
77
06
76
7E
7A
04
04
76
76
7D
7D
03
7F
00
06
72
00
71
7B
7E
7A
0A
7B
68
01
7C
0F
7B
00
0E
04
7C
07
07
7C
7E
07
00
00
13
0A
00
00
0A
12
05
7F
78
06
7B
07
7D
1D
0D
7E
02
74
74
05
08
04
15
7F
7D
02
70
01
7E
0D
0B
7E
03
00
01
00
00
00
71
02
02
0F
03
00
01
06
74
79
7B
16
00
7A
10
12
75
7B
75
7A
7F
05
79
7C
7E
00
10
7D
00
78
00
7C
71
70
05
08
03
0B
07
06
03
00
7C
7D
7B
02
00
7E
00
01
00
7B
06
7C
00
00
7A
7B
7D
7F
7D
07
04
7B
00
7D
73
02
74
00
7C
7E
03
7A
7F
00
03
03
7F
7C
07
7A
70
02
7A
00
7B
7C
7E
79
7D
6E
7B
05
7A
76
05
00
7B
06
7F
1E
7F
7C
12
00
79
79
7F
73
77
02
7E
00
06
7C
7F
0D
79
1D
01
7B
14
14
00
7E
7F
02
03
02
7E
02
00
7A
7B
0E
00
04
0A
00
7A
7B
18
18
00
7E
79
09
00
7F
01
79
7C
7E
7A
7E
0A
1A
7B
7B
05
02
11
7E
7F
7B
01
7C
7C
00
7C
01
7E
0C
7D
79
09
76
00
7B
04
0C
7B
74
76
7C
7C
78
0A
04
7B
04
7C
0B
13
0C
7E
03
7A
03
7D
02
78
06
06
03
77
04
7A
03
0A
7A
75
14
07
00
06
7F
02
17
05
02
0A
7D
03
02
7E
7A
78
0B
01
7D
7B
7F
02
0A
7B
7E
07
7F
02
7F
03
00
03
06
0F
7B
7A
76
02
06
7E
7D
02
00
03
79
0B
01
7B
08
77
79
72
77
71
01
02
00
00
78
07
7A
08
05
7D
0A
79
02
00
7C
0D
7E
7E
08
7F
7D
7C
7C
79
79
00
02
78
76
00
02
77
7D
00
7D
7E
04
0F
01
09
07
05
0A
03
0A
05
7E
7F
00
79
01
00
79
6F
01
14
7B
05
00
00
02
70
00
7F
03
7F
7D
10
00
18
75
7F
0C
7F
79
7E
19
06
7F
00
02
7E
00
7A
0A
7F
79
06
1C
7E
7F
03
7A
00
19
7D
00
00
09
00
70
00
19
08
03
01
7E
79
00
00
06
7D
06
01
00
06
7C
00
00
76
02
02
03
00
7E
7D
0E
06
01
00
01
01
1C
07
09
01
05
00
03
76
7C
04
15
03
7C
00
10
03
03
78
00
00
73
01
7E
7C
09
06
03
7D
0A
07
0B
7D
00
78
0F
02
00
00
79
7C
77
06
79
00
00
7C
76
00
7F
00
7A
7D
00
7C
7B
7B
7E
76
75
7F
00
03
05
00
00
73
7A
79
09
7C
76
77
0F
00
00
7A
7E
00
00
71
79
7C
05
03
79
0B
00
79
76
11
01
7C
00
00
7B
06
02
7E
7A
7D
04
12
7E
7E
02
76
08
7B
00
12
00
7A
00
78
78
7B
72
6D
00
7E
0D
77
7B
06
75
00
7D
70
76
00
05
02
7D
7D
78
06
7F
0A
70
06
01
7C
7A
00
02
1A
03
7C
7B
02
04
7E
7B
72
09
0C
78
01
7F
7F
79
78
77
0F
7A
03
70
0A
00
02
76
06
01
02
7D
02
79
14
01
08
78
03
00
7A
18
74
0E
77
00
7B
0A
06
00
07
02
7B
78
08
00
0D
04
07
18
02
7D
06
7A
79
02
7A
0D
22
7D
0F
73
04
08
67
00
06
7C
7C
6D
00
02
06
00
0B
00
09
05
00
6F
00
7D
7A
74
00
08
6F
7D
7E
74
03
0C
00
7B
7B
7C
00
01
79
0A
14
09
07
6F
00
7D
03
79
00
7C
02
7E
76
05
7A
04
7D
6F
7E
6F
02
7F
6F
09
01
78
02
0E
7B
00
71
03
13
7A
7D
07
7F
7F
77
03
17
06
0D
6E
7B
7E
06
1A
13
7C
7C
7B
14
04
04
71
03
75
1B
7A
79
01
74
72
05
01
68
03
07
03
7A
0C
7A
73
05
05
00
7E
74
74
78
03
00
00
0C
10
7E
15
14
0A
03
7D
00
04
00
70
01
12
0B
01
06
76
7B
0E
72
76
06
79
03
00
7C
79
04
00
00
00
08
05
78
7E
04
7F
02
02
6F
1D
05
7D
79
02
7C
6F
6E
74
78
7E
75
78
04
06
00
04
04
03
02
74
0E
02
7B
01
76
7A
00
7E
01
0A
00
7B
0E
77
00
7E
01
7B
76
07
04
09
70
7D
01
78
7A
0F
7C
00
10
7C
00
00
7B
7E
76
0F
7D
00
00
0F
01
00
7E
02
7D
7C
5F
7E
74
7F
0F
73
00
03
02
75
15
0F
7C
7A
02
00
77
7A
0A
0F
0C
77
00
7D
7F
0B
78
7D
77
00
00
7D
00
12
00
74
0B
06
05
03
07
00
00
07
6F
7D
00
00
75
13
75
00
04
7E
7A
03
7A
78
03
72
02
02
00
01
7D
79
7E
79
7C
04
00
7F
0C
7E
06
6B
7D
02
00
78
7D
0A
78
00
00
7F
7E
15
73
76
7B
02
7E
7D
78
72
0E
00
79
74
78
15
03
6F
7D
79
02
04
03
09
02
01
7D
05
00
7F
09
00
02
7A
7F
10
13
7C
07
03
78
09
04
00
06
06
7B
7A
7B
7E
07
7A
00
00
06
7C
00
00
0F
0D
7E
76
7C
79
76
05
05
7D
76
77
7E
08
7B
00
7A
16
7D
12
02
00
7C
01
05
0B
0D
75
7C
00
0C
00
7E
00
0D
06
04
14
78
00
76
05
00
7E
77
08
00
77
11
13
0C
00
7D
03
79
7C
7D
06
76
0D
0F
7D
7F
7F
00
08
05
06
02
6F
04
09
74
7E
07
0D
7B
03
71
02
79
7E
07
04
02
17
07
11
02
00
7A
7C
02
0A
78
7E
04
79
7E
11
04
79
78
00
77
00
0C
0E
06
00
00
01
05
79
08
08
00
78
03
00
7A
77
7F
04
7C
06
0A
78
7F
03
02
06
08
06
00
06
78
77
7F
7A
04
0C
08
6F
7C
76
02
00
15
79
7E
06
02
73
02
09
0A
7D
00
76
77
08
74
02
01
06
00
03
04
7C
00
04
6F
06
79
7F
14
7F
00
06
19
04
00
74
0D
7F
77
04
09
7B
0E
6C
79
0E
0B
7D
08
08
76
7D
09
7E
06
00
02
0B
0B
03
76
1B
0D
75
7B
00
03
08
7E
78
7B
08
01
07
76
76
78
73
7D
05
78
14
03
0C
0F
7A
77
09
6C
74
02
0B
7F
04
7A
01
14
78
0A
06
0A
02
7B
7E
00
77
76
75
7E
01
7B
7E
7F
7B
05
00
02
7C
7B
00
01
13
72
02
03
02
7F
03
7F
19
07
00
08
7F
7D
06
04
02
08
70
7B
00
7B
74
6D
7F
00
07
75
72
7F
07
0F
02
75
02
05
0C
06
03
06
0E
73
04
04
7D
00
08
0B
7B
7E
06
03
02
76
7A
08
14
7D
11
7D
7E
00
07
75
78
00
7D
03
00
04
7D
00
06
7B
7D
7D
06
7D
0A
04
00
78
7A
00
77
08
01
07
78
7D
00
00
08
05
00
07
79
7B
00
76
11
09
7F
6F
7D
7E
75
08
00
09
7E
7E
0B
03
0E
78
00
6E
7D
15
0A
73
03
7F
08
09
7B
77
00
00
08
00
06
00
73
0A
7E
7E
07
6D
00
00
7F
05
07
01
00
77
03
00
05
00
76
09
07
05
7F
70
0D
03
14
00
79
0D
6D
07
7C
00
00
00
01
6E
78
17
01
79
05
00
78
02
77
75
00
00
06
07
08
04
0B
7F
0A
01
77
02
0B
74
00
7B
03
0C
00
7D
7B
7E
7E
04
75
03
7E
01
7E
7F
7D
00
7B
06
00
05
70
04
0F
01
7E
7B
02
7F
10
01
00
75
7C
7C
08
7D
7F
09
0B
00
00
1B
74
00
00
03
02
02
04
06
78
12
74
02
04
01
70
06
08
7C
75
77
7E
05
7B
07
7B
13
7B
0A

