72
7F
7F
04
00
7F
00
01
00
06
05
04
7B
02
00
0C
7C
06
04
7B
05
00
03
0B
6E
76
79
05
78
04
08
7B
7B
04
0A
04
0D
02
08
00
75
01
06
02
0C
00
00
0D
7E
09
02
09
09
79
06
03
11
6D
7E
7C
71
7C
7A
7B
00
08
0C
7B
7C
0B
09
00
07
0C
07
6C
7D
03
00
15
74
7B
74
03
00
7B
7D
7E
7F
02
08
0E
06
00
00
02
07
12
76
01
75
78
05
06
06
07
7F
1B
7E
06
0D
03
0E
04
04
0C
01
0A
10
7F
05
03
00
03
02
7A
7A
07
08
7B
0F
75
06
00
08
07
00
0B
7F
09
09
00
09
7D
08
00
05
12
04
06
09
78
0B
00
6F
72
0A
00
04
74
08
7A
75
04
05
06
0A
02
78
03
06
08
01
09
06
7E
05
79
00
05
00
07
09
02
04
0D
0A
07
7E
77
76
79
13
01
7B
04
04
0B
7A
01
7E
79
00
02
0C
04
08
7E
05
79
6F
0D
08
07
7D
0B
0B
0E
01
77
15
74
77
06
03
0D
7E
0C
09
01
78
7E
05
0B
0A
02
0F
0A
00
7E
7C
0E
7E
00
07
7F
0E
7F
7E
03
76
7A
7D
7F
0D
7F
06
09
06
0A
27
7D
0B
7A
00
75
05
0D
06
06
76
07
07
07
04
08
02
07
09
7B
09
7C
09
03
7C
0B
06
7D
05
00
00
01
0A
09
0B
07
70
05
02
05
00
01
7F
08
01
00
03
1C
07
00
0C
09
07
05
04
00
00
02
0E
05
06
0F
0A
0C
00
03
77
00
06
07
0E
0C
05
76
00
00
0B
0B
00
74
7F
71
76
02
79
0B
02
07
11
7E
0C
76
0F
0D
00
7C
07
06
00
09
72
0A
0F
03
0C
0C
7B
04
04
7A
0F
07
00
00
07
00
09
00
7E
7C
0B
03
7F
7F
00
00
01
01
0D
07
00
77
03
09
09
7D
03
79
7C
04
7F
04
12
02
09
00
14
76
0D
7C
0A
06
05
00
7D
0E
73
76
03
01
04
00
02
02
75
0A
00
00
03
06
02
7D
08
05
09
06
09
7F
09
03
00
0B
0B
09
03
12
7D
0A
01
7F
04
04
7E
7F
7D
05
01
00
21
7B
00
02
7E
00
77
03
06
03
02
06
76
0A
00
0A
0B
01
0C
02
7B
02
08
00
00
74
11
00
00
08
0B
06
00
77
0D
7C
01
04
10
07
10
06
7D
01
06
09
7E
0D
76
7B
78
01
02
7F
7D
0E
02
7D
00
03
00
05
00
08
7A
05
18
08
00
0E
02
27
01
02
07
00
7B
04
02
7C
00
7F
76
75
7E
01
00
7C
00
1A
1A
0A
7E
00
14
6C
0B
07
7D
01
12
6D
72
01
04
1F
77
03
7F
02
75
15
08
04
0E
03
04
7D
00
06
0B
20
7D
6D
06
08
7B
7C
00
71
79
79
00
74
6E
03
7B
01
00
7E
07
02
7A
01
7C
77
70
7D
00
74
7E
06
6D
79
7A
7F
7B
04
0A
06
09
25
7F
04
05
73
06
16
04
00
08
0F
1E
03
08
02
00
7A
7D
02
10
01
0E
15
01
02
03
00
0C
6D
05
07
10
7C
16
00
02
09
01
00
03
7B
7F
0B
7C
7F
0D
00
02
6D
09
00
7E
12
01
7F
0A
7A
78
01
74
7F
77
7D
05
0E
7D
09
12
08
7D
7A
00
76
7D
06
08
01
7D
79
03
7A
13
04
1C
07
6C
03
06
0A
09
01
7A
76
76
0B
09
14
79
75
0A
07
72
00
07
00
72
0B
00
2C
11
0C
0A
08
22
7F
08
1D
7B
05
01
11
06
14
0E
08
00
0F
0B
14
1B
0E
07
76
02
7C
03
0D
1E
73
70
0F
03
7F
09
0C
10
1C
0E
0F
7B
76
7F
7E
1E
14
78
7D
00
13
04
06
01
03
79
7D
12
64
7D
26
7E
0C
01
01
0E
0F
02
0A
7B
0C
09
13
09
00
7F
78
0F
05
07
72
7D
7D
74
77
00
79
14
78
7B
00
02
09
0A
00
12
02
04
0E
0E
0D
04
24
15
0F
78
0E
07
75
00
77
79
00
09
08
14
09
03
75
00
00
00
7E
00
04
14
6D
10
04
75
76
79
7B
26
05
7E
78
11
04
07
00
05
79
17
03
0F
01
03
02
08
04
7B
09
0D
79
0F
01
00
00
7F
00
0B
00
07
7D
79
77
74
04
00
00
13
04
00
72
00
04
6A
08
02
79
15
03
00
7D
0F
05
13
75
05
00
07
10
02
19
00
7C
7E
00
02
75
7C
14
79
08
06
00
00
17
05
08
00
00
01
06
78
01
0B
0B
7D
7E
08
07
0C
0A
00
76
7D
01
00
71
76
02
7C
01
7F
05
7F
7D
7B
0F
09
00
15
7D
00
7A
7F
01
05
04
7C
0E
7C
07
02
06
00
18
22
7D
0B
7A
7F
71
03
00
00
71
08
00
00
07
17
7B
07
17
33
0D
09
0A
0B
10
77
6C
7B
73
7A
04
7D
07
7E
00
03
10
01
01
10
13
7F
7E
00
7F
00
00
00
05
02
00
06
75
00
11
18
6F
74
08
03
00
09
0E
1E
06
01
06
05
06
7A
7B
78
08
07
05
02
7F
09
00
0E
1B
17
01
05
00
7A
04
02
6F
02
06
05
77
14
03
1C
5C
00
04
02
08
72
07
00
79
0F
00
7D
0F
7D
7E
72
06
78
7E
02
7F
00
06
02
7C
0B
7C
00
00
7E
00
7F
06
07
09
03
00
00
03
7A
0D
67
79
0F
7D
06
73
78
02
07
05
76
79
7B
03
7A
74
79
02
7E
79
7E
7F
02
02
00
05
74
77
08
79
13
75
04
07
0E
00
7E
7B
05
7D
02
04
7F
00
77
0E
0F
00
02
12
05
08
78
0E
01
00
74
02
06
00
7A
00
7D
77
79
07
08
76
1B
77
03
02
00
00
7C
01
78
7A
78
7B
00
04
0E
09
02
79
07
04
00
01
7F
7F
11
07
06
06
00
78
7B
06
12
7A
06
79
76
02
7C
0B
7E
78
04
7B
7F
04
03
07
7F
65
7A
07
01
7D
07
7A
15
01
07
7F
09
08
08
66
05
7B
07
04
07
08
11
0C
06
02
7A
06
03
7D
6B
7B
0A
77
08
0B
7A
6E
01
74
7A
06
06
7F
7C
02
01
00
05
7F
00
01
7F
7B
72
7A
0A
76
7A
06
04
77
01
74
74
0A
78
6B
01
76
79
11
7B
69
79
00
78
11
0C
7F
7E
7E
6D
79
05
00
12
7B
73
7C
7F
00
02
08
73
00
7E
74
78
07
0C
04
00
07
0C
75
02
7C
76
0A
00
04
72
00
78
71
76
7E
7D
7F
00
00
04
04
00
01
7A
05
02
18
08
7F
07
0C
7E
06
7E
03
74
10
05
03
7E
7F
78
78
6D
74
7C
7B
15
76
72
06
78
7A
18
70
00
00
04
00
7C
00
0B
04
7B
01
00
0F
00
00
05
68
04
04
00
02
05
12
7A
79
05
7B
06
04
7B
7B
7E
76
02
00
07
08
06
03
79
7E
05
00
06
03
7C
02
19
70
00
00
7F
77
06
06
00
00
07
05
04
77
7F
04
05
75
7F
01
08
01
00
79
7A
7D
02
12
5E
76
7C
7E
7C
00
7D
06
7B
00
06
00
79
05
00
76
78
7A
74
06
0A
09
7E
79
7F
7A
00
7E
7A
07
7A
00
09
0A
03
00
00
07
7E
00
00
0E
02
77
7F
06
6E
7A
7C
04
00
76
7D
04
12
0A
05
7E
08
05
78
01
01
15
03
7E
7B
73
0A
06
00
6E
00
75
00
0D
7D
0D
18
0A
00
0A
01
7F
78
7E
71
00
04
7B
65
0F
7D
09
03
00
78
7F
7B
05
05
03
7C
79
02
00
75
01
04
7E
7D
6C
75
7D
73
03
78
7E
75
7D
06
7D
7F
10
6F
77
1A
78
0B
77
00
74
07
09
0D
00
08
78
0A
6F
04
02
75
79
00
7D
08
75
0E
02
00
7B
00
0A
7F
04
7E
04
7E
78
00
7F
7E
0B
6D
00
13
0A
74
7E
05
7F
76
0C
0F
16
7B
7D
06
74
0B
79
7B
0C
6E
71
7C
79
00
04
04
07
7A
01
7F
01
05
72
6C
00
7C
6C
01
7E
76
01
79
00
00
0C
7A
00
75
0A
10
79
6F
09
00
00
02
10
7C
00
78
76
73
14
73
01
79
7D
78
75
11
7A
01
78
07
04
76
7A
06
7E
00
72
78
78
01
06
12
7F
05
7B
7D
0C
7F
7F
70
0C
7D
09
77
08
0B
02
7F
7A
75
76
72
7E
03
04
03
7B
02
77
04
04
7B
75
74
09
75
7E
7F
2B
04
76
04
03
02
74
6B
7B
16
7E
78
7C
77
02
0A
06
00
01
7F
00
02
7A
0D
7C
00
7F
14
7C
79
77
05
70
06
75
77
6E
7D
0E
04
02
72
00
00
78
04
0A
01
74
7A
7F
79
7D
0B
02
09
7C
01
73
10
75
7B
7C
10
04
78
79
7B
00
00
6F
0D
7D
0E
75
08
06
04
78
09
06
08
7D
01
00
07
06
70
00
08
01
7C
07
06
79
71
01
67
04
7B
7E
73
77
00
78
7A
00
78
02
78
7A
7A
09
00
00
00
0D
00
77
6A
0C
7D
7F
0A
70
7F
07
70
76
74
76
7C
79
7F
05
75
7D
7B
76
7A
77
02
0A
07
79
08
00
79
76
71
78
00
00
01
00
76
00
07
79
01
6E
04
7E
00
00
78
04
76
05
00
09
7C
7C
79
7C
71
78
7F
78
77
01
6F
06
05
00
7A
01
7C
1C
7E
75
72
00
78
76
12
7A
76
7C
7D
00
7A
08
05
7F
00
00
09
71
0B
7F
02
7E
0A
02
03
05
03
74
00
75
00
04
07
05
07
01
75
03
04
06
05
7D
7C
7B
79
00
12
7E
00
04
05
7A
0D
06
77
71
02
7E
17
02
00
75
7C
7D
7C
7E
79
01
7C
00
00
26
7A
00
00
0B
05
77
75
04
0E
11
77
7B
7A
7E
7D
0D
7C
7E
7C
11
7A
07
04
7E
78
7E
00
7D
78
7D
71
01
00
03
00
08
00
11
08
15
1D
08
00
03
05
01
07
77
0C
00
05
08
09
77
03
7A
05
00
06
7A
78
7B
0A
7E
7E
03
15
00
7D
6B
12
05
7E
10
7F
6B
0A
08
03
73
01
78
02
7B
02
7E
0E
04
0A
76
7C
0B
00
04
04
7A
03
01
78
01
01
62
04
01
7F
03
00
7F
68
04
7B
00
00
7C
00
05
01
03
01
0E
06
76
00
7D
01
7C
5F
05
7B
7A
03
02
0A
0D
73
7B
07
02
05
79
7D
79
05
7A
02
0B
08
04
7F
7E
00
04
7D
7D
01
04
71
16
7E
0C
74
00
7F
06
7A
01
01
02
09
00
79
79
7D
00
13
73
03
6A
0E
0F
0C
00
7E
06
7B
00
08
7F
01
7A
7C
77
06
09
6B
7E
0C
09
00
15
7D
05
79
66
7A
02
00
0F
78
7C
00
76
11
02
7C
7B
09
7E
03
73
02
01
7C
76
00
6B
05
01
7F
78
00
7F
0C
06
77
7A
7D
02
7F
74
01
7B
02
0E
7F
7C
05
06
77
06
76
75
79
7F
7F
05
7A
7B
7F
7E
04
02
62
7D
6C
7B
79
02
7D
03
7B
09
7D
03
7D
7D
79
7F
7D
7A
0E
03
07
06
7D
7A
00
7E
04
03
07
03
00
0B
7B
77
02
04
0E
7B
08
7C
6D
14
05
07
7B
01
7A
06
06
05
07
01
06
7E
02
00
0B
67
73
7F
02
02
7C
0C
7F
0F
0D
00
7C
02
77
00
7F
6F
0A
00
77
79
05
05
74
78
7F
65
5D
02
05
00
03
7A
00
75
03
00
7C
0A
07
0C
7C
01
00
00
73
7E
00
7C
04
08
7A
61
7C
0F
70
7B
7D
7E
7A
07
14
75
7E
7E
09
77
09
09
0A
77
74
6E
05
02
05
03
7C
04
78
01
00
00
01
00
65
00
7C
7A
07
76
7F
7B
00
00
03
02
03
7C
00
75
7D
01
7C
7C
7C
7E
7E
01
08
00
17
0D
0B
00
7C
0B
7C
7D
07
06
7E
00
7F
72
13
14
66
0F
7C
00
7A
02
0B
6E
00
00
0C
02
10
0B
06
06
08
02
05
02
15
62
00
01
04
7D
7B
10
74
05
7D
02
79
00
7F
7E
7B
01
00
00
1A
7E
00
7B
01
04
78
05
7F
03
7E
00
7F
7E
00
78
01
7E
00
04
7F
02
7C
00
00
0D
7F
00
00
17
7E
07
00
01
7A
16
04
00
1B
05
7B
0E
05
03
00
02
07
05
6E
7C
7E
7C
79
7E
05
78
06
73
00
7A
00
76
00
02
02
10
08
7E
00
09
14
6E
74
7E
04
00
0B
05
76
7B
01
0C
7B
00
7D
78
76
0B
75
00
0A
10
00
00
77
0A
77
7C
09
7F
79
01
79
7F
7A
7C
08
7F
0C
07
07
7F
7A
7E
06
0C
09
7A
00
73
0D
19
08
02
78
79
01
6A
76
79
02
7B
00
06
04
01
7D
7F
00
7E
01
07
7D
02
7B
0C
7A
02
00
0C
03
7F
6A
07
6F
0A
01
02
77
01
0D
08
76
14
0A
00
0D
77
02
7B
74
01
63
7B
00
01
00
06
78
01
7D
02
07
7B
76
02
7A
00
0A
76
06
01
78
1B
7E
00
06
7E
09
00
73
0B
01
0A
70
0E
08
00
7B
0B
07
00
78
0C
02
06
72
05
03
02
79
76
07
04
76
7B
00
0B
0A
7E
0C
79
00
7C
06
03
04
77
7D
05
08
01
0D
04
7D
03
05
00
7B
05
76
11
00
04
04
7F
00
17
1D
16
06
0E
02
7D
7D
01
7F
09
7E
65
0C
0C
01
08
7A
7F
7A
10
7C
00
02
77
6C
78
0D
05
73
03
7C
00
7F
00
0C
0C
78
13
07
7C
06
02
0C
0E
04
76
7F
75
7F
09
0C
01
0A
7F
06
7A
0D
07
79
7C
00
05
13
7C
7E
71
74
7F
75
13
01
6E
0A
76
7F
00
7B
07
7D
7E
6B
7E
7C
7E
01
00
7B
78
03
79
02
04
6D
7E
0B
02
7A
77
01
79
04
00
06
75
77
00
79
00
7B
06
7B
02
0E
09
7C
01
7A
03
71
10
00
02
77
00
7A
74
77
00
7B
79
00
00
0A
03
00
05
7A
03
74
08
74
01
0D
04
15
0A
7C
6F
7E
01
03
01
03
05
03
7B
71
02
78
0C
0B
00
11
03
03
7A
78
7A
00
00
7F
00
5D
00
13
7E
05
0E
75
70
00
00
79
7E
03
07
00
03
7F
75
0E
7C
79
0B
01
08
71
0D
71
70
00
00
06
77
0A
0A
72
7C
06
00
78
01
6D
78
07
70
7C
00
7E
0F
7C
05
00
00
7B
7E
77
09
00
7B
03
77
73
00
06
7F
00
72
7E
7E
0D
04
72
7B
00
7F
01
0A
0F
7F
7A
72
7D
00
0A
77
00
7E
7B
7F
79
05
7E
0B
10
78
08
09
00
7A
00
00
7E
02
7E
7B
7E
00
00
76
6D
00
00
00
7E
74
04
0B
6E
18
06
7F
7C
00
0B
7D
7C
01
0B
79
70
77
08
7B
72
70
06
7B
7F
74
6F
0E
00
04
00
01
00
03
02
05
67
16
00
7B
01
6F
06
74
0B
00
02
0E
79
75
06
69
0D
05
04
06
7C
14
76
0B
6C
08
05
00
01
6D
78
7D
00
00
04
73
7B
0C
7F
78
7A
7D
01
04
7C
20
7D
7D
18
7E
79
0B
00
06
04
7D
09
7D
79
7C
0E
70
78
17
03
7C
00
7C
05
05
6D
05
00
7A
7D
7E
02
03
70
09
06
72
00
03
04
7C
7D
0F
79
7F
05
02
7A
7F
6C
0A
0B
0E
10
7E
02
00
0F
76
7F
7F
76
04
07
7E
00
6E
01
0B
75
7F
77
00
7E
7B
76
00
00
07
66
06
74
0C
77
00
02
05
04
00
79
04
01
01
01
10
1A
00
7F
04
70
00
08
73
04
13
7E
05
06
68
04
0B
03
79
01
70
79
05
73
08
0D
79
00
00
7B
02
06
07
6D
6D
7A
02
7C
0E
74
6D
0A
76
74
79
73
17
03
0F
02
7F
02
0D
04
7C
7F
01
04
72
77
01
08
02
79
6F
01
7E
74
72
02
25
6E
64
76
09
05
07
71
02
0B
0E
04
03
6C
75
0B
7D
02
06
7E
0B
04
00
75
05
05
7D
79
6F
03
0C
11
0B
18
0C
04
7D
72
03
16
04
00
78
00
08
7F
15
06
07
76
0B
09
09
0F
08
0F
08
02
74
7B
12
7E
09
00
78
02
0A
04
00
7A
74
12
7D
09
74
7B
09
05
75
77
0F
6D
7B
04
00
00
00
06
00
7E
7E
07
0B
6B
7D
7D
0F
69
08
0A
0A
7A
05
00
7F
02
00
01
7A
74
0F
7D
07
00
00
01
7A
00
01
06
08
79
74
6C
0C
08
0D
15
7C
02
78
0B
7A
08
7D
03
7B
06
0C
0A
10
05
71
72
0B
10
01
78
03
74
07
00
00
02
00
5A
00
79
7D
05
08
78
78
00
00
7F
01
73
02
00
7C
7C
0B
07
08
0A
02
7F
79
77
7F
7E
09
67
00
01
76
7A
08
0B
7E
79
00
02
7B
15
74
6A
08
76
00
03
0B
76
08
00
00
6D
72
76
0D
7B
7F
07
0D
05
05
0D
00
00
0E
0F
78
6E
04
17
08
72
03
16
03
0A
7E
7F
7C
03
00
76
02
00
11
09
03
0A
0A
77
79
0D
75
09
07
00
69
77
74
7B
05
7D
7E
0D
00
00
7C
02
00
00
06
08
78
01
08
6F
01
0A
71
00
10
07
0B
04
00
7F
06
79
76
15
7B
09
00
01
79
7B
6E
0E
78
00
7E
00
7C
00
04
04
07
73
5B
00
00
7C
11
01
09
7D
00
7E
14
7E
0E
02
08
7B
05
7A
7D
75
04
09
7A
00
0E
0D
00
02
74
7C
7F
08
04
76
06
78
7A
7D
7E
06
04
06
08
08
79
7F
7E
0D
78
07
7A
00
7A
7D
75
02
06
73
02
7A
04
75
7B
01
7F
00
04
04
77
02
7A
00
75
09
10
01
02
0C
14
7E
0A
00
10
03
0C
68
03
6B
7F
03
00
7B
74
78
02
72
05
7E
03
75
6D
7E
02
06
09
06
0D
7A
7F
00
07
6E
71
6E
00
70
74
03
7F
7F
00
09
12
77
00
7B
0E
7F
00
02
74
0B
00
00
0A
7B
0C
7C
7B
0C
00
77
76
08
00
7A
03
0C
08
7D
0F
07
77
01
7F
00
03
7B
7B
06
78
0D
04
05
7B
00
12
09
02
79
7D
7A
04
08
05
7B
04
7D
0D
1E
77
7E
74
04
0E
01
05
03
79
7F
00
76
03
74
00
00
0A
71
00
08
7D
7F
07
7B
78
07
7E
08
05
74
7B
78
09
7F
05
7F
7E
05
05
09
0C
09
76
7C
0D
06
0F
7E
04
11
7E
76
08
69
00
0D
7F
7E
03
01
02
08
7D
06
04
0F
0D
0A
07
07
7E
00
7E
15
70
00
7E
03
7F
7C
13
78
78
16
73
7F
79
72
78
12
76
03
00
03
72
73
00
7C
73
03
7B
07
0B
7F
7E
10
7D
04
6F
78
7E
7E
00
01
05
05
00
72
01
04
06
76
09
0A
07
79
7A
7C
76
02
08
00
08
02
00
7B
6F
79
78
01
01
00
00
0A
07
00
04
02
7B
7D
6E
7D
7B
01
07
00
12
7F
7A
76
04
7D
7C
7E
06
0C
0E
77
05
06
7F
78
04
02
05
7D
06
0C
7A
00
00
7E
00
7A
00
6F
07
6D
11
72
0A
00
00
7B
7C
02
09
00
0D
07
0E
11
09
09
05
00
0C
7D
0D
7D
71
07
00
0E
02
07
05
78
0D
04
00
01
10
7F
71
04
78
7D
00
76
03
79
07
00
00
18
02
00
04
0D
7D
0B
7C
6E
75
7F
74
00
0E
0E
7F
06
00
77
09
0B
77
04
03
02
03
7A
73
04
00
7C
7E
00
0B
02
7E
76
08
09
00
7F
6C
08
03
00
04
00
0D
76
05
07
7E
02
00
00
70
71
00
00
6A
03
7C
01
02
00
02
0C
07
78
7C
7D
06
0C
0D
11
7B
76
7C
74
75
76
79
7B
02
00
02
7A
02
00
79
00
7D
00
7B
04
10
1A
06
00
03
0C
7A
0F
7D
08
00
05
74
77
02
07
7C
0F
00
07
7E
7A
0F
01
7B
00
0F
0D
00
75
02
12
01
02
0A
74
7B
0A
7E
03
73
00
07
00
05
78
78
00
78
09
03
7F
05
00
02
06
0A
01
06
78
79
02
76
79
0C
7A
7B
00
74
00
05
0C
00
00
02
7E
09
00
7F
78
71
7D
76
00
05
03
7B
02
0A
16
09
04
02
02
05
7B
75
7F
0B
7C
77
7A
7C
06
7B
0A
01
0A
03
00
7F
00
7E
7F
03
7D
7C
76
07
70
76
79
00
0B
01
7B
01
03
76
7D
00
01
01
7D
00
72
7A
05
7C
7B
7C
7C
00
0E
0B
7C
00
7D
7E
7E
72
73
6B
03
03
79
04
32
01
7E
01
06
08
03
06
0A
76
00
07
7A
6D
7C
00
02
7D
03
7D
0B
01
7F
0B
6E
7E
7E
77
7E
02
06
11
7D
7A
7B
6D
09
09
7F
00
7E
08
7D
0E
74
01
7A
01
72
7F
00
7B
6B
18
7E
00
7D
05
03
00
76
00
0A
7D
7D
03
7F
7F
6D
03
7A
08
03
63
02
7F
7B
06
7B
7A
02
74
7D
7C
0A
7D
08
05
06
7E
79
15
7F
05
00
06
00
02
08
00
7E
05
02
04
02
7A
0D
01
7D
03
79
04
70
7B
74
7F
7B
73
77
05
05
00
78
0A
00
79
08
06
7D
06
07
00
00
04
00
00
0C
00
78
78
03
00
7C
7B
03
08
7B
6D
76
7D
09
7C
03
7E
7F
7C
00
03
7A
00
7E
79
7C
7B
7F
7C
00
00
78
70
00
7B
7D
7C
7F
72
7D
0B
69
79
77
09
7D
05
78
75
01
7D
03
7B
7F
02
07
7E
7D
6A
05
01
06
7C
7C
03
7B
04
00
00
7D
00
7A
00
03
75
7F
7E
6C
05
00
00
03
7C
7E
77
00
7A
7F
76
7D
11
07
00
7B
7C
01
05
07
13
78
00
06
01
79
09
7C
7C
01
00
04
72
22
04
76
00
7A
00
01
06
08
74
00
00
7E
79
7F
70
76
01
01
7F
7E
08
7D
04
00
12
01
7A
7F
0A
14
73
00
77
06
00
0C
01
01
7E
01
00
1A
7D
00
7B
7B
07
73
01
7F
7E
02
7F
09
07
00
07
03
7C
77
08
01
0D
18
00
00
05
01
00
00
09
7E
77
7F
7F
7B
0A
05
7F
18
7F
7A
07
77
79
78
03
11
78
18
7C
7D
04
05
7B
66
0D
17
0C
00
6D
00
7D
00
04
75
76
02
77
00
7E
5F
76
00
7C
74
00
68
7D
77
0A
00
09
0E
0A
7D
0B
7C
1D
04
11
7E
77
7C
00
70
72
78
02
7B
6E
77
01
73
01
7E
00
07
7E
6F
78
7A
69
70
01
08
6C
75
72
00
7C
7B
6B
00
7C
08
7F
78
69
7A
1F
7A
0A
00
0C
00
75
0B
7F
00
77
09
6F
03
79
78
03
0D
79
00
05
0B
01
58
74
25
04
71
7E
00
7A
7A
0A
08
02
79
04
09
70
02
0B
7E
7F
0F
7F
03
0B
00
7E
7E
04
71
7C
08
00
7C
00
07
00
78
07
76
7E
71
16
74
00
7D
02
75
00
7D
77
00
04
78
13
71
00
7C
79
00
00
08
78
7C
05
04
01
01
61
74
09
7C
7B
02
03
01
7E
75
7E
02
04
00
76
06
06
7D
7D
0C
07
00
03
71
12
7F
03
06
11
05
0B
1E
7C
02
09
7E
01
7A
16
00
03
74
79
7D
7F
7A
03
05
04
07
07
7A
0F
78
6A
7B
14
10
6C
04
00
0C
01
06
7C
70
7F
7C
7E
71
08
01
1A
08
73
7F
04
09
00
70
06
0D
64
01
06
05
06
24
7E
7D
79
06
06
79
0E
0B
0E
76
7B
00
7E
7C
00
05
07
7A
09
08
7C
73
17
75
00
79
76
71
6D
71
7D
08
73
79
7D
01
00
09
7A
05
02
03
7B
7E
7B
01
7E
7D
7A
6E
07
02
00
76
14
78
00
0A
78
03
03
74
7C
74
7C
70
09
7A
0F
07
01
00
0B
7F
00
03
7C
01
7E
07
7C
00
00
7F
7C
00
75
7B
74
77
76
08
00
70
7F
1C
78
7B
00
04
77
04
78
7A
0C
79
77
0A
01
07
0A
67
7D
6F
01
00
74
05
76
00
00
7A
00
7C
00
0A
7D
07
7A
01
7E
00
00
7F
03
7F
0A
00
74
05
72
01
11
6F
71
7E
00
06
04
7B
10
74
00
01
22
7D
03
7C
03
7E
00
7D
73
0C
09
76
00
07
00
78
09
78
7F
00
00
7B
74
0B
79
7A
7E
7D
0C
02
7E
0D
6C
00
7C
7E
7E
07
0A
08
7D
7F
0B
11
05
79
02
07
09
00
00
7A
02
00
7C
7E
79
6B
08
05
08
79
78
7E
7D
00
0A
7A
7F
05
7F
00
07
0B
00
00
07
04
00
00
7B
7B
0A
7E
02
01
67
79
7D
78
04
7C
0E
7B
7F
06
7F
67
01
17
08
7B
17
70
05
7B
7C
02
0F
00
0C
00
09
00
14
7E
79
09
1C
00
13
0F
00
04
7D
08
00
77
0A
76
0F
04
0B
06
0E
04
00
7E
0F
04
0C
0A
08
07
00
0A
17
05
0D
0E
7C
76
7B
04
78
7D
0A
07
7C
11
0E
14
64
7E
03
10
74
7E
00
00
00
12
74
6E
0E
1C
03
04
68
04
0D
75
01
00
0E
52
01
0B
7A
00
7C
7B
75
7C
7D
02
71
0D
03
00
0A
7F
12
7C
07
12
7F
05
02
7F
06
07
17
72
02
00
00
01
12
05
08
76
02
02
7F
00
06
00
0D
7E
00
6A
7E
7D
74
12
73
7C
00
0A
02
0A
05
79
7B
00
00
02
16
0F
00
7C
1F
0A
04
00
14
6E
00
7E
77
02
00
78
78
07
69
7E
09
05
10
0A
03
10
6A
7C
02
0A
09
0A
6F
06
7C
00
0B
0C
14
0B
7B
71
0E
09
08
70
6B
06
79
7C
1B
7F
00
05
09
0A
10
0A
7D
09
76
6D
78
08
72
7E
76
02
08
77
08
7A
01
06
0F
01
7E
1D
04
7C
09
04
0F
0F
0F
06
0A
53
08
0D
09
7C
13
15
0D
07
0C
76
7D
0B
04
0A
04
7F
18
7A
09
7E
0B
6E
05
71
6D
78
7B
05
11
1A
7C
0A
04
00
72
05
14
0D
0B
7E
02
01
73
10
12
0A
04
06
7D
00
7C
77
7A
6D
0B
77
0A
05
00
02
7D
0E
03
7B
12
7A
05
0C
03
02
07
74
05
08
00
02
12
04
00
0B
03
7F
75
07
74
04
70
03
7C
0C
7E
05
05
00
05
0D
00
02
04
7C
76
7D
6D
00
00
13
7E
00
6A
6D
65
7F
0C
7E
07
79
12
0A
07
06
72
75
19
02
7A
08
04
75
01
05
05
00
07
12
02
71
06
7F
01
0D
7C
00
00
09
00
77
00
77
0B
0B
0F
04
14
00
00
0B
7F
03
7D
00
7A
0F
0E
0D
16
77
61
04
05
02
06
03
0B
01
00
0F
11
6E
7A
04
0B
7E
00
04
07
64
71
03
7D
7C
00
02
74
0D
05
00
00
79
06
61
78
79
15
0F
03
7E
0D
0C
04
00
0D
09
7B
0C
0B
01
04
7E
06
07
7F
00
06
7C
0B
05
00
10
77
00
10
6D
7C
7D
06
02
01
7D
08
72
07
00
07
7F
01
06
02
02
18
05
00
00
05
0C
00
00
14
0C
7F
77
7C
02
66
07
00
06
7C
7E
07
0E
0C
03
0B
77
01
0E
7F
79
0C
77
7E
71
0B
0B
7B
00
7B
00
7C
00
7E
00
72
78
0A
00
04
7B
17
01
0D
7C
00
04
02
13
08
79
03
73
08
03
02
7F
0A
78
01
0A
71
7E
00
05
07
7E
01
0D
7A
09
7F
7F
00
05
06
03
01
68
74
08
0A
77
07
67
77
0C
79
00
05
7E
6F
02
09
01
09
00
78
07
1A
11
11
00
0D
05
79
09
04
00
07
7A
05
0D
7B
04
79
0D
09
00
02
08
03
70
74
0D
7F
0A
7A
05
7B
7C
07
03
78
7B
14
04
0C
78
07
08
7F
11
00
09
04
00
0D
04
76
06
05
0B
6E
02
14
00
00
74
08
05
05
7C
01
09
00
75
03
7D
00
03
05
00
7A
0A
09
74
00
04
14
0E
00
04
00
7C
11
13
02
0D
7D
17
0D
76
06
0D
79
09
7E
7F
6B
78
7F
00
74
03
12
7C
09
12
07
0A
0A
75
7A
15
00
7D
04
7F
08
75
73
04
7D
0A
04
7D
7F
6F
72
15
7B
06
7C
01
15
07
7A
0A
76
08
7F
7D
00
0F
7F
12
0B
05
7C
79
7E
14
01
77
7D
06
7C
01
0A
14
00
7F
7C
05
1C
7B
7D
76
0E
0E
79
0E
0F
03
00
07
0B
06
14
78
7F
08
01
78
03
0A
7C
00
0A
00
00
76
7D
06
06
01
6F
05
11
74
7F
0C
00
09
01
7A
7A
09
11
03
79
76
00
01
7A
78
0B
07
7B
14
03
00
02
0B
04
16
19
00
00
02
0D
02
00
79
06
01
01
7F
79
7F
70
09
03
75
00
7A
07
00
7F
0B
00
09
0D
7F
0B
7E
16
00
00
01
79
00
01
7C
19
07
0B
0B
02
07
04
04
7C
01
06
04
04
7C
02
7A
05
02
7F
7E
02
05
0A
78
00
7D
00
7B
77
09
06
00
00
7F
00
01
00
05
79
01
7C
01
09
00
00
79
02
08
04
00
0C
0B
79
77
7A
79
7C
7E
05
0C
7B
7F
01
09
00
7C
01
06
74
03
08
00
00
7F
04
0E
0B
0F
08
03
00
04
01
0C
0B
00
00
1C
02
16
01
7D
04
79
0A
02
79
0A
76
00
7E
79
05
6E
0E
13
77
07
7F
09
06
74
06
09
10
04
00
71
01
00
00
0D
77
13
76
04
02
78
05
0C
76
00
00
04
07
77
0C
06
0B
0A
00
00
04
02
00
00
03
09
04
05
68
25
79
7A
79
6E
7D
05
03
7E
09
11
00
01
05
76
7E
05
0C
7A
77
6F
7B
74
03
00
71
00
7B
00
7B
7C
79
73
78
00
79
62
00
11
7B
72
00
7C
75
67
7B
04
73
0A
7E
7F
06
7E
17
76
74
7D
03
7E
00
6A
02
07
02
7D
77
76
7D
7D
7C
78
7B
00
03
71
01
75
06
74
7B
7E
76
72
72
00
02
7D
7A
00
7F
74
7A
05
72
7D
15
00
00
00
08
7E
7C
7A
76
00
7D
0C
7B
01
7A
74
11
01
7A
00
03
09
7E
74
7B
07
03
79
06
00
7C
02
75
79
00
73
7C
16
6F
7B
02
06
7D
7C
00
0C
07
00
75
7C
05
6B
7F
03
06
78
73
79
00
0A
05
7B
0C
01
11
71
00
05
78
70
00
6E
79
03
06
7B
11
78
00
78
7B
79
00
00
7A
04
00
0B
05
7E
6E
7C
0F
00
7C
04
76
77
7F
7E
7B
07
01
00
00
7D
02
74
7C
79
0A
08
03
04
07
77
06
77
7E
7E
08
7A
7E
7C
0B
7B
0C
01
79
73
77
6F
04
7F
7C
77
09
01
7B
76
7B
77
00
7B
72
7A
0D
04
74
01
7C
00
70
78
07
72
7B
01
0C
75
75
7C
06
7F
78
7F
75
7E
7B
06
02
0D
72
78
00
02
0C
75
78
7C
7E
7C
06
77
0B
67
08
7E
01
00
7B
7D
7E
02
04
7D
0B
0F
72
05
7C
7D
08
04
78
65
72
7F
7F
07
75
7C
00
7D
00
12
77
01
08
70
0A
7E
01
7A
7C
70
02
7E
02
05
00
76
79
0A
00
78
7F
09
77
78
77
74
7B
75
15
79
0A
7D
01
00
07
7E
00
05
03
00
76
0B
77
00
00
7F
79
00
77
06
79
6D
71
74
78
7A
07
07
7A
12
72
6C
7F
02
7A
7D
00
7B
01
7B
0E
7D
0F
6E
03
6E
7E
02
03
7F
0A
00
00
00
00
7B
00
0C
74
00
7F
02
00
00
00
77
75
78
7F
00
79
07
7E
7F
06
73
78
7D
7E
08
05
6F
02
7D
00
00
7B
06
03
78
01
7C
00
02
04
0B
7B
74
05
7A
00
01
7E
01
72
00
00
7E
77
09
7D
79
7E
75
0A
02
7B
71
76
00
01
76
04
08
07
0B
08
79
00
0A
02
7F
04
04
05
04
00
79
74
00
03
05
00
04
04
7D
10
00
03
7C
00
00
0A
7F
7C
7D
07
7E
06
02
00
00
0B
08
00
00
0A
03
09
78
74
06
7A
01
03
00
01
7E
12
7B
79
7E
78
7F
78
1D
01
08
7D
76
04
11
07
15
02
00
79
00
77
00
04
7E
0A
0A
76
00
7C
0D
02
77
03
00
00
7F
79
7A
10
02
1C
79
7C
7B
07
03
77
0D
12
74
08
0D
00
7B
0A
04
7A
78
7F
7F
02
00
07
7D
7B
05
0E
06
00
7B
6D
00
6B
75
0F
76
77
00
6F
05
05
79
78
7B
06
00
05
7D
78
78
01
00
7C
77
0B
0A
06
00
04
74
03
0A
7F
0C
06
77
0A
00
01
7B
71
20
02
01
06
75
04
01
09
02
02
7F
00
03
77
7C
03
05
7D
72
02
7A
01
7E
79
00
6E
09
0B
7D
0E
7C
7F
7D
0B
07
00
03
75
70
00
7F
76
6D
00
02
08
79
00
02
6E
77
02
74
76
05
00
76
79
06
00
77
76
78
71
00
76
72
6F
71
7B
7A
77
7E
03
02
06
09
74
00
04
00
79
7F
01
7F
7A
0C
74
79
7E
0B
0E
74
0C
7E
13
02
7F
13
74
06
7D
7B
7C
7C
7C
6E
08
03
00
7F
0A
05
75
73
00
09
75
08
01
77
01
07
7A
7F
76
7F
03
7D
70
79
00
00
04
75
76
7A
0B
79
7B
79
0F
0D
7D
04
77
74
02
05
7C
03
79
7E
77
0F
01
04
00
7A
78
03
72
7A
7D
6E
0B
00
79
0B
79
07
74
7C
7F
7B
76
7A
7C
04
04
01
08
09
10
7C
05
75
03
09
7C
7A
00
01
01
76
7F
05
03
7B
03
04
03
0D
06
71
7F
01
00
02
78
79
00
06
00
7D
03
05
72
00
65
7B
7A
01
7D
7B
7B
00
78
70
00
01
0D
74
08
74
6B
00
00
7D
14
00
04
73
7E
7A
7F
14
03
04
78
08
08
78
03
02
7C
03
02
78
73
01
6F
7C
07
06
75
05
78
02
79
7E
01
6C
06
00
00
01
00
0D
00
76
10
00
06
01
0A
00
00
7E
02
79
72
00
72
79
7D
7F
79
63
06
7F
02
7D
00
7B
03
77
00
79
16
03
6B
73
7F
7E
00
7B
7A
73
0C
7C
07
03
00
03
00
04
78
00
00
0B
79
78
7D
09
7D
08
79
7D
0A
0A
05
00
72
08
7D
77
7F
70
06
08
79
7B
00
0E
04
07
01
74
00
0B
01
00
7B
74
00
7D
7A
05
79
05
04
76
08
00
7F
77
09
04
7D
04
73
7C
00
00
73
78
00
00
06
78
7B
09
7F
7D
06
79
02
77
01
7F
01
05
7E
78
78
09
7F
72
02
08
0C
07
05
7B
74
7E
10
00
76
00
02
00
0D
7C
73
77
0C
00
5F
74
2A
7D
01
00
00
71
76
6D
7C
00
04
09
0A
08
02
00
14
01
0D
0D
7A
78
00
6B
7A
6C
01
04
79
0D
14
7D
07
74
70
7E
04
02
7B
08
19
79
75
06
74
19
03
00
7C
7C
71
04
7A
79
12
09
74
70
15
77
7C
00
00
0A
06
71
0E
00
04
01
73
06
7E
74
0B
0B
01
00
05
09
7F
0A
7F
7D
01
7A
7B
0A
7C
06
7B
0E
7C
01
7D
7F
0A
0A
78
74
0F
07
05
00
7C
00
78
7F
01
7F
05
08
07
78
04
7A
00
7C
0B
7D
00
01
18
7D
00
77
6F
76
00
79
7C
7B
7E
72
10
7F
00
0D
01
07
00
03
7E
7E
00
79
0C
07
01
00
7F
73
70
76
08
00
76
0C
08
04
7F
00
7C
7D
78
06
7C
5F
0B
06
03
7A
7F
6F
05
07
6A
7A
7A
70
03
7D
7A
05
7B
07
16
04
0A
06
6F
03
0B
0B
07
06
02
7B
11
04
73
02
01
00
77
09
7C
75
0E
7F
6D
7D
07
09
08
03
74
03
77
77
7A
06
01
02
09
04
7D
07
06
7E
11
08
7A
7F
06
02
02
09
06
07
7F
01
06
79
07
01
0C
00
0B
08
04
05
04
02
01
7D
06
01
14
7C
04
03
06
7C
0D
7F
0C
7C
66
7F
07
0D
00
06
75
72
7E
13
7C
12
7D
02
7F
7D
03
10
7D
04
00
7B
7B
7B
00
7C
7F
0A
14
73
01
7A
09
75
03
05
14
7C
01
00
02
08
00
78
15
04
07
79
7F
00
00
02
7E
00
7D
05
08
79
6D
03
0D
7E
75
15
7C
02
79
7B
7D
7B
06
7F
7C
07
7F
15
00
0B
18
76
04
7F
7A
79
03
74
05
00
00
01
00
02
00
7D
02
11
7B
78
7F
00
00
04
0A
6C
04
00
02
05
72
7F
7A
79
00
7F
01
7C
05
7D
0B
7F
00
00
74
01
04
08
7B
02
00
7C
7D
02
04
6F
10
7D
00
02
0E
7A
7C
00
00
04
7F
73
12
7B
04
77
00
03
07
00
76
00
7F
07
77
7B
78
14
79
79
09
7F
7A
03
01
04
00
7D
00
7F
79
00
08
7B
7F
05
7D
7F
17
04
03
0F
07
00
1A
0D
06
7F
02
7D
74
7E
00
00
6F
04
00
00
69
05
79
02
79
17
7A
79
7F
7E
09
03
0E
7A
7C
7C
09
66
61
7E
7D
01
76
08
7F
15
75
72
7B
00
79
00
06
00
0F
00
04
12
0E
00
0A
0E
08
7B
7E
00
00
09
7C
11
7B
0B
75
0B
01
7C
7F
07
70
6F
7D
02
7D
12
00
04
13
13
08
7E
7C
75
1D
08
78
7E
7F
06
7D
0F
02
13
00
0A
06
02
0B
04
7B
00
73
10
12
7B
03
0F
0F
74
20
7D
72
7D
03
00
06
12
04
73
7C
00
03
7C
7F
00
79
7D
7A
06
7D
00
7F
79
01
19
7F
65
7B
7D
01
7A
06
0E
04
74
76
7E
05
74
00
75
07
02
7E
78
07
74
06
00
07
01
76
02
7E
05
7D
04
00
08
00
06
11
0A
77
09
03
73
00
7F
02
7A
00
77
14
78
10
7B
7C
7E
00
77
76
04
00
7C
7B
06
05
7C
15
03
7A
04
7F
01
02
02
7C
00
05
02
17
7D
0A
00
7E
00
76
02
01
7E
04
79
7E
08
7A
0E
01
03
76
04
78
7C
76
0B
73
0A
73
03
7F
1F
1C
05
75
07
7A
05
0A
09
79
76
7A
7D
09
03
7B
06
5C
7F
0A
07
7F
0B
02
08
75
10
7E
04
7D
19
7B
09
0E
03
02
00
0B
03
04
6F
77
13
75
01
02
7C
06
69
7D
7A
75
06
11
01
6C
08
79
78
7D
00
73
08
00
7D
7E
07
7A
06
12
61
0D
72
04
73
02
02
74
79
7E
7C
06
7F
0D
7C
00
72
22
00
7F
71
02
7B
02
7D
0D
02
7D
77
7F
01
00
7C
12
01
00
05
77
07
7D
14
09
7B
0A
13
74
7F
01
09
07
00
0C
02
00
00
7F
78
01
02
76
00
00
01
7E
00
05
05
00
71
00
6E
7A
0B
05
07
02
02
7B
7D
06
06
7B
04
08
6F
05
7E
74
0D
79
0B
78
77
00
7B
05
11
7F
00
00
03
00
1D
00
7C
7F
07
00
7D
0C
00
00
0B
7B
78
7D
00
78
02
01
7E
7B
00
7E
7E
05
06
7E
79
75
7D
00
06
69
78
01
7D
76
07
00
03
02
6E
70
0C
78
03
00
03
05
13
05
00
00
00
09
7F
76
7A
07
76
78
7D
0C
6D
25
00
6F
75
79
7F
12
69
6F
00
08
79
77
7E
05
0B
77
7C
00
11
03
00
01
7B
06
7F
79
04
7A
77
04
7F
01
00
00
79
00
00
02
01
04
77
00
00
7A
01
00
00
10
7E
7E
01
7A
79
04
7A
08
0A
7E
02
76
03
08
08
07
16
78
7B
05
7D
7D
0B
03
70
79
02
79
00
10
00
03
00
05
01
74
7E
0C
00
08
00
0C
0A
02
7A
00
79
02
08
7E
7C
7B
00
04
04
06
76
09
7E
7C
02
7B
7F
00
04
01
78
02
04
7F
06
03
04
79
7D
00
7C
02
05
76
07
01
78
05
77
6F
0A
09
00
08
02
7D
7A
0C
09
00
0B
62
05
7E
05
05
00
7E
70
78
7D
7D
00
72
07
71
05
03
07
03
01
0A
00
02
0B
14
05
7B
72
7B
7C
03
7C
06
08
13
7E
7C
01
77
03
09
7E
7D
73
05
7B
04
11
7F
00
0A
79
07
6F
0A
79
72
06
74
74
00
73
07
08
05
76
03
7C
00
77
77
01
00
00
12
08
7D
07
03
05
00
0E
05
04
00
01
09
02
6F
00
0D
06
0E
0D
0A
6E
72
7D
00
01
07
7F
03
7C
74
00
04
7F
06
03
7F
7F
14
02
02
7A
71
17
79
7D
05
7A
06
79
13
06
06
06
08
0B
7F
6E
7D
06
02
7E
00
09
73
74
07
7E
1C
0C
7D
7F
0A
1B
78
00
74
78
7B
7F
07
07
77
70
06
08
08
06
02
0B
01
00
7F
7D
01
7F
03
10
09
7E
09
79
7B
01
0C
61
01
6F
7D
77
7F
02
78
07
77
0A
02
00
79
79
0B
74
01
00
7C
0A
77
08
19
04
09
00
77
00
7C
7C
7E
70
7A
6D
07
04
00
7A
03
0D
05
72
0C
7E
0B
07
76
0B
05
05
7F
00
00
07
77
0B
00
7E
7F
03
7B
6F
09
03
7F
6E
0B
07
7C
76
7E
00
03
14
00
7B
0D
77
7B
7E
7C
00
00
08
78
00
74
77
76
03
06
02
7D
08
0C
75
7B
0A
7D
03
10
03
7E
02
7C
03
01
07
0A
09
0A
76
7F
7B
03
7D
02
7C
11
00
00
03
00
10
00
7A
7B
08
03
7B
05
00
00
03
05
04
00
00
07
07
04
79
7E
08
6F
02
00
7F
75
7D
0D
0F
00
7C
79
02
08
02
0F
03
00
7C
75
68
77
04
13
7C
00
00
7D
05
0F
00
00
74
06
6E
03
74
08
02
05
07
7D
79
09
00
7B
03
7D
0A
07
79
0C
77
08
0A
74
7B
00
7C
7F
03
00
73
76
00
08
75
7C
08
09
01
75
01
0C
13
78
00
7B
03
7C
77
04
7B
0A
77
00
00
02
7A
00
00
01
0E
7C
77
03
11
6D
00
01
74
03
0D
02
04
04
78
11
7A
08
7B
78
0A
6C
07
7D
1C
06
0A
02
00
7E
00
05
00
7F
08
0B
08
74
00
76
12
79
05
02
77
00
16
74
72
01
01
0C
75
04
03
7F
01
6F
02
7B
77
0D
0D
00
06
03
7B
04
7D
03
74
07
06
7E
05
7F
07
05
02
03
05
77
07
72
6E
17
79
76
00
79
7C
0C
7A
7F
7E
05
76
19
76
69
05
03
00
02
1B
10
01
00
00
03
7E
0F
07
78
09
67
03
07
00
0C
04
6F
16
03
72
09
01
08
7E
02
08
7C
7A
00
7F
05
75
74
04
01
07
7B
72
05
01
7D
00
7B
7F
03
05
7F
72
08
74
00
00
00
09
05
7E
01
0D
03
7A
00
7C
7A
7C
00
79
74
7B
00
77
6A
79
00
7D
07
08
00
78
09
7E
0C
7E
73
77
74
7D
7D
7F
77
7C
03
7E
7E
0B
7A
01
01
00
03
07
78
07
02
77
74
08
05
13
03
7C
1A
07
7D
7F
7F
76
75
00
07
06
7F
06
57
00
08
05
02
05
0F
05
07
7E
08
0A
01
7A
7B
7C
06
6D
6D
6C
76
01
00
71
02
77
7B
01
04
7F
05
01
02
77
6F
6F
00
04
11
7F
7F
70
00
70
7C
0C
7F
09
7D
0E
0C
7A
7F
01
03
0B
70
7B
06
7D
0C
00
74
09
77
03
03
08
7E
7D
04
69
02
75
02
7A
10
06
79
78
0D
7F
74
7D
06
7E
00
76
0D
7E
7B
02
01
7A
7D
01
04
73
76
7E
02
06
00
03
6E
05
00
7D
7D
04
02
0E
68
03
70
0F
78
04
76
78
09
00
08
79
00
7B
07
03
77
05
7F
00
00
7B
77
00
0B
74
0C
0F
79
7F
72
7E
79
58
10
07
0B
7E
79
03
02
08
7F
00
01
00
00
06
5A
08
77
11
02
0F
04
73
08
00
00
7F
00
16
00
77
01
06
0B
7C
02
00
00
0A
7E
07
76
00
7F
7C
74
06
78
01
0B
00
06
08
02
79
04
70
00
7B
0F
6D
63
7D
07
0E
00
06
79
78
7B
0B
73
7C
00
01
7E
7E
05
00
00
12
04
76
72
7F
00
7C
75
79
7F
7D
0A
00
01
78
06
00
7D
6B
7B
10
7A
7C
00
0C
01
04
78
01
00
06
77
00
73
7C
07
6E
7B
05
63
07
7B
73
7D
00
09
7C
0B
06
00
03
7B
78
00
00
73
79
00
00
77
73
02
0F
79
00
11
08
03
11
7B
00
6C
7C
02
06
75
0F
7B
01
02
7F
0E
0D
7E
0B
71
01
08
00
02
00
06
00
06
7E
7B
0E
07
00
15
15
74
06
0A
0E
00
14
79
7D
7C
7B
7E
08
03
09
7F
0D
01
71
0B
01
01
02
00
0D
16
08
7B
14
7E
0C
0D
1B
6E
0A
10
00
06
7A
10
79
77
7C
00
72
0B
05
04
00
03
04
0C
7B
0B
04
08
7B
04
0D
04
00
06
00
04
04
06
08
12
00
12
73
00
0D
76
79
13
01
7C
00
02
7E
01
20
11
0F
07
0D
09
06
06
08
05
6A
7B
1A
03
02
09
0A
7D
02
79
0F
06
03
79
00
7B
0E
79
7B
05
02
05
7E
07
76
00
0B
02
00
08
00
01
7C
00
7E
01
01
00
74
09
77
7D
0A
6F
7F
00
06
7B
0F
00
7D
7B
78
7F
07
75
0A
7E
7F
03
19
7A
01
11
01
12
07
79
7D
7E
00
7A
00
02
7A
0D
77
03
05
04
03
70
75
09
6D
02
73
01
7E
07
0A
09
09
0A
78
04
79
10
15
6E
07
0B
01
07
71
7D
79
12
07
7E
7D
7A
03
01
02
01
0C
01
74
04
0D
13
08
00
06
01
06
00
01
04
7B
08
06
08
7D
7F
65
0A
02
11
07
0B
76
04
77
16
14
10
77
05
7D
00
1E
00
04
0B
00
02
06
0D
0E
01
01
06
05
75
14
15
70
06
08
05
24
14
6D
01
71
0D
03
7C
02
00
72
0C
73
09
00
0B
12
0A
7C
0A
04
03
73
05
02
00
00
03
05
00
13
06
7C
06
1C
79
7B
15
16
6C
7A
00
0A
7F
00
7E
0D
00
0C
0D
7C
0E
01
78
00
00
7D
78
00
7A
06
7B
0A
05
77
01
05
0B
14
7E
06
00
19
03
7F
79
7A
7F
7A
0F
05
0A
07
71
7F
01
03
77
02
00
02
0E
00
00
77
00
0D
00
09
77
7C
7F
7D
7E
00
00
0B
12
17
73
00
08
03
71
00
0F
07
7E
79
7F
0D
08
0D
11
02
00
0A
6D
73
76
7D
00
09
00
04
7D
0C
6D
03
15
76
00
09
08
07
00
00
00
75
00
7A
0D
71
00
78
73
07
0C
08
15
00
05
7A
78
7F
04
23
71
08
79
7E
7D
03
7F
02
78
02
00
14
7D
00
79
7E
0A
73
05
7B
0D
74
03
7C
00
00
06
05
77
07
05
7D
06
10
00
00
72
72
00
00
11
7F
72
7D
78
05
78
01
78
09
08
03
78
7F
02
06
08
27
0A
0A
01
0A
74
10
76
02
01
0D
0A
00
03
00
02
00
6D
7C
6D
71
23
00
1D
08
05
7D
7E
05
00
7D
7E
0B
02
75
05
02
05
00
02
7F
13
7C
05
0C
7A
6C
00
11
0E
03
7A
01
08
0E
07
02
0F
03
11
72
06
7A
7D
7C
07
78
0C
7E
7C
07
7E
00
09
7D
0A
7E
7B
15
03
03
13
06
08
04
06
00
7E
7F
08
05
06
00
01
77
7E
02
02
09
0B
04
07
00
05
03
13
1C
7C
78
05
02
04
0B
77
0E
72
6F
09
06
00
13
12
05
7C
01
06
03
7E
01
01
00
08
03
05
08
7E
0E
06
05
0C
79
00
00
73
75
7E
7E
0B
08
00
06
13
03
00
06
0D
00
05
0C
09
08
00
03
7C
06
00
07
7D
7D
7B
0A
09
03
01
08
7C
75
07
79
74
03
78
0B
7B
7E
77
00
73
01
18
05
03
7B
79
05
04
07
08
07
0B
00
01
7F
0E
78
07
73
06
7D
09
03
0C
70
05
0E
04
00
12
04
78
00
02
7F
7C
08
02
79
7E
16
05
11
05
00
07
7A
0E
08
7C
7E
03
7A
7B
02
13
08
72
05
01
07
0D
7E
02
02
03
08
01
09
02
03
02
77
05
09
20
7F
7C
08
08
4F
04
06
08
00
0B
00
0E
05
7E
77
05
7E
7C
12
58
01
01
0B
01
0B
7E
01
0C
6D
21
79
04
0C
00
0D
06
17
02
08
7C
04
05
01
77
66
04
02
06
00
00
7E
75
7B
00
0B
04
7D
05
00
09
04
73
0D
0B
09
03
71
7E
00
01
7B
00
7E
04
7D
04
7F
77
00
00
09
04
00
01
7F
03
0A
14
06
7D
13
10
06
05
7F
07
7D
74
03
04
04
02
0C
7A
0E
06
6D
13
68
05
7E
7D
07
77
0B
7C
00
00
7C
00
15
00
0B
06
0D
03
0C
7F
00
00
09
78
18
6E
00
01
01
1B
04
7B
78
03
01
01
71
09
07
14
01
00
79
01
11
00
0F
05
07
00
7C
09
7D
08
0C
7D
04
00
06
0E
15
12
00
00
66
03
04
0C
02
78
05
0A
09
79
07
0D
00
0C
05
04
0E
79
10
02
04
0B
04
00
03
01
05
07
7D
00
69
75
00
7E
7A
76
11
0B
07
7A
05
05
03
7A
00
09
08
02
02
7F
02
7C
02
00
00
7E
13
00
00
0B
08
7E
7F
79
0C
7F
01
0B
7E
0C
02
0D
01
7C
01
13
7B
0E
0C
00
00
04
7B
04
02
7B
7C
0D
00
73
00
77
00
08
01
7A
7D
1A
00
04
75
7F
7F
77
75
00
7C
7F
6D
7F
76
7D
02
0C
7D
03
7E
06
7C
6D
02
03
7D
00
74
14
7A
00
02
7C
7E
01
02
0A
06
7C
07
00
7C
04
05
0A
7A
77
10
7B
04
7C
00
74
7D
77
7F
0B
7C
7B
11
10
0E
09
0E
01
00
7D
75
7E
01
03
00
00
75
7E
07
7F
7C
7C
0A
7C
00
02
03
6F
1E
7A
09
04
7D
0C
7E
05
74
0A
11
04
09
03
08
7E
03
7C
7C
0C
06
75
0E
06
00
72
06
06
70
08
06
7D
0A
7F
74
00
00
7D
71
0A
73
03
70
00
07
7A
7A
00
6F
74
07
06
75
01
77
00
7C
05
7E
00
05
74
7F
04
7F
7F
7D
6F
03
01
03
00
07
75
03
0E
0B
7E
03
7C
00
79
00
06
0B
09
69
75
0A
08
04
71
75
7B
7E
73
7D
7F
73
7D
7D
10
05
05
07
74
7E
01
0E
7C
06
7D
78
08
09
0C
7D
01
01
01
77
7E
04
14
76
7D
7C
08
06
78
76
08
77
06
72
7F
7E
7B
08
7D
7D
01
00
08
7F
7F
05
0C
06
7F
07
01
03
7C
5D
07
7A
05
05
77
7A
10
00
7E
78
01
00
7D
7D
06
07
7B
7C
0C
7E
00
07
02
07
7E
03
7C
09
0E
7F
0A
7F
06
7F
7C
7A
00
04
79
7D
06
78
6F
06
0B
06
02
00
08
7C
05
01
00
09
01
7D
00
0B
03
7D
7D
06
77
01
77
04
08
04
7D
7B
06
00
7F
01
00
04
0B
71
0A
7A
02
00
00
7E
7C
00
7F
7A
7B
73
77
70
05
79
7B
10
7F
7B
72
02
02
7D
7F
7E
02
0A
7B
7D
08
04
7B
78
03
07
7C
07
7D
6F
00
00
00
01
00
02
00
7D
78
7F
05
01
07
00
00
77
0F
0C
00
00
72
78
7A
08
0B
73
02
01
7F
7C
09
71
09
77
00
00
69
7E
75
7A
0D
03
00
79
7E
0A
72
7B
07
7D
00
7B
07
76
08
00
00
02
78
74
0B
04
01
7A
06
08
04
7A
04
00
73
03
0E
75
03
14
0B
07
03
10
7F
01
7C
04
04
7A
00
03
6B
00
02
7F
7A
7F
7C
01
78
08
7E
7E
7E
00
01
02
7C
0D
00
7F
02
05
00
00
10
0B
00
00
05
7B
00
05
00
07
7B
7A
01
7F
01
05
05
76
03
7F
7D
7E
05
04
01
07
6B
7B
02
75
02
12
0A
00
7E
00
0B
00
74
7B
0A
02
75
00
0A
7D
07
76
00
75
00
75
06
7D
09
7C
0D
7F
0C
78
7F
7E
7C
05
7C
03
7A
10
00
7B
01
7F
07
7D
05
79
75
71
0A
10
79
03
7F
00
08
00
78
77
0D
05
7B
7D
0A
00
06
77
7E
77
08
0C
0B
7A
75
02
7A
0A
7F
00
07
6C
0E
0E
0C
00
74
74
05
7A
03
07
78
0C
0A
00
04
79
04
76
79
03
7B
7C
03
7D
7F
79
1E
0E
02
76
02
74
6E
03
04
79
02
0C
7D
0E
06
00
02
7C
78
75
75
78
7E
04
00
6E
00
7B
71
07
0A
6F
74
05
00
7E
04
07
00
09
08
09
7B
05
01
6F
00
6B
72
7B
00
7D
79
79
78
02
79
7B
7E
7F
7B
01
7F
0A
77
0F
7B
11
03
7C
78
00
6B
0D
14
12
04
0A
6D
7B
01
7A
7B
02
7D
00
0C
7F
7D
6E
17
7D
02
02
03
7C
00
78
76
75
77
00
14
08
74
7D
0F
04
0E
05
7F
75
7D
17
04
00
7B
0A
17
06
0E
08
6F
73
17
7E
04
7E
01
0A
0A
7E
77
01
7C
03
0B
74
7E
78
00
0F
0F
02
78
74
7C
70
00
07
7B
0B
0F
09
02
7A
0F
00
7F
00
03
0F
06
75
7F
74
7B
0D
12
69
00
02
05
78
72
76
0D
76
0A
79
73
06
00
76
76
03
0B
7C
7D
7C
7B
7A
74
02
79
02
00
7C
00
06
11
7A
00
0E
7B
02
7D
0C
02
01
08
7E
6F
06
03
07
01
00
79
7E
00
7E
01
7F
6F
78
76
00
00
7C
02
00
7A
7A
71
09
02
04
77
04
0A
6D
04
7B
08
76
18
09
7A
09
06
77
79
09
05
11
00
75
7C
7B
04
07
6C
07
6F
00
00
04
00
7E
00
78
7D
06
7E
03
0C
00
00
08
70
7F
04
00
79
01
76
7F
04
04
7C
0A
05
74
03
7C
0F
76
00
0E
7F
79
03
08
02
7D
00
05
04
73
01
00
7B
05
00
73
79
7E
01
00
00
0B
00
0A
77
74
0A
05
7D
0E
03
7A
0F
00
05
7B
09
00
07
77
71
04
0C
00
07
7A
7D
7C
05
02
00
7E
7F
00
76
77
72
05
0E
02
05
7B
77
79
78
00
08
05
7C
13
77
78
0D
00
00
00
04
7D
00
00
05
0F
77
7E
01
1B
7D
78
76
01
7F
7C
7D
09
7F
76
0F
7C
13
08
09
0A
00
6E
7F
12
7F
6B
0C
00
7D
00
03
00
75
7E
06
7A
76
00
65
0D
7F
01
71
09
00
0B
06
7A
78
7A
71
07
01
04
01
12
01
0B
7A
73
05
73
00
78
18
65
7C
6E
04
02
7B
7D
0F
7E
70
05
7A
02
7C
7B
15
08
7C
0F
08
0C
06
00
7F
7D
0B
1F
72
7B
75
7B
0D
03
07
7F
00
00
0D
22
07
6F
0A
00
07
08
02
79
02
69
07
09
6C
00
73
06
68
19
02
0B
0D
7E
03
7F
6C
7E
67
08
01
05
10
00
76
01
07
09
79
02
7A
77
04
00
7B
0D
04
16
02
07
0C
0D
07
0C
00
03
16
70
75
7F
19
79
00
07
71
71
00
76
5A
7E
0F
08
01
05
00
11
07
73
00
03
01
05
1B
06
03
07
76
72
06
02
0B
7B
07
6E
66
74
77
0D
11
00
0F
02
7B
7D
06
0A
74
02
04
09
0B
6D
71
15
5D
05
02
10
78
66
7B
00
78
7D
14
1A
16
74
7D
04
74
03
14
01
7D
7B
7A
77
71
7B
02
6A
05
7B
6C
05
74
6F
6F
75
13
1E
75
02
7F
79
73
61
6A
76
7A
7F
1A
7E
7F
77
75
0B
72
00
7C
08
0C
1A
7E
0D
7F
0C
10
6C
7B
73
0A
02
74
00
7A
76
75
02
0C
7C
0B
77
0C
6C
71
05
7C
7A
7E
74
20
7C
7F
05
71
18
14
09
00
09
08
71
7A
0B
74
7B
73
7E
19
75
70
06
04
08
00
03
6F
77
00
7B
7B
0F
06
04
7A
7C
0C
6E
7F
08
0F
7C
0B
00
10
02
00
01
7E
04
11
14
0D
00
00
7C
09
00
0F
0D
12
7C
69
71
0F
78
60
0D
76
03
01
09
5C
74
01
0B
06
7B
7C
1C
72
6F
70
5C
78
06
02
00
0E
78
06
00
00
04
00
7F
00
73
7D
02
00
06
57
00
00
02
11
72
08
00
78
7B
77
0F
07
0A
10
03
00
7F
7F
0D
7F
73
00
77
03
78
0D
06
76
03
00
05
72
1A
17
65
02
08
00
75
0D
6C
7D
00
00
71
7A
10
18
07
75
7C
01
7A
76
01
7F
00
05
00
0B
6A
71
08
00
7B
02
7E
07
7C
03
04
76
03
00
60
0D
00
11
0E
0A
07
6C
7D
0D
07
72
02
01
00
6F
6C
7B
08
08
04
7A
03
00
00
78
70
00
00
74
76
10
02
7D
76
09
7F
7F
7E
0D
00
07
7E
02
0D
70
03
79
05
0D
75
7C
12
02
05
7D
09
75
00
03
00
7F
00
7F
03
0A
0F
55
00
0B
09
7D
7B
0D
04
00
79
01
7C
0A
09
0D
00
7D
73
06
7A
05
7F
16
6D
06
0D
00
0C
0E
74
7C
78
09
72
7C
04
74
7F
17
07
0C
04
06
7A
63
02
7B
0D
03
6D
02
00
7C
01
05
7A
03
66
09
02
09
79
05
03
7D
00
75
7A
7F
0E
01
00
7D
7F
07
06
03
0A
09
7A
0A
00
07
74
6A
75
03
07
7A
7D
7C
74
09
7A
0A
7B
07
7B
6E
76
71
78
03
02
03
00
01
10
7C
00
6E
76
07
65
04
79
78
6E
00
79
00
03
79
75
09
7E
7E
76
00
77
04
04
00
12
64
04
09
73
05
7C
00
02
06
7D
00
05
7E
7C
79
05
78
7B
73
79
00
1C
7B
7E
7E
7B
08
0B
77
04
7C
00
01
0A
7A
03
77
07
79
78
7A
00
05
6A
17
76
7D
02
71
1A
7F
7D
0A
7D
05
0B
07
05
03
07
03
7D
03
78
6B
6D
02
0B
7F
01
00
7F
00
04
7F
08
65
00
01
7D
06
7A
68
7E
04
0A
05
7A
07
09
01
03
04
03
75
08
01
69
7D
11
6E
06
01
7E
72
02
09
7D
03
78
78
05
03
02
02
6D
00
00
04
05
70
76
75
06
7A
00
06
05
02
00
79
71
0F
14
74
7C
7A
7B
79
78
7B
7A
00
7A
05
71
0A
7E
02
75
00
00
79
04
00
6C
79
06
00
03
7D
7E
00
73
75
75
7E
76
00
04
72
76
00
73
77
02
01
00
7C
70
00
7F
7E
6E
7F
72
74
00
00
7B
00
00
01
03
7E
05
06
07
7E
04
7B
12
0C
76
03
76
06
10
7E
7B
7A
01
72
7A
0C
0D
6F
77
06
09
03
7E
7F
71
08
00
00
01
00
03
00
79
01
7B
08
78
0E
00
00
7E
01
10
7F
00
6F
06
70
7C
19
76
04
07
03
7E
77
7A
7A
77
00
0F
0A
04
74
72
05
06
00
02
7D
01
05
7E
0A
7F
00
02
04
01
0B
00
00
0C
00
0D
0A
7C
01
06
7B
79
75
04
04
00
78
76
7E
73
7E
72
04
7F
01
05
00
08
04
7D
01
03
00
02
0C
00
02
73
04
77
0B
07
08
04
72
02
07
00
04
00
03
7D
7B
01
05
0A
00
00
07
76
00
00
01
7C
7A
08
7D
14
02
02
05
78
73
79
09
0B
00
78
65
06
16
06
7F
09
7E
02
06
7D
1B
7E
7E
00
05
00
00
00
06
07
10
21
07
00
77
7E
0B
02
01
0E
00
02
66
21
04
0B
06
05
04
00
0B
01
00
6D
0A
7F
0B
01
00
04
71
7A
0C
02
0B
04
71
7C
06
7C
7A
7E
03
61
0A
78
16
05
0C
73
03
04
0C
00
05
06
01
08
01
7F
04
03
75
7B
07
02
71
00
7A
69
0B
7E
10
00
0A
05
02
00
0E
6D
6D
07
03
00
7E
7E
05
64
06
04
0F
03
78
00
7F
77
79
78
01
01
78
78
15
04
7A
7D
02
77
00
7F
7B
00
7B
01
0A
11
7D
7B
06
67
06
10
00
7B
04
05
7D
0D
7C
7F
00
02
10
02
00
00
0C
00
70
6F
7C
62
00
0C
03
00
00
7D
0A
04
7B
04
78
04
00
0B
00
0E
00
77
05
7A
08
7C
72
09
7B
00
70
05
7C
04
7C
79
73
05
7F
7F
07
08
7E
76
02
01
75
0D
11
08
7F
05
07
00
78
09
05
0C
0A
09
03
0D
7F
03
04
02
6F
7E
7E
7F
7B
78
7B
09
00
7E
7C
0E
73
07
0B
71
04
7B
04
6E
01
08
05
0F
05
04
76
04
01
7F
7B
66
06
02
7A
04
0F
06
06
06
11
7D
79
06
00
75
0B
7F
02
00
06
03
09
04
04
01
7B
7D
6F
00
01
77
01
01
0A
10
0C
73
7E
77
72
7E
0D
05
00
03
7D
07
7B
04
7C
09
03
76
7D
71
09
07
7A
08
00
04
05
7D
00
02
05
0A
02
70
11
0A
7D
7B
7B
6C
7E
08
01
00
7A
01
00
7C
04
01
04
7B
7D
00
00
7C
6D
00
07
7C
06
00
13
07
0F
7A
07
0E
04
7E
06
7E
03
03
0A
0A
7A
73
02
0C
7D
7D
02
20
7E
09
01
08
7C
24
0F
00
00
00
00
66
00
12
78
08
02
7C
09
00
00
7F
0C
6E
01
00
02
7B
64
05
7F
77
11
09
00
7F
7C
7F
79
79
00
00
07
0A
7B
07
69
7C
00
09
05
79
05
10
7A
02
00
07
0A
76
7C
00
00
04
79
6E
7F
79
05
76
02
7D
0B
0C
63
00
74
6F
03
08
75
0A
73
02
7D
00
7C
0D
02
08
7F
7E
00
06
02
00
76
7E
0A
07
7B
7D
03
0A
08
0D
08
00
7B
7F
7E
01
08
7A
7F
06
00
00
71
06
00
00
74
78
7D
04
7F
78
10
7F
6B
04
06
7E
75
7D
05
7F
78
6B
6A
08
05
06
18
7C
04
11
01
7F
01
00
7C
00
7B
00
04
0E
72
04
04
00
77
0D
0D
00
7B
74
00
09
7F
7D
01
0E
0A
7E
05
7E
01
01
79
0F
7A
06
0C
0C
00
7A
77
07
0A
72
7E
03
08
75
04
09
0E
0C
7F
06
7C
0B
69
7F
71
71
15
03
7C
00
75
03
0A
01
01
0A
77
7F
0C
04
6B
00
04
00
00
04
09
01
03
00
04
03
05
01
7E
08
62
04
0C
00
78
08
09
0E
73
76
04
7A
0A
02
0A
0B
13
09
7F
71
03
02
05
01
78
75
06
72
01
7E
01
00
09
05
03
04
02
7A
09
05
76
08
00
07
0D
0A
7D
14
77
02
00
06
0D
7E
00
6F
05
7D
7B
73
61
04
00
76
77
03
00
7C
09
77
05
7C
0A
6F
77
01
03
78
02
04
04
01
7E
7D
01
76
7F
00
7E
01
00
03
0A
7C
04
05
04
0F
04
0E
03
0B
08
04
0F
0A
0A
09
02
02
01
0A
6B
04
06
0B
0C
7D
02
06
03
08
08
00
61
0B
03
7B
00
01
05
74
04
7F
7F
13
75
01
04
04
00
76
0C
0B
7F
10
7C
76
7E
0C
0E
78
7D
12
7C
6B
07
0C
04
04
09
75
6E
7B
01
03
05
05
0A
69
04
73
03
00
78
7A
03
00
77
0F
7B
00
01
12
06
07
0C
08
0F
0D
7C
10
00
1A
12
05
7D
7C
00
01
76
7B
03
74
07
04
7F
7D
02
7D
02
01
04
05
00
05
11
76
00
0A
03
0B
76
19
76
7D
02
0F
7F
00
77
7E
05
00
06
79
00
7C
7E
0C
7C
12
06
00
00
7E
7C
00
08
04
01
7B
0A
7B
77
0E
03
70
04
10
72
07
05
7C
06
77
03
0D
7B
72
7B
0A
7A
0F
7B
77
03
0C
09
02
0B
00
00
00
00
10
00
06
05
7F
04
09
0C
00
00
08
70
07
78
00
04
03
18
04
77
75
04
03
7E
0F
01
6F
06
02
00
7D
7E
00
71
78
09
7C
00
0B
08
7E
6E
03
7B
0D
00
7F
05
0D
15
00
00
0A
03
6B
73
0C
0C
77
05
0D
03
7B
05
00
76
00
0B
0B
05
7E
0B
0C
03
79
7C
02
03
0C
02
7A
00
06
6F
00
6E
7D
7E
0C
7F
06
7D
01
09
7A
03
00
0F
09
0B
0F
06
04
79
01
00
00
05
15
00
00
00
00
0F
06
76
05
76
7D
09
5C
03
7A
6B
02
00
00
0A
0D
08
0D
00
01
01
09
11
00
00
00
00
00
00
00
00
00
00
00
00
00
00
00
00
00
00
00
00
00
00
00
00
00
00
00
00
00
00
00
00
00
00
00
00
00
00
00
00
00
00
00
00
00
00
00
00
00
00
00
00
00
00
00
00
00
00
00
00
00
00
00
00
00
00
00
00
00
00
00
00
00
00
00
00
00
00
00
00
00
00
00
00
00
00
00
00
00
00
00
00
00
00
00
00
00
00
00
00
00
00
00
00
00
00
00
00
00
00
00
00
00
00
00
00
00
00
00
00
00
00
00
00
00
00
00
00
00
00
00
00
00
00
00
00
00
00
00
00
00
00
00
00
00
00
00
00
00
00
00
00
00
00
00
00
00
00
00
00
00
00
00
00
00
00
00
00
00
00
00
00
00
00
00
00
00
00
00
00
00
00
00
00
00
00
00
00
00
00
00
00
00
00
00
00
00
00
00
00
00
00
00
00
00
00
00
00
00
00
00
00
00
00
00
00
00
00
00
00
00
00
00
00
00
00
00
00
00
00
00
00
00
00
00
00
00
00
00
00
00
00
00
00
00
00
00
00
00
00
00
00
00
00
00
00
00
00
00
00
00
00
00
00
00
00
00
00
00
00
00
00
00
00
00
00
00
00
00
00
00
00
00
00
00
00
00
00
00
00
00
00
00
00
00
00
00
00
00
00
00
00
00
00
00
00
00
00
00
00
00
00
00
00
00
00
00
00
00
00
00
00
00
00
00
00
00
00
00
00
00
00
00
00
00
00
00
00
00
00
00
00
00
00
00
00
00
00
00
00
00
00
00
00
00
00
00
00
00
00
00
00
00
00
00
00
00
00
00
00
00
00
00
00
00
00
00
00
00
00
00
00
00
00
00
00
00
00
00
00
00
00
00
00
00
00
00
00
00
00
00
00
00
00
00
00
00
00
00
00
00
00
00
00
00
00
00
00
00
00
00
00
00
00
00
00
00
00
00
00
00
00
00
00
00
00
00
00
00
00
00
00
00
00
00
00
00
00
00
00
00
00
00
00
00
00
00
00
00
00
00
00
00
00
00
00
00
00
00
00
00
00
00
00
00
00
00
00
00
00
00
00
00
00
00
00
00
00
00
00
00
00
00
00
00
00
00
00
00
00
00
00
00
00
00
00
00
00
00
00
00
00
05
78
7C
74
00
7C
00
7D
00
0D
06
07
00
08
00
02
04
12
7D
06
73
00
0C
7A
76
7A
01
7A
7B
7F
04
7F
76
72
7F
7C
7D
0C
0A
00
04
76
03
7E
05
7E
73
09
7E
7D
7A
11
03
01
0C
77
0F
04
03
7A
0E
04
02
78
00
00
13
0A
05
7C
72
01
06
74
79
73
7F
06
00
7F
11
76
6D
7F
00
02
08
75
00
78
00
7E
7D
08
00
07
09
0E
77
7D
64
08
07
7C
09
03
7C
08
74
05
71
0B
7B
00
05
7F
77
01
71
0C
76
06
00
71
7E
00
04
06
75
07
7D
72
05
00
03
06
69
79
7E
0C
72
00
7A
7E
05
00
00
02
02
7F
76
7B
0A
00
0C
7C
74
00
7A
08
06
04
04
04
04
78
03
7D
09
7D
79
69
01
04
02
11
03
7D
00
10
7F
02
72
04
75
72
05
0B
0D
77
7B
09
10
03
7D
7A
6E
15
03
71
00
07
0D
69
15
10
07
0D
00
75
76
7A
18
7D
78
17
7F
0A
79
07
0F
74
7A
6C
75
75
09
0C
78
01
0B
7A
7E
7D
77
79
0A
7C
7C
00
7A
05
7C
7C
7C
05
7E
02
03
01
02
08
72
7A
7E
73
0B
0C
7F
6C
6E
7E
08
74
00
7A
0A
06
78
7C
00
00
01
17
00
02
0D
00
7D
00
0E
00
04
7E
78
05
77
06
79
00
00
79
11
79
7A
75
0C
02
05
09
7E
7D
77
7F
02
00
7F
06
7F
00
01
01
7D
7C
7A
05
08
15
7B
7D
7E
78
7A
0A
00
03
0D
00
7B
02
7C
6D
02
09
00
00
7E
7C
00
01
7C
06
02
7F
79
77
07
0F
6A
07
09
77
6B
78
00
7D
02
03
0D
0D
7D
06
04
70
0F
7A
07
7F
0A
04
78
00
00
00
7B
00
0A
00
72
00
04
0D
78
0D
00
00
7A
0D
09
03
00
7C
0A
0C
0A
6F
0B
7F
7A
07
77
07
67
67
77
00
7A
7E
73
07
79
01
07
00
76
09
6C
6C
10
05
7F
00
78
03
7A
03
00
00
7E
00
76
09
05
76
00
7C
74
7F
6A
7F
00
76
7F
7F
7F
04
73
04
08
7F
7B
7C
04
01
01
73
7C
00
7B
7C
00
07
0B
03
0C
08
05
75
05
74
0A
00
00
0B
08
08
77
01
7D
74
70
00
00
79
7C
00
00
03
13
00
7B
08
09
0E
03
0B
0E
7F
09
7A
7B
02
0F
77
00
00
6F
76
6F
7C
04
03
7B
77
03
01
00
08
00
08
00
07
7E
13
6B
0A
00
0A
7C
02
04
6B
0F
00
72
0D
7A
03
72
74
16
08
7A
75
0E
14
7E
7D
0A
05
70
00
10
01
71
77
77
0D
7E
08
7F
03
0E
00
77
00
18
0A
0D
08
00
02
1B
06
0C
10
00
7D
7A
05
7B
09
03
03
06
74
1E
17
0B
7F
00
03
17
03
7B
06
00
7B
71
20
76
06
79
19
7B
7E
00
00
79
75
7E
11
23
7C
02
09
0E
0A
75
60
00
0D
09
03
09
1D
07
7D
11
04
08
73
06
01
00
65
07
00
1F
07
01
07
19
7E
7B
00
00
79
00
08
6E
02
03
00
07
05
1D
00
6F
04
11
7F
0F
06
09
00
79
7E
06
00
02
6C
77
20
76
10
78
12
07
7B
1D
06
0B
05
0D
09
11
2F
7E
05
00
06
73
00
0E
09
7B
78
7E
09
79
03
69
0B
01
7D
78
05
7B
7B
6E
10
0B
75
72
0F
21
09
12
7F
0A
06
7A
11
06
0D
79
00
7B
06
7E
05
00
20
73
0B
09
08
78
0C
06
11
0F
0D
06
7D
75
7E
77
01
00
01
04
13
7B
03
00
71
19
03
02
77
6D
78
7F
01
11
74
27
00
75
0F
7B
7D
7F
09
00
01
14
7D
0A
7C
76
09
77
22
09
76
0B
7E
00
7D
09
15
7E
07
68
12
0B
7D
07
00
0B
7A
78
06
03
76
0D
03
05
0C
7C
02
7F
7E
06
00
0E
79
06
00
0D
0B
6E
7B
01
07
00
2C
7B
78
0C
0C
77
7B
00
7C
7F
00
0A
00
7A
14
75
06
00
00
7A
0D
00
04
07
06
00
0F
7A
14
0B
77
08
09
78
71
07
7A
7B
79
7C
02
08
00
7B
03
67
75
11
00
15
07
06
03
64
78
00
00
0B
00
7C
00
12
75
72
05
01
7F
00
00
74
14
06
01
00
78
76
09
7F
18
27
0A
0B
73
6F
01
11
09
0E
00
10
71
7D
23
7C
7A
7E
00
00
79
13
77
1C
19
76
00
0A
06
02
7D
00
00
1D
78
08
25
00
7C
07
7D
03
0A
03
10
00
12
08
06
78
7D
1D
05
04
04
05
10
0A
77
0B
76
7F
00
73
00
00
0F
09
02
7F
06
73
1C
04
01
7F
05
00
7C
7F
72
0E
7B
7F
12
0F
00
00
15
70
00
00
17
7C
7C
0E
28
01
22
05
79
16
7E
00
14
7D
04
79
7F
77
0E
13
01
04
7D
79
71
7D
0D
00
08
00
09
00
01
00
02
7C
7E
71
06
00
01
09
0C
7F
75
08
00
7D
04
09
7C
79
06
7E
79
05
7E
78
0C
05
07
05
08
76
00
71
05
15
77
7E
12
7E
08
01
04
7F
7F
7C
04
12
00
0C
75
00
00
7B
03
7D
03
00
0A
7C
04
7B
73
09
7C
05
15
73
79
00
7B
00
73
11
0A
7A
06
00
01
74
7F
7D
7C
04
07
7B
04
00
05
03
16
0F
05
73
7C
00
06
7B
02
0B
0E
01
05
02
79
07
0C
0B
71
01
07
7E
79
00
7D
00
00
7A
06
07
10
0C
7E
7E
7D
04
00
04
7A
77
7C
7C
09
0E
00
7B
79
0A
00
04
08
7B
0A
7F
76
07
00
75
01
7E
00
09
01
06
00
01
0E
05
08
0C
7B
7B
08
76
03
01
02
0C
0E
04
75
00
05
7D
00
01
72
79
7A
03
03
10
04
02
7E
07
02
7A
00
07
04
72
0A
7A
07
04
7B
07
07
03
04
7C
06
04
03
00
7E
05
05
0E
04
09
0A
0F
73
06
0C
76
03
79
0A
08
75
79
7C
7C
7C
09
00
06
01
0A
07
7C
03
7E
00
08
01
78
07
07
6D
7C
7A
79
13
01
02
0B
7E
01
07
7E
08
0D
08
00
04
7B
05
79
05
72
00
7C
0B
15
79
13
03
04
7E
03
77
14
0F
74
7D
7E
7A
05
00
73
0D
12
7B
7F
01
75
02
08
7D
00
00
78
75
02
00
7D
77
08
00
00
02
01
7D
7C
0E
10
06
0E
7B
0D
01
79
07
00
7C
79
00
7C
0E
7D
7C
71
7B
00
00
0B
02
00
00
05
04
7B
06
77
00
7F
0A
78
04
04
76
02
7D
7B
03
13
77
0C
06
04
0E
01
09
06
0C
09
7D
09
00
18
79
00
00
7C
00
08
00
06
7E
0E
06
76
7B
00
00
03
77
0C
7E
00
02
7D
15
06
03
0E
06
7C
06
7C
08
0C
0A
0A
00
7F
73
13
6E
0D
0C
0A
00
77
08
06
03
11
00
76
00
0F
0D
08
7B
00
00
75
08
01
71
06
7C
07
00
7C
04
7B
15
00
04
05
04
0B
7D
70
0E
77
7E
01
79
09
7E
7B
7E
77
00
78
76
00
03
77
02
03
07
03
02
0B
0A
72
01
00
07
11
01
7D
00
00
74
7D
00
00
71
0C
00
00
78
0B
75
03
7C
79
02
04
0E
03
7F
08
7B
7E
75
7C
04
7B
77
04
74
7A
00
7F
02
01
06
73
78
00
0A
00
7F
00
00
03
04
20
18
00
07
01
72
7B
7A
72
00
0B
76
06
77
04
71
7D
7A
7A
7D
0D
70
09
71
74
7F
09
00
7C
03
1B
7C
7A
7D
06
00
07
7C
0E
02
06
7E
7C
7E
0D
06
07
03
7B
09
02
7C
00
02
02
08
79
03
01
7E
79
79
14
77
0C
07
00
0B
0E
7D
71
71
00
03
7A
7D
7E
7B
71
76
04
0B
00
7F
02
05
05
7B
75
01
06
0A
76
0C
74
12
7D
72
71
0C
02
11
77
01
02
7A
70
01
03
07
00
01
0E
7D
0B
00
76
0A
0E
00
02
00
7F
0A
05
7D
07
00
7E
00
07
0C
00
00
74
06
77
6F
00
03
72
00
76
03
7D
00
00
00
7C
77
12
03
7C
76
7B
79
03
0C
07
77
79
01
00
0D
73
04
00
00
01
03
00
0C
09
7D
77
05
05
7A
7D
75
7B
03
7E
02
7F
00
10
00
08
07
0B
00
0E
7D
03
0A
08
7C
03
7F
11
00
7F
04
0A
01
77
00
0B
69
00
7E
05
74
05
03
09
08
77
76
7E
78
76
07
13
7E
7C
7B
07
08
77
7F
77
79
05
7A
68
00
09
06
77
7A
6C
74
7D
07
7C
6F
0D
79
05
7C
00
7A
01
06
7D
7A
01
7F
01
0A
7D
7C
76
05
06
0E
6B
73
04
7F
01
08
07
05
01
00
7A
03
07
05
6B
00
0D
05
7A
0B
01
07
05
07
7E
00
04
01
00
00
04
06
79
6A
04
7F
03
7D
7D
78
7B
05
12
07
00
7B
14
00
07
7E
7A
73
7E
01
00
00
7B
79
00
14
03
06
04
04
01
70
0F
16
74
02
05
03
79
08
7F
7A
03
07
7B
01
05
02
09
77
16
7B
7A
7E
0E
7E
75
7D
00
00
01
00
7F
00
06
00
06
7F
02
7D
00
00
01
0D
04
00
00
7D
7F
0A
03
76
7C
0D
7E
00
09
7E
75
00
72
00
7B
75
7A
04
02
05
06
00
05
10
76
01
14
7C
06
00
06
70
0A
7C
00
00
79
03
0E
7E
7A
03
77
00
02
06
72
76
00
6C
77
09
70
14
7A
00
07
7E
77
7F
78
7F
07
7E
7A
00
0B
02
00
7E
08
04
0E
03
7C
02
7B
0B
68
7C
00
71
7A
7D
04
7E
7A
7C
72
00
00
09
06
00
00
06
7F
03
05
7C
79
08
78
7D
13
70
05
72
7B
07
00
01
16
07
75
02
7F
03
79
04
74
7D
06
06
00
7C
00
04
00
05
02
73
0A
12
00
04
67
7F
7E
7D
7A
00
6F
72
09
7C
04
02
0E
79
7C
02
0F
71
76
79
6F
78
04
00
75
6C
00
7E
73
01
7E
0A
00
0E
03
76
7E
0B
01
7D
7B
08
7E
05
1C
7B
02
07
00
07
00
76
02
78
07
6D
02
72
0C
7C
79
02
00
7F
07
74
79
7E
00
02
7C
7C
02
00
7C
08
79
7E
00
7D
7F
07
7C
02
75
0F
79
0A
7B
06
70
0C
05
06
76
03
06
0F
04
07
6F
02
6E
78
07
0A
00
79
09
0B
77
06
77
01
10
7B
02
00
7C
01
74
07
7E
7C
01
00
04
73
0A
00
78
74
7F
07
07
77
76
00
0B
00
6E
00
04
73
7D
6B
0C
10
7C
01
72
08
71
79
08
6B
7B
07
78
1B
05
02
00
6F
7F
04
7E
04
7C
7B
7E
7E
00
78
7E
7E
7A
09
7F
05
09
0C
06
01
7E
0A
7A
7D
12
00
7A
72
02
02
7C
73
07
7B
7C
69
01
01
76
77
7D
77
06
77
06
7C
08
7A
77
15
01
7D
7D
78
7E
7A
05
11
01
00
0A
7D
02
7E
7C
7E
0C
01
03
07
0F
01
73
74
06
01
0F
05
75
78
7C
7A
00
79
00
0A
7B
03
0A
7C
04
04
0A
02
6F
03
73
09
06
7B
7B
11
78
03
7E
05
7F
01
00
00
0F
7C
09
0C
7C
75
0D
06
7B
00
09
05
01
7D
00
00
01
06
04
00
06
08
05
7F
7D
23
01
27
00
10
7D
05
04
00
00
7B
05
00
0D
08
08
70
07
78
00
00
76
02
00
76
0D
72
6D
71
7F
07
00
03
79
01
76
0B
7F
7F
01
00
7E
0F
77
7C
08
0E
07
75
0A
09
7B
05
07
7C
7E
10
00
00
7E
00
6E
00
01
71
04
7B
03
7E
00
00
7A
0C
7B
7E
00
79
7D
7B
0B
7A
18
78
08
7A
07
77
79
00
7A
00
07
7B
07
28
7E
7A
71
00
00
77
70
70
66
0E
02
00
01
78
7D
7A
00
00
7F
77
02
06
7F
7E
77
08
0C
01
7A
13
00
7C
76
03
71
04
01
03
7C
0E
04
01
7B
7A
06
07
7E
00
0A
79
00
08
7D
03
7E
7C
78
17
79
7D
11
03
00
74
74
7B
05
03
73
76
6F
00
00
07
0B
00
00
0D
7A
0A
7C
16
5B
78
00
71
78
01
0C
76
7B
7F
7C
7F
7A
7F
74
03
07
00
01
7F

