72
76
0D
7D
00
7C
00
04
00
04
01
0A
6F
04
00
11
77
03
7B
08
71
00
7F
79
78
7E
03
10
7A
7F
05
78
03
02
02
75
79
09
08
00
7B
01
7A
00
6F
7D
73
75
00
7C
05
01
7D
01
08
06
02
0A
75
74
7E
7C
77
7B
00
78
02
05
7F
04
02
7F
00
70
13
6F
09
00
00
0B
00
78
07
01
00
75
7E
0B
01
7B
06
11
02
00
00
04
02
76
0D
04
02
07
02
0D
0D
7F
76
7A
09
08
75
00
0A
77
09
01
77
02
77
03
07
01
00
01
00
72
7C
08
08
0E
0E
74
7B
00
08
79
73
0A
71
08
7D
00
04
08
09
00
0C
78
05
05
7C
6E
7B
00
7F
02
7E
00
79
79
7E
7A
0A
02
76
7C
72
7E
79
04
0A
6F
08
0C
0A
17
03
7B
00
0B
7E
03
08
0B
02
7E
05
7D
7E
12
77
06
01
7D
70
04
05
06
77
7E
00
7A
00
65
00
7C
73
7C
02
12
78
77
00
0C
00
04
78
01
7E
7E
04
77
75
75
04
0B
75
01
7E
14
02
07
03
0E
7B
03
7F
07
05
10
03
7F
02
02
7E
05
0A
02
06
7D
7E
7F
02
76
78
79
7A
79
04
7F
67
75
02
09
00
7A
0D
7F
0D
75
7B
7F
00
07
7B
7A
0B
03
09
77
02
76
07
0B
7B
0E
7D
79
7A
00
0D
74
7F
09
75
04
7F
02
0B
02
03
7B
08
00
7D
00
00
6E
04
00
11
0C
02
79
7B
04
02
11
6F
01
0D
0D
7D
7B
00
7C
0D
00
0A
05
02
70
00
05
00
00
76
0D
00
08
7E
0A
77
7E
7C
6C
08
01
79
7E
09
7F
7C
7F
0A
76
76
01
08
7C
01
08
08
02
6F
03
07
02
0A
01
00
05
00
00
7C
00
7C
00
02
77
76
0F
00
07
00
00
01
08
0B
7D
00
7A
7A
0A
06
00
03
07
7C
02
00
05
71
01
01
00
0A
03
06
79
78
0E
7E
00
01
7D
7F
01
7B
0C
7E
00
7C
7F
01
06
00
00
0E
7A
15
13
01
04
08
79
07
79
73
7A
00
01
0A
0B
7D
7A
04
05
11
02
7B
0E
05
79
00
7F
04
00
67
06
00
08
0D
7F
04
00
7F
0C
02
77
7E
00
00
7C
7C
07
0C
7B
7E
78
70
00
00
72
77
00
00
06
75
09
7D
78
05
0A
07
02
7E
74
05
7C
09
04
78
7F
7F
04
7B
7B
7A
7E
7F
7A
00
00
00
00
00
00
00
00
00
00
00
00
00
00
00
00
00
00
00
00
00
00
00
00
00
00
00
00
00
00
00
00
00
00
00
00
00
00
00
00
00
00
00
00
00
00
00
00
00
00
00
00
00
00
00
00
00
00
00
00
00
00
00
00
00
00
00
00
00
00
00
00
00
00
00
00
00
00
00
00
00
00
00
00
00
00
00
00
00
00
00
00
00
00
00
00
00
00
00
00
00
00
00
00
00
00
00
00
00
00
00
00
00
00
00
00
00
00
00
00
00
00
00
00
00
00
00
00
00
00
00
00
00
00
00
00
00
00
00
00
00
00
00
00
00
00
00
00
00
00
00
00
00
00
00
00
00
00
00
00
00
00
00
00
00
00
00
00
00
00
00
00
00
00
00
00
00
00
00
00
00
00
00
00
00
00
00
00
00
00
00
00
00
00
00
00
00
00
00
00
00
00
00
00
00
00
00
00
00
00
00
00
00
00
00
00
00
00
00
00
00
00
00
00
00
00
00
00
00
00
00
00
00
00
00
00
00
00
00
00
00
00
00
00
00
00
00
00
00
00
00
00
00
00
00
00
00
00
00
00
00
00
00
00
00
00
00
00
00
00
00
00
00
00
00
00
00
00
00
00
00
00
00
00
00
00
00
00
00
00
00
00
00
00
00
00
00
00
00
00
00
00
00
00
00
00
00
00
00
00
00
00
00
00
00
00
00
00
00
00
00
00
00
00
00
00
00
00
00
00
00
00
00
00
00
00
00
00
00
00
00
00
00
00
00
00
00
00
00
00
00
00
00
00
00
00
00
00
00
00
00
00
00
00
00
00
00
00
00
00
00
00
00
00
00
00
00
00
00
00
00
00
00
00
00
00
00
00
00
00
00
00
00
00
00
00
00
00
00
00
00
00
00
00
00
00
00
00
00
00
00
00
00
00
00
00
00
00
00
00
00
00
00
00
00
00
00
00
00
00
00
00
00
00
00
00
00
00
00
00
00
00
00
00
00
00
00
00
00
00
00
00
00
00
00
00
00
00
00
00
00
00
00
00
00
00
00
00
00
00
00
00
00
00
00
00
00
00
00
00
00
00
00
00
00
00
00
00
00
00
00
00
00
00
00
00
00
00
00
00
00
00
00
00
00
00
00
00
00
00
00
00
7E
0D
12
17
00
7F
00
05
00
01
7A
77
74
6B
00
78
05
7E
7C
06
05
00
79
75
17
09
79
15
01
06
05
02
7A
7C
02
79
73
78
7D
00
11
03
6C
7E
74
0E
76
05
7D
16
7A
0D
79
02
12
79
75
04
7D
03
0F
7E
01
09
00
06
72
78
06
76
0D
7F
7E
1A
06
79
73
04
00
7A
0D
0D
04
0A
00
7A
77
0E
7C
00
0E
0C
13
04
00
06
76
78
10
03
79
77
7E
7F
78
6E
06
76
17
7A
01
01
7A
0A
08
00
7E
01
78
7E
78
02
00
7D
00
78
13
02
0A
04
01
03
0B
00
77
76
7A
7A
79
73
08
00
06
75
7C
00
0A
7A
76
05
10
70
06
00
74
75
7F
00
00
77
7F
0D
00
17
08
0D
11
7B
6B
7F
79
7C
07
7A
7F
12
00
7E
00
7D
77
07
07
7B
75
6E
79
79
75
79
74
0B
02
72
7C
00
7A
04
6F
7C
7D
77
7D
71
6B
79
16
78
7B
1D
11
73
78
7F
7A
09
7D
78
7F
04
01
03
01
05
7D
05
73
14
14
02
09
07
7B
75
0E
79
7A
78
04
01
08
04
00
01
7F
7F
63
08
05
7B
7A
7A
04
75
02
7F
78
04
09
02
72
7A
05
13
00
00
09
02
0F
0B
7A
02
71
0A
01
02
0E
00
07
7B
08
7A
05
0C
7C
06
7F
79
07
00
7A
15
6D
7B
7D
79
09
75
7F
03
08
76
7D
06
7C
00
77
69
01
00
0E
08
09
01
7F
06
03
06
15
7A
19
02
00
7C
00
7D
77
00
01
7A
04
7A
7D
78
00
00
0A
09
00
06
7E
7E
13
22
7F
77
0F
6C
60
06
7B
08
79
76
78
7F
09
05
77
7A
10
7E
02
7C
05
05
05
7D
76
00
16
78
00
00
03
00
0C
00
7D
00
17
7E
0C
04
00
00
08
03
7F
7E
00
06
7F
7B
00
01
02
00
7E
03
79
7F
06
0A
12
00
72
75
0E
07
14
78
00
00
77
7E
7E
0C
10
05
07
00
04
73
7D
0A
00
00
15
01
6F
00
04
01
02
01
07
05
77
17
00
06
0C
7F
07
74
0C
7F
05
14
00
01
7C
03
03
74
78
00
62
02
00
0C
06
7B
09
7C
0A
7D
7B
7A
03
7B
00
7B
7B
0B
08
7B
06
73
03
00
00
6B
75
00
00
69
7F
09
7E
08
7E
6D
7D
79
7F
07
00
01
00
7A
05
08
79
07
7E
7E
7E
08
01
0C
0D
73
74
04
00
05
00
7A
00
12
7F
7E
7B
7C
00
0D
17
78
0E
78
6C
00
10
10
7E
7F
76
7D
76
05
7D
7A
02
12
07
75
09
7D
00
00
0D
04
7D
7C
7A
7D
7C
7F
03
78
05
12
7D
7E
7F
01
07
71
04
7E
5E
07
79
06
00
7E
00
05
7A
0A
00
00
7F
0C
0C
0B
03
08
00
08
72
78
7D
7A
00
7D
02
7C
0A
01
0B
10
04
07
00
7C
02
00
18
7C
0F
7E
7B
00
0C
04
0B
7C
6E
03
7A
7E
05
00
77
01
09
03
0A
05
0D
7D
00
03
7E
02
6C
0A
7E
7F
11
74
75
00
09
0B
09
08
79
12
06
00
01
7A
77
00
07
7D
08
01
02
7D
0A
00
7E
71
7E
00
06
02
7E
11
01
7B
04
05
71
06
19
76
06
79
00
04
07
6C
7E
02
00
0C
00
07
7D
7A
6E
01
7D
03
09
70
7C
00
11
72
7A
03
6D
06
74
0B
02
05
06
02
09
14
0C
7E
7E
79
7A
0D
00
7F
7A
03
03
06
03
78
15
0B
76
7A
02
7A
00
13
72
7B
76
7C
0A
7E
7B
7A
0F
7C
77
03
01
10
7A
01
7D
06
0A
04
04
03
01
7C
65
07
77
7A
02
77
7D
0F
77
7D
02
7B
00
7E
7F
74
7A
7F
7F
04
7E
7A
15
0D
02
7E
03
7F
0B
76
0B
75
73
09
01
75
79
00
03
00
7E
0A
72
7D
77
01
05
0A
78
00
7E
05
7D
00
01
77
01
00
7C
05
78
76
14
70
7F
6B
00
05
08
73
03
06
00
05
0D
00
03
01
7D
79
7D
74
00
00
7E
7B
00
79
00
7B
02
79
7B
05
12
7C
73
03
07
7A
7C
0C
08
78
7B
7E
0D
7F
76
04
02
7B
7A
01
7C
7F
04
05
7F
7B
00
00
03
00
1A
00
7E
7F
7A
01
05
7C
00
00
04
12
0B
7F
00
73
00
0E
7E
13
67
78
7F
7E
7F
01
71
7E
0C
00
04
76
7C
62
7F
0C
06
00
01
02
0E
74
7D
0F
77
00
7A
03
7F
06
00
00
7A
06
7C
0E
04
7E
7F
08
03
7C
73
71
00
7C
01
00
7C
7F
1A
05
02
77
07
7E
01
03
01
01
07
00
7F
7B
00
04
7B
01
77
09
06
03
01
02
76
79
00
01
0D
08
79
7E
05
0B
03
00
00
08
03
00
00
7C
09
7D
06
69
0C
00
7E
0E
05
6F
7F
11
06
0F
03
73
09
0B
08
79
0A
6A
06
7B
65
0B
79
0A
00
05
00
05
00
02
7C
74
76
72
00
03
5A
00
09
7D
01
00
6D
7E
7D
06
04
7B
03
02
03
00
02
12
7E
0D
77
77
79
00
1A
6F
74
0D
02
7A
03
69
01
77
7C
1A
79
73
6E
78
6E
08
05
7A
11
6A
6C
7C
00
04
07
7A
03
7C
76
05
77
65
7D
1D
78
7C
00
78
77
7D
05
74
00
7D
0B
71
7E
00
7A
75
05
6E
00
74
7E
6D
6B
7D
0E
7E
00
73
7B
79
76
11
03
7B
7E
7C
01
02
79
7D
14
72
12
03
02
01
00
76
7C
01
0A
79
01
7E
79
7F
0A
00
78
06
78
79
02
77
7B
00
7B
13
7B
00
0F
77
7D
79
01
03
76
00
01
7D
75
00
02
09
01
10
00
00
03
6E
7E
08
0B
79
7E
01
74
7F
6D
05
00
04
00
7C
02
05
7A
00
7C
02
03
7B
6D
13
7D
73
75
7F
05
7E
13
07
77
02
7A
09
05
02
0B
6F
15
15
7E
75
79
7F
04
7C
01
17
77
7E
7C
6C
13
0B
0B
6E
01
79
7C
13
71
0B
71
7F
05
03
6D
18
0C
01
0C
7A
79
04
01
02
7F
79
73
7B
75
7D
7B
0C
0A
76
7A
08
04
7A
74
0E
76
08
7C
7C
00
0C
75
01
7D
0A
02
7F
7F
71
20
7C
72
02
76
74
13
7A
72
78
0A
0C
79
16
02
00
09
70
74
7D
7E
01
7D
7F
79
74
70
7A
7E
7E
01
00
7C
79
7C
00
09
78
0D
7F
6D
7A
77
78
6D
03
78
02
0A
76
00
7E
09
00
75
77
01
09
06
0A
00
00
78
76
00
78
0D
0E
1D
21
07
7B
0B
06
08
6D
7C
7E
02
01
06
7F
7C
7F
7D
02
09
79
75
7A
01
79
70
02
05
04
08
7F
00
00
7F
00
62
00
02
06
7E
76
05
71
00
00
7B
78
05
7B
00
79
01
6C
71
0F
05
73
02
76
06
77
0C
10
6A
00
79
20
02
08
02
78
75
00
0C
79
12
08
63
72
01
00
7A
7B
70
11
00
00
72
7E
7D
78
6E
05
7D
09
7E
7F
05
70
00
0C
7A
00
7A
73
15
75
75
09
01
7F
79
7E
7C
04
06
00
78
04
00
75
02
01
13
06
7A
7A
01
71
7A
7B
00
01
7D
76
7C
01
7E
03
05
00
00
00
79
00
00
79
03
06
78
0A
0D
00
00
78
07
01
78
7D
7B
77
7A
77
72
18
0D
05
04
1B
76
7F
00
00
00
00
00
00
00
00
00
00
00
00
00
00
00
00
00
00
00
00
00
00
00
00
00
00
00
00
00
00
00
00
00
00
00
00
00
00
00
00
00
00
00
00
00
00
00
00
00
00
00
00
00
00
00
00
00
00
00
00
00
00
00
00
00
00
00
00
00
00
00
00
00
00
00
00
00
00
00
00
00
00
00
00
00
00
00
00
00
00
00
00
00
00
00
00
00
00
00
00
00
00
00
00
00
00
00
00
00
00
00
00
00
00
00
00
00
00
00
00
00
00
00
00
00
00
00
00
00
00
00
00
00
00
00
00
00
00
00
00
00
00
00
00
00
00
00
00
00
00
00
00
00
00
00
00
00
00
00
00
00
00
00
00
00
00
00
00
00
00
00
00
00
00
00
00
00
00
00
00
00
00
00
00
00
00
00
00
00
00
00
00
00
00
00
00
00
00
00
00
00
00
00
00
00
00
00
00
00
00
00
00
00
00
00
00
00
00
00
00
00
00
00
00
00
00
00
00
00
00
00
00
00
00
00
00
00
00
00
00
00
00
00
00
00
00
00
00
00
00
00
00
00
00
00
00
00
00
00
00
00
00
00
00
00
00
00
00
00
00
00
00
00
00
00
00
00
00
00
00
00
00
00
00
00
00
00
00
00
00
00
00
00
00
00
00
00
00
00
00
00
00
00
00
00
00
00
00
00
00
00
00
00
00
00
00
00
00
00
00
00
00
00
00
00
00
00
00
00
00
00
00
00
00
00
00
00
00
00
00
00
00
00
00
00
00
00
00
00
00
00
00
00
00
00
00
00
00
00
00
00
00
00
00
00
00
00
00
00
00
00
00
00
00
00
00
00
00
00
00
00
00
00
00
00
00
00
00
00
00
00
00
00
00
00
00
00
00
00
00
00
00
00
00
00
00
00
00
00
00
00
00
00
00
00
00
00
00
00
00
00
00
00
00
00
00
00
00
00
00
00
00
00
00
00
00
00
00
00
00
00
00
00
00
00
00
00
00
00
00
00
00
00
00
00
00
00
00
00
00
00
00
00
00
00
00
00
00
00
00
00
00
00
00
00
00
00
00
00
00
00
00
00
00
00
00
00
00
00
00
00
00
00
00
00
00
00
00
00
00
00
00
00
00
00
00
00
00
00
00
00
00
70
71
7D
02
00
00
00
01
00
7F
7C
0C
01
7F
00
7A
77
6A
79
04
7B
00
02
73
74
79
09
7D
7D
01
0A
7D
7C
7F
07
79
7D
08
08
00
7F
00
02
7E
07
7E
69
7A
03
05
75
01
74
04
06
09
76
7E
7E
79
08
74
05
02
00
7A
7D
0B
09
7E
03
78
06
70
72
74
7B
7E
00
06
7F
7F
78
06
00
0B
02
05
7D
01
04
06
05
7D
00
0E
06
75
6C
07
7B
0A
02
7E
02
76
7F
72
00
0C
7B
04
02
7A
0B
03
7E
77
70
09
04
7E
00
7A
79
01
0A
7A
76
0C
7D
73
00
00
06
71
7E
02
7C
02
76
00
06
73
05
00
7E
08
02
02
7F
78
0A
00
7F
02
78
00
74
00
05
7E
74
7F
02
7C
10
79
07
78
75
00
7B
03
75
7A
0C
7A
00
07
76
7B
06
01
01
76
00
78
02
0E
76
0C
0C
7B
01
08
79
0E
7C
7D
06
7E
73
72
05
0B
78
0B
00
07
06
04
7A
07
76
76
73
05
01
7D
6E
02
74
7D
7E
0A
79
79
6D
76
08
09
7B
09
01
74
6A
77
7C
0A
79
0B
07
04
7F
07
78
01
7F
06
73
75
09
71
04
79
7C
7A
7F
7E
6B
02
07
7F
00
7E
13
06
0A
00
79
02
77
0C
6B
69
0B
73
01
7C
03
7D
01
05
76
78
79
02
07
00
77
78
0F
7A
06
01
05
03
09
03
75
7A
7D
7F
03
00
7E
6D
01
00
01
7E
00
09
7A
7C
7F
09
70
75
04
00
73
00
00
01
04
00
7E
73
7F
6A
04
02
00
00
07
10
00
7F
7E
04
77
6B
7D
78
07
06
64
04
00
7F
6D
74
0D
0C
7C
02
73
0F
0B
03
74
7E
79
7E
0B
7D
7E
02
09
75
00
00
7F
00
62
00
7F
7B
04
01
7A
79
00
00
05
72
74
00
00
0C
01
05
7C
76
7E
02
00
01
6A
0E
6D
00
08
00
05
7F
7C
01
04
76
70
00
7F
7A
7A
7D
05
73
01
00
7D
03
7A
78
00
00
78
79
7B
7A
02
7E
07
76
7B
08
7E
6D
00
78
05
7A
15
75
6F
7E
01
05
7C
08
0F
04
7E
7C
01
00
01
00
00
09
05
04
00
05
03
6F
0D
74
0E
06
00
7A
7D
0D
7D
7E
00
7B
74
00
00
74
74
00
00
03
79
7E
79
05
66
10
09
76
7D
03
01
79
04
02
0B
06
6A
7C
0C
7C
7B
7A
7D
7F
6F
77
05
7C
00
06
00
0A
00
0E
03
1C
09
0D
00
79
76
7A
11
01
00
00
6F
10
79
08
08
07
13
07
0E
04
7A
7D
00
0D
14
01
0F
00
02
6B
09
11
0C
7B
0A
7B
0B
07
73
08
73
0C
05
04
02
11
7B
76
1B
6E
0D
02
00
7F
12
7E
00
08
0B
7E
0A
5E
08
70
7F
02
00
04
11
75
08
0B
00
04
02
12
07
02
07
77
01
76
00
7F
0B
7F
62
00
11
06
03
75
07
02
6A
0B
0E
08
05
08
7B
01
04
78
10
06
16
09
10
0A
00
10
03
05
0F
03
7C
09
0C
07
7A
00
7C
09
0B
0A
05
75
7F
00
02
7A
7D
00
79
03
11
6F
07
7C
12
00
0A
05
09
00
73
00
00
0F
7A
0E
01
08
0A
08
1D
7A
0A
0E
7F
09
7F
1D
7F
7A
00
14
7B
0C
77
79
0E
00
0C
7E
79
06
02
79
7E
7F
0B
09
7D
15
00
73
0C
01
7B
6F
17
72
0B
0B
09
02
7E
14
11
7E
7A
01
03
06
03
7F
7D
11
76
18
07
0B
02
7C
7E
04
07
00
7C
0F
7A
09
04
79
7B
06
01
12
09
08
12
0A
71
05
0E
0E
75
0F
00
07
0E
09
02
7C
79
0E
10
7D
00
03
00
71
79
0A
7D
06
08
05
00
19
1B
0F
10
0B
0B
76
03
7D
0B
77
09
07
0B
08
7B
00
02
65
7E
03
14
0A
04
0D
0B
0A
7F
05
16
03
77
00
02
01
09
00
04
7E
06
06
69
7F
04
25
6D
06
00
79
01
6F
00
74
02
00
7E
7F
04
0C
0F
10
00
00
05
02
00
75
76
0E
05
75
7A
04
06
08
5E
7D
06
09
10
7D
7E
08
7C
08
06
0C
7A
78
0A
77
09
00
05
05
79
10
10
07
00
00
09
00
5B
00
7F
07
02
7D
05
75
00
00
01
73
76
04
00
0B
06
10
78
7C
10
78
05
74
07
02
09
0C
20
00
04
10
74
1E
77
7E
77
00
11
09
17
78
16
02
72
00
04
14
07
6F
00
00
05
78
09
7A
12
07
06
07
0B
08
11
71
00
09
07
79
10
08
05
10
70
09
08
03
7E
07
7F
0B
05
00
0F
7C
00
7F
0A
06
12
7F
7E
71
7C
07
07
04
00
06
07
03
73
0D
0A
03
08
00
00
0F
7D
00
00
1F
01
03
76
1F
78
12
01
72
07
09
0D
7C
05
0A
06
11
74
00
08
07
05
06
7B
7F
7B
7D
08
6D
00
08
00
04
00
73
02
68
5E
17
00
0C
72
0B
70
0A
04
00
7E
0D
7B
7D
7A
0A
68
7E
7E
75
0E
67
08
0D
7D
7B
70
00
05
10
07
78
06
11
7E
07
15
75
0F
04
7D
73
7C
7E
06
01
01
09
7B
7E
09
0A
00
7D
75
6C
7C
08
07
13
7B
06
10
67
00
00
00
06
79
05
00
7A
00
05
7D
7D
7E
03
03
7F
7E
7F
00
7A
77
01
05
04
06
7B
0F
02
09
7D
75
66
76
6F
02
06
7A
09
78
07
77
09
79
07
6F
00
00
03
06
71
78
78
6A
78
0B
07
7D
00
76
0B
01
73
7D
00
02
00
04
19
7F
00
0F
14
71
75
0E
7A
03
00
71
01
7B
00
7A
04
06
6F
79
7E
7D
0A
7B
74
5D
16
7E
02
04
74
13
7C
70
07
00
00
06
0F
04
0E
1F
07
77
00
6A
02
0A
72
00
19
7A
01
11
7D
01
72
07
70
04
7F
63
6B
00
76
7F
6F
03
73
02
7E
05
03
7B
7A
02
0D
7C
6B
70
77
03
79
04
06
7E
0C
6E
7B
05
7B
7C
09
04
6B
74
03
7D
72
7C
7C
7B
7E
09
7B
6C
02
7C
02
18
05
7B
06
6F
02
07
71
7B
79
10
02
00
7E
7E
0B
7E
7A
05
6F
77
78
65
76
05
7A
76
08
76
01
04
0D
7D
15
00
01
7E
00
74
00
03
7B
07
0E
7B
01
03
00
7E
09
7A
01
76
00
02
7E
7E
00
03
00
7C
06
03
7A
07
7A
7A
70
01
7A
04
0A
00
71
05
00
7D
08
7D
75
7B
04
00
00
7D
0A
00
0A
02
08
0B
79
10
74
7E
16
70
7C
07
0B
7A
00
7E
05
01
01
09
7E
03
73
72
78
63
78
04
03
08
0E
6D
71
00
00
00
00
0F
00
72
0D
05
00
0E
7C
00
00
75
08
11
04
00
0F
00
0D
07
75
06
0D
04
0E
7A
7E
05
74
02
00
7B
1C
7F
79
0D
7F
0F
00
7D
08
72
20
18
7A
09
00
7F
76
07
7E
00
00
6C
0B
09
11
04
7D
08
6A
78
01
11
74
00
68
04
03
79
06
6D
78
0B
7B
6A
09
78
7D
78
03
7F
00
59
09
00
02
0D
7E
77
06
7E
03
7C
01
75
7B
00
7E
78
06
00
79
7E
78
67
00
00
08
02
00
00
15
07
0E
01
7C
0A
74
7B
0C
6A
76
00
74
06
02
7E
11
0B
06
5C
04
77
0A
76
00
07
07
7B
0E
00
00
00
02
00
04
7D
0E
01
7C
00
02
0F
73
7C
7E
05
00
07
76
02
73
79
7E
79
05
0D
01
72
7E
7E
09
73
7C
0B
00
66
18
07
02
7B
7B
02
78
74
14
7C
6A
7D
05
10
7E
7A
00
7A
7B
74
05
76
7B
00
07
7F
0B
0C
77
0E
77
08
0A
76
72
7D
7A
00
76
7E
07
02
0C
00
77
01
0E
7D
00
7B
07
09
7F
00
7C
7D
0C
78
7F
76
79
7C
03
7B
08
03
24
1D
04
05
73
7D
78
16
7A
73
02
75
6A
02
79
00
07
00
02
02
06
1A
08
77
7C
09
00
7B
6C
7C
05
75
77
01
00
7B
75
7D
00
7B
02
79
11
7C
06
7D
00
77
04
6C
00
07
79
02
71
07
6B
7D
05
0E
00
06
02
04
08
03
0A
7B
7D
0B
74
00
77
7C
05
14
7C
02
78
7A
7F
7F
02
0C
7C
75
13
7B
7A
00
0B
09
09
76
0B
7F
0E
70
03
6F
04
77
0F
0C
75
73
08
02
06
06
7E
03
00
77
7D
11
7E
77
10
0B
00
06
6F
17
14
75
77
05
03
0D
18
0B
7C
00
69
03
06
79
7E
15
0D
7C
75
04
75
0E
06
03
03
76
77
74
75
18
77
03
0D
00
04
7E
17
0F
0B
7A
01
07
71
09
08
7C
0E
08
73
6F
7D
79
11
02
70
79
70
13
00
7A
10
08
02
7F
05
7F
0E
00
72
0B
06
7C
7A
7D
00
78
0B
03
00
06
03
04
03
02
04
07
02
09
02
0C
22
08
7F
00
7D
70
00
09
02
05
7E
6E
7C
00
00
03
76
00
01
05
78
6C
66
68
01
6A
0D
08
00
76
78
0C
06
7A
76
0E
75
6E
7E
1A
0F
17
06
08
08
09
7A
7B
6C
15
7B
00
00
02
00
00
00
11
77
02
02
6D
07
00
00
08
6C
70
06
00
7C
7D
00
7F
01
0C
7E
79
7A
04
7C
7F
15
01
00
01
09
11
05
0F
76
7B
00
75
02
02
0D
09
08
78
00
04
76
04
73
00
00
10
00
03
01
78
06
7F
05
0C
13
7E
0A
00
74
07
02
00
11
72
01
70
0C
05
00
7E
78
77
03
79
00
1D
7F
00
03
7F
7B
01
01
74
12
7C
03
0A
01
00
77
7E
77
02
7D
75
7E
77
00
00
7D
0F
00
00
09
0A
73
74
04
6C
0D
7F
7C
02
0F
01
79
7A
72
76
11
04
6A
77
77
03
01
06
7D
04
78
79
79
00
07
00
05
00
04
04
0F
16
1A
00
15
0D
7A
76
09
03
00
0A
06
09
6D
04
74
7B
7D
06
78
02
74
7E
6F
04
08
06
00
0A
0D
06
00
08
02
7F
79
0E
00
06
0E
7D
03
05
7F
04
0D
07
01
19
00
0A
01
00
7D
13
7C
05
0B
14
03
09
73
04
70
02
03
00
0C
01
7B
7B
01
00
02
04
02
7D
05
05
00
7F
7F
00
04
7F
0A
78
08
68
0D
0B
01
08
7F
0A
04
79
0B
7D
08
08
03
08
0A
74
07
79
03
75
0A
00
19
03
01
06
01
7D
03
0C
7D
01
00
01
04
0D
01
7A
08
0F
00
00
77
0B
00
7C
20
03
7C
0B
12
01
00
0D
08
7F
00
7B
0B
08
76
00
02
04
19
04
79
71
07
01
03
09
03
7D
00
01
01
00
00
7E
01
03
05
7F
12
79
75
7E
7B
1D
02
01
77
7E
05
6F
7B
10
00
0F
7F
09
7D
01
7D
01
07
09
75
08
70
06
04
77
02
7F
10
08
12
11
6F
01
7E
04
02
0B
0B
7B
03
0C
0B
07
05
06
71
06
06
01
0C
7A
78
01
06
0E
05
01
0A
7A
01
7C
06
75
00
01
77
7A
03
02
75
0F
75
08
7F
00
78
06
11
07
77
08
7B
00
0C
65
00
10
7F
00
79
0F
7F
77
7D
7E
10
7A
05
01
00
02
02
0C
7E
71
10
06
09
06
04
08
0D
0B
02
7B
00
08
7E
04
00
07
02
7A
07
7A
06
06
06
6D
01
7D
7F
06
09
00
7A
10
00
02
0B
03
7E
03
08
00
00
08
7B
00
01
78
0A
08
78
7E
7B
70
0D
05
7E
05
04
01
02
7F
04
03
09
02
0B
05
00
7B
07
0F
7E
0C
04
7F
7E
7B
7C
00
00
03
00
74
00
7D
74
07
03
0F
07
00
00
01
7F
00
07
00
13
03
0B
05
78
09
04
03
02
7B
01
04
76
0A
00
7D
5E
7F
06
09
77
09
00
02
71
71
73
0A
79
02
00
00
7E
11
7E
00
00
74
0A
7C
79
01
04
7C
01
03
05
7A
7E
00
6E
03
01
0D
0E
71
00
05
08
04
06
04
03
7E
7A
03
00
77
03
00
08
05
05
7E
05
7E
75
07
01
03
02
00
7A
79
04
08
00
7C
7B
7E
00
00
7C
00
00
00
1B
7D
05
78
7E
7A
09
05
7F
07
00
0D
74
06
07
07
11
07
7B
73
04
79
6C
05
7F
02
0C
17
7A
00
7C
00
0B
00
79
07
79
7E
5B
00
00
0E
0B
02
7D
05
00
11
09
04
0C
7F
12
06
7F
0A
0B
71
0E
13
14
79
0B
02
00
6E
06
07
08
0A
7D
03
78
00
04
04
7A
78
74
0D
79
78
65
00
11
0D
08
67
7A
00
12
01
08
78
02
7A
07
02
78
6C
7F
7B
01
00
06
77
7A
03
08
00
7A
04
7B
7E
7C
03
0F
7E
01
00
08
03
06
54
7B
16
79
00
7E
09
7C
0F
65
70
7E
00
02
78
63
00
12
75
05
7A
02
08
0F
00
0C
00
7E
6D
04
0B
08
73
77
0F
00
06
0B
06
00
7A
7E
02
00
02
7D
08
00
09
02
09
0B
07
0D
10
00
71
02
10
00
76
79
0D
68
00
74
06
0F
0B
0B
13
7D
78
0E
0A
7D
78
0B
0D
05
00
1D
07
0B
7F
02
06
0F
05
7E
12
7D
77
7D
7D
13
7A
03
22
04
7B
7D
02
7E
76
02
14
0B
7B
6F
04
7C
7C
71
04
01
7F
01
04
7E
78
6F
7D
05
76
76
03
7A
7F
79
19
6E
7A
7D
08
09
0A
0F
69
7C
02
0A
05
6E
01
07
72
7C
04
6E
02
7D
09
7B
7C
7D
04
78
7D
18
04
00
70
09
0B
7E
00
6C
7F
76
04
06
01
00
04
04
72
7A
7C
0C
7F
72
70
65
75
79
72
7F
7E
61
02
00
03
12
7E
08
15
0A
6D
7F
04
0C
73
7E
64
09
04
00
01
78
06
00
77
7C
0F
7C
7B
17
7C
0A
0D
05
0E
08
77
02
00
0F
69
00
7F
0C
09
00
13
78
00
00
06
13
00
75
00
75
75
01
04
0D
72
7D
0C
75
08
7B
7E
76
04
7C
03
0A
73
09
72
01
71
0B
06
7A
76
07
7F
77
1A
10
00
00
03
00
1B
00
03
11
0B
01
05
79
00
00
0B
7B
78
73
00
7B
02
00
0D
04
03
74
06
03
7D
05
12
7C
02
00
7B
27
0D
11
06
7C
07
00
09
78
72
06
0D
76
05
00
08
02
7F
7B
00
00
77
00
04
5B
09
00
0B
0E
03
78
0F
12
00
06
03
7F
13
07
50
04
7E
0A
07
7F
02
04
07
06
05
00
03
7D
00
78
02
0A
5C
7C
7C
0E
00
03
7C
7C
00
77
02
7D
7B
0A
7E
0A
0B
00
00
0A
76
00
00
0F
05
0F
7C
7F
06
7E
03
08
7F
08
02
07
0D
06
77
7C
14
79
06
0B
04
22
08
10
6E
07
19
7B
00
78
00
79
00
7E
73
7C
7B
11
00
7F
6C
03
7E
17
09
00
76
0A
6F
11
00
20
74
03
7E
02
7F
00
19
17
01
7A
03
00
00
74
0C
7C
0E
01
06
7F
78
7B
7A
7D
6F
0C
01
05
02
7B
00
70
03
76
0F
79
00
77
78
7F
7B
01
08
06
06
70
7A
76
7D
02
00
01
77
7A
07
7C
00
0A
7C
09
03
01
0D
10
05
00
00
04
07
7D
6F
7E
03
0E
76
76
03
7A
00
04
01
03
0A
04
0F
7B
7D
7F
7B
76
7D
02
09
01
00
04
06
10
75
06
76
01
06
14
7D
00
76
7B
02
04
02
00
7B
00
05
08
78
00
05
0E
09
78
78
00
18
00
03
7B
08
00
7A
7B
74
79
02
7F
79
76
0E
72
78
76
01
01
01
02
75
00
01
04
00
7F
79
0B
7A
01
19
04
07
7C
6D
1C
7F
07
0B
16
0A
10
0E
05
0C
76
7F
0F
70
7A
7A
7C
7F
07
7D
04
01
01
7D
03
06
78
01
06
7C
7A
03
7C
7E
0A
03
03
7A
78
72
7F
72
7D
7D
01
79
12
04
7C
7A
06
07
7E
06
01
03
03
7A
7F
07
04
78
78
17
00
08
07
78
71
03
7A
7F
0A
00
01
00
75
08
05
7E
75
79
7D
7D
7D
6D
79
0E
7C
01
7B
72
0F
13
73
79
06
12
7A
01
00
09
74
7F
03
1A
7C
0B
03
02
7E
7C
0C
09
02
01
00
7D
00
7C
00
02
02
74
14
72
73
78
05
73
08
07
7C
7D
6F
00
76
00
00
00
7E
7F
0F
7E
7F
00
00
01
14
00
7F
77
7D
7D
06
21
03
77
03
12
00
7C
04
0D
75
09
0E
76
00
07
06
7B
03
03
03
76
01
77
7D
7A
7D
71
7B
00
00
01
00
7B
00
0C
14
7D
73
02
09
00
00
7B
7B
74
78
00
08
79
04
74
6F
74
75
01
7D
7D
0B
09
73
04
00
7B
0F
7E
00
7D
01
67
00
7C
04
6F
0D
70
7D
02
00
02
0E
00
77
00
00
0A
72
79
78
0B
7C
12
78
06
02
17
74
00
06
06
7A
0B
7D
73
0D
7E
02
7C
03
01
01
08
0F
00
00
77
04
00
7D
00
7D
07
07
07
6D
06
08
7C
05
00
03
02
11
75
7A
06
7A
77
00
00
02
0B
00
00
07
03
78
7B
04
00
73
7C
00
7F
06
02
77
0A
08
02
05
74
00
08
06
0A
16
6B
05
00
00
00
00
00
00
00
00
00
00
00
00
00
00
00
00
00
00
00
00
00
00
00
00
00
00
00
00
00
00
00
00
00
00
00
00
00
00
00
00
00
00
00
00
00
00
00
00
00
00
00
00
00
00
00
00
00
00
00
00
00
00
00
00
00
00
00
00
00
00
00
00
00
00
00
00
00
00
00
00
00
00
00
00
00
00
00
00
00
00
00
00
00
00
00
00
00
00
00
00
00
00
00
00
00
00
00
00
00
00
00
00
00
00
00
00
00
00
00
00
00
00
00
00
00
00
00
00
00
00
00
00
00
00
00
00
00
00
00
00
00
00
00
00
00
00
00
00
00
00
00
00
00
00
00
00
00
00
00
00
00
00
00
00
00
00
00
00
00
00
00
00
00
00
00
00
00
00
00
00
00
00
00
00
00
00
00
00
00
00
00
00
00
00
00
00
00
00
00
00
00
00
00
00
00
00
00
00
00
00
00
00
00
00
00
00
00
00
00
00
00
00
00
00
00
00
00
00
00
00
00
00
00
00
00
00
00
00
00
00
00
00
00
00
00
00
00
00
00
00
00
00
00
00
00
00
00
00
00
00
00
00
00
00
00
00
00
00
00
00
00
00
00
00
00
00
00
00
00
00
00
00
00
00
00
00
00
00
00
00
00
00
00
00
00
00
00
00
00
00
00
00
00
00
00
00
00
00
00
00
00
00
00
00
00
00
00
00
00
00
00
00
00
00
00
00
00
00
00
00
00
00
00
00
00
00
00
00
00
00
00
00
00
00
00
00
00
00
00
00
00
00
00
00
00
00
00
00
00
00
00
00
00
00
00
00
00
00
00
00
00
00
00
00
00
00
00
00
00
00
00
00
00
00
00
00
00
00
00
00
00
00
00
00
00
00
00
00
00
00
00
00
00
00
00
00
00
00
00
00
00
00
00
00
00
00
00
00
00
00
00
00
00
00
00
00
00
00
00
00
00
00
00
00
00
00
00
00
00
00
00
00
00
00
00
00
00
00
00
00
00
00
00
00
00
00
00
00
00
00
00
00
00
00
00
00
00
00
00
00
00
00
00
00
00
00
00
00
00
00
00
00
00
00
00
00
00
00
00
00
00
00
00
00
00
00
00
00
00
00
00
00
00
00
00
00
00
00
00
00
00
00
01
1C
7A
0A
00
04
00
78
00
0D
03
12
10
61
00
73
75
7F
05
01
03
00
03
16
06
03
02
7B
06
02
01
04
7C
12
09
10
03
7A
0F
00
77
02
00
04
04
6F
0A
74
00
7D
01
02
02
7A
79
7B
77
7D
00
73
64
7B
7C
6C
00
7A
05
7C
09
7F
7C
0C
00
6C
79
1E
02
02
00
01
7C
00
0B
02
00
7A
7B
06
02
7D
0A
00
7F
09
00
79
00
7A
66
74
18
72
01
7B
77
02
7C
14
02
74
06
7D
7D
03
77
7E
10
7C
0F
7D
7C
7B
00
03
7E
74
10
7F
20
02
7B
07
0E
00
7C
07
03
78
02
04
7D
00
78
77
03
00
74
7F
73
00
00
11
0E
00
7A
0B
06
00
00
01
7C
11
08
76
00
79
21
08
1F
0B
7E
03
7D
76
7D
78
01
7C
00
09
7F
07
7E
03
09
0C
01
09
78
7A
7C
79
06
76
74
7A
7A
1F
03
0A
76
02
7D
12
7B
7B
73
06
77
7A
00
0D
7A
76
00
7C
0A
7C
7C
7A
0A
0A
13
09
7C
7B
71
76
1C
6E
02
7E
7C
7D
7C
03
07
04
09
7C
7C
06
7B
79
6C
02
0C
7C
03
7A
7F
7D
07
08
79
05
7E
7F
03
08
7F
04
7C
7E
00
7C
7C
77
79
02
04
08
7C
01
27
75
07
7A
04
7D
74
7C
03
7E
0A
7B
09
70
7B
00
73
0A
75
01
0F
07
79
00
7C
04
04
7D
78
08
05
00
7B
76
7C
00
7B
04
01
00
79
73
04
7B
0E
7C
00
03
07
01
00
04
03
00
04
02
7F
05
7D
0A
00
00
0C
7F
00
0A
00
03
7B
15
7A
03
78
0B
0D
7A
00
79
02
0C
75
7B
03
76
02
05
7A
03
13
08
1F
7C
00
7B
01
03
20
7E
00
00
00
00
76
00
1F
13
7E
04
78
7E
00
00
79
71
7D
06
00
09
0B
02
7A
0F
73
05
72
04
02
7A
78
09
7B
00
7F
01
11
79
7F
0D
7A
00
7A
11
16
0C
22
78
7D
00
07
72
02
75
00
00
0D
02
0F
7F
05
00
03
02
77
7B
03
6A
00
05
02
00
79
04
7F
7C
7B
74
03
01
79
04
02
7D
7C
00
0B
03
00
7C
0A
7E
06
0A
03
07
79
74
77
70
00
04
05
00
7D
04
08
06
13
00
00
04
7B
00
00
0D
12
7F
05
6A
0A
0D
7A
7F
05
04
79
0D
7C
02
00
01
08
02
0A
7F
7B
1A
7B
7F
05
7E
02
0B
00
10
00
03
00
0E
06
78
08
22
00
05
10
7F
71
05
05
00
03
0D
00
0A
04
01
02
0F
08
70
09
0A
79
09
0A
7F
7E
00
12
0B
0E
09
13
05
08
79
0D
79
04
24
00
74
14
01
17
68
08
7F
15
7B
05
03
00
7B
0D
03
7D
0F
14
08
7C
78
03
12
6A
7D
00
0D
65
05
02
10
00
0D
00
7D
7A
06
08
03
10
00
00
04
75
03
08
7F
09
0B
04
7B
06
78
08
16
75
02
01
10
7B
7D
06
0B
7D
01
05
07
6B
02
00
04
7E
75
76
7A
0E
06
13
02
10
00
02
0E
0D
72
07
0A
7A
00
07
0B
7F
00
03
1E
05
02
00
09
01
00
0A
75
10
00
7D
09
05
03
7C
0D
03
0A
05
72
0F
7D
76
0F
04
7C
7E
78
7F
09
00
0C
7B
0E
00
00
76
0A
05
05
6F
77
1B
0A
11
0A
05
00
00
0E
14
78
0E
02
07
0C
04
02
0E
09
0B
7C
09
07
03
01
75
7C
79
12
05
0C
1B
00
7D
05
0C
05
12
0A
05
06
79
04
03
09
7B
7F
0D
02
7C
0A
76
16
79
02
7A
01
74
0D
11
0A
75
05
74
7F
7F
14
02
7A
06
05
7D
06
07
08
00
7D
05
05
0C
06
05
7F
7E
03
0D
06
06
73
01
00
0B
00
03
72
79
1C
7F
05
00
00
06
00
09
77
7C
0D
75
7F
0A
12
06
01
72
7E
0A
00
02
0A
73
00
0D
00
06
02
05
7A
02
79
78
75
04
05
0B
04
00
01
11
00
7E
7B
01
0F
07
01
00
00
09
00
00
7F
7C
79
10
0B
02
03
7F
18
06
02
08
03
09
13
00
01
04
05
0C
06
08
76
00
0A
11
77
7A
03
06
0A
79
74
00
00
09
00
00
00
78
0E
00
7E
0F
14
00
00
07
7F
07
7E
00
03
0B
1B
7D
11
03
7B
04
7D
77
05
03
7E
02
00
03
75
07
7D
0C
7B
01
00
04
13
02
77
02
6F
08
00
73
09
7F
7B
00
00
05
0A
71
08
08
0C
00
73
78
0B
7C
7A
00
0B
02
78
04
0B
0F
77
06
05
77
02
02
05
7E
7D
06
00
75
7F
00
02
7D
01
01
0E
0F
00
03
7A
7A
04
00
05
00
0B
05
06
09
0E
13
00
00
78
7D
00
00
13
12
09
04
7F
7B
76
00
05
7B
73
71
09
05
0D
0C
10
76
7E
0A
0B
6F
07
09
03
03
00
75
7A
00
05
00
7C
00
09
7A
7A
06
7C
00
7E
0B
11
12
01
0C
00
75
0A
7B
09
05
79
00
78
7D
09
7D
18
76
0D
05
74
01
00
0F
7A
7C
78
75
05
0C
00
02
7B
7A
7E
7A
0A
77
7B
7A
77
06
77
7C
01
74
7C
00
04
7B
01
7C
7B
79
7F
08
09
05
10
7B
03
00
79
74
7E
0C
7D
00
7F
7B
03
0B
05
05
7E
75
04
00
79
03
7B
7B
06
0A
01
75
7D
02
04
00
16
7E
7D
09
7A
0A
00
7B
76
15
08
0F
05
09
75
00
01
04
15
06
14
04
78
7F
7F
06
00
7A
76
7A
06
7D
01
0C
00
7E
79
78
00
0D
73
00
74
07
7F
00
00
05
0C
02
00
0D
7E
02
07
09
78
78
08
73
07
1A
06
02
7F
74
0D
79
78
7D
00
00
07
73
7D
74
74
77
02
7C
7D
00
00
76
7B
01
74
02
05
7C
0A
00
0C
78
0E
7D
7D
75
01
06
10
78
79
7E
77
78
77
7F
10
08
00
05
7A
7B
1B
01
7E
00
6F
7E
08
03
76
7E
75
03
78
74
7A
0F
7D
00
04
08
77
71
00
7B
06
03
7F
09
70
00
77
7A
10
7C
0B
6F
71
7F
10
12
7E
74
79
00
02
7A
79
73
04
7E
01
06
74
35
0B
06
7E
09
01
06
01
02
79
08
76
03
75
04
00
7F
06
7D
00
7B
7F
77
06
06
00
7F
07
79
02
7E
00
7D
7A
0A
00
7A
7F
73
7E
7B
77
7C
76
03
0C
7E
78
08
6C
00
7A
77
00
7F
0F
7F
08
76
74
00
00
7E
73
00
07
7D
00
18
04
6D
02
7F
7C
16
7D
7C
03
10
7E
00
04
77
75
03
02
73
0A
0E
7A
05
0E
7F
7C
00
03
02
03
00
00
7F
00
07
00
13
02
7C
7C
07
77
00
00
78
00
03
7D
00
72
02
00
6C
0B
79
05
7E
78
04
76
12
10
7B
00
72
6D
07
74
7D
11
77
00
79
02
28
7B
74
0E
7B
00
08
05
0A
7A
00
00
03
7F
02
01
09
7C
7A
0A
7F
7B
04
05
00
15
7E
7D
7D
78
19
12
7F
74
0A
7B
02
02
02
7C
7E
00
7D
7F
00
75
76
05
02
02
09
6E
04
12
78
03
00
01
08
07
78
79
09
7E
11
00
00
0E
0B
00
00
02
03
7D
07
74
7B
7C
04
04
19
7B
77
0D
04
00
7C
7B
05
06
06
7C
0A
08
7D
7E
10
73
7A
7F
00
09
00
03
00
7A
7E
76
7D
00
00
6A
7E
0D
7E
00
0D
00
08
0E
02
00
02
7F
04
07
00
00
02
7F
78
04
0E
7B
7C
00
03
65
6B
7B
0D
10
12
0D
7F
04
00
76
02
7F
03
07
75
06
02
05
7C
05
08
0A
00
00
6E
00
7F
7D
05
13
7B
0F
77
76
01
75
00
05
04
0C
01
0A
00
05
78
7B
03
0B
01
70
05
07
00
78
7C
7F
06
0B
7B
02
04
7D
01
75
05
7F
7D
7B
16
02
74
0D
7C
79
6C
7B
0F
01
77
01
00
07
04
7E
7E
03
67
72
77
0F
02
00
78
07
16
76
7A
79
0F
00
06
77
02
00
06
09
7A
7C
03
62
00
00
7D
74
13
00
7F
08
7E
77
7C
7C
01
0C
08
77
6C
03
76
14
07
6C
02
09
79
7D
00
7A
01
7D
01
7F
6C
78
7E
08
79
6D
03
78
0C
7B
03
7E
74
03
00
7B
06
7B
05
0A
7F
00
03
06
06
7E
0F
00
09
7D
7E
0B
0F
71
7F
06
01
6D
6D
0F
01
00
73
76
04
01
08
03
7E
77
05
6E
7B
76
71
06
06
73
7D
7A
0B
01
5A
08
00
76
7B
01
75
0E
08
14
7F
01
0D
7B
19
7F
08
7F
00
78
00
08
7F
7C
73
7A
72
7A
10
05
7D
7B
08
01
7C
11
7F
06
7C
66
09
03
07
00
7A
0C
6F
79
0C
00
01
78
7F
00
77
02
04
00
7F
00
06
7D
79
00
76
07
00
7E
01
02
0A
03
02
74
09
7C
7E
06
00
7A
09
00
75
7C
04
10
7C
02
00
00
10
73
00
11
77
06
7F
03
7D
0E
08
7B
06
7F
02
08
08
02
7E
04
7E
7B
08
03
7C
7D
77
0B
77
7F
0A
7E
01
00
7C
00
00
00
7F
00
11
00
6F
0E
7E
08
03
70
00
00
00
79
67
07
00
0E
7B
75
7E
7A
14
18
05
08
7A
03
0F
74
09
00
77
6F
72
68
0A
7D
07
00
7E
15
7D
7E
7E
70
7A
00
7D
03
7A
76
00
00
7E
08
67
7C
0D
7C
7C
7E
76
7F
10
18
00
0F
03
02
00
72
01
7E
04
01
7A
7A
03
04
03
74
7E
00
6F
7F
00
7C
0C
01
01
7A
02
6E
03
08
77
01
00
7C
02
0C
01
7D
08
79
13
00
00
67
77
00
00
5A
7F
7D
0B
09
05
7B
7C
7A
66
0C
00
6F
08
06
7B
07
6E
57
7E
01
01
6D
7F
03
06
74
17
7A
00
77
00
7F
00
19
05
7A
79
78
00
01
7E
0A
7C
07
78
00
00
0F
7A
0D
7E
12
07
04
05
05
05
6B
0E
0E
79
00
06
00
7C
6E
09
03
0A
02
09
7B
7F
02
07
06
01
7D
16
05
03
77
7F
01
0C
08
09
7B
00
7D
0B
7C
03
05
7D
0F
05
7D
02
62
04
02
00
02
03
05
16
09
00
0E
7A
0C
05
05
0F
73
02
7D
00
7D
7E
7F
6E
7E
0F
06
7C
04
07
07
72
6F
00
01
0D
00
75
6D
7F
0B
01
04
70
7F
09
09
00
7A
0A
05
7D
0B
65
01
07
0B
76
00
70
7C
06
7F
7E
64
73
00
01
12
7C
00
7E
03
09
77
77
7E
07
00
7E
02
07
00
77
7C
76
05
7C
11
77
7E
75
03
7B
04
06
07
01
00
02
11
02
7F
00
05
08
08
0A
02
0E
79
05
7D
7F
7F
7A
08
05
18
01
7D
0D
77
04
7A
0D
74
7A
6D
09
00
15
7D
0D
79
77
00
04
07
00
03
03
0C
76
7C
7A
7D
60
7C
0C
7E
04
7A
73
71
0B
7B
01
7E
79
14
7F
7E
63
08
07
09
00
7C
79
03
7A
76
0A
7F
00
7D
0C
11
0E
09
00
73
7A
7A
09
03
7B
05
00
6F
06
0D
00
76
7F
76
76
08
7E
16
00
01
7A
02
13
05
7E
79
02
13
0B
76
79
00
7C
73
01
0A
11
7D
7E
0B
02
0C
7A
09
00
04
06
00
0C
03
79
00
7F
7E
7E
09
7C
0A
7F
1A
6D
7A
04
72
7F
00
00
72
7A
00
00
0B
7B
0B
7E
02
00
00
7F
05
00
07
76
0D
74
6E
11
06
11
01
06
7D
78
7E
15
09
07
03
7F
04
7E
7C
7A
7B
02
6A
7A
7C
7F
06
00
7E
73
02
00
00
0E
00
02
00
6D
0C
7C
7F
00
0E
00
00
7E
04
08
04
00
7C
02
09
06
7B
7E
05
0C
7E
75
79
09
7D
7A
00
01
00
72
18
7E
05
00
00
00
7D
07
0B
63
7F
01
00
7B
0A
05
13
00
00
05
7D
04
66
0B
05
03
02
05
01
0F
00
00
7C
7E
05
76
0C
78
05
7F
04
7D
07
04
07
04
04
77
00
7F
0E
00
02
03
02
77
7D
7E
72
00
02
02
03
00
7C
7C
06
05
02
02
0B
04
00
00
12
7E
00
00
07
7C
04
09
0A
0E
06
77
7E
79
0A
07
76
0E
0C
7A
7F
7A
7E
7B
0E
0E
78
7D
04
0A
7C
7A
75
00
79
00
7E
00
0B
02
7C
02
70
00
7A
0C
17
7D
7F
79
00
0E
7B
03
70
00
7D
7A
79
7B
02
7E
71
02
6A
77
76
71
00
75
0D
70
00
7C
7F
79
13
7F
0B
07
03
04
0A
08
76
7A
78
79
06
06
0B
75
71
00
0A
7F
03
04
7F
78
79
0A
20
05
6E
02
03
00
01
02
7E
75
7F
00
7B
7F
7B
02
7A
0E
0B
77
02
00
77
02
78
20
75
59
05
7F
03
02
08
09
7D
0B
7B
71
7B
0A
00
7B
02
6F
10
78
7A
0D
06
00
7F
03
0D
75
0C
06
7C
7B
02
77
00
06
7C
7A
04
7E
0A
78
00
01
6C
79
00
7B
6F
7D
0F
01
0B
0A
00
7C
03
79
00
08
72
05
6F
03
7D
7E
01
71
04
64
08
06
7D
7D
03
00
0C
77
04
00
77
78
7A
7D
7D
7F
7D
75
7C
11
73
75
7C
0D
74
00
7E
72
74
7A
7E
7B
06
0B
05
07
0F
06
7B
7E
7D
7D
70
11
7A
00
74
06
75
7E
76
06
7A
07
00
7E
7C
01
74
7F
79
0C
77
00
7A
0F
75
7B
05
7F
7D
08
05
7B
7A
79
03
1F
71
77
03
0E
05
6C
05
7A
7C
7F
0F
79
74
01
78
01
01
00
7F
75
7C
00
75
01
01
07
0A
69
07
05
0B
03
78
7F
79
0B
03
08
78
05
7C
7B
00
01
04
7C
03
77
04
79
7F
02
00
06
00
6E
7D
74
00
02
04
04
00
7B
7C
00
7A
0E
10
7F
13
16
0A
07
0C
7F
7E
00
07
7B
00
06
1F
78
7F
01
77
00
00
77
0E
00
78
07
78
6F
03
05
74
03
75
00
7A
7D
7F
01
7D
7E
01
7C
06
77
77
76
04
7D
7C
00
0C
7A
7E
7D
7E
7D
0A
00
00
7E
00
2B
00
02
77
00
75
05
71
00
00
03
01
01
05
00
7A
7C
7C
04
60
00
7C
04
00
0B
7D
7C
7B
7F
00
79
63
02
03
03
0B
12
00
7C
00
67
7C
75
02
7C
00
7E
77
76
09
00
00
7C
06
06
02
08
7A
7A
0C
07
7B
74
23
00
6D
79
08
73
00
6D
16
7C
02
00
7D
7A
79
02
05
76
00
1D
7A
00
7C
00
7D
7A
02
7B
0F
00
01
07
7D
00
00
7D
05
7D
03
7B
7C
6F
00
00
11
0C
00
00
76
7F
7F
7B
11
7C
7B
7B
19
00
09
0D
77
7E
7D
00
7E
23
1A
6C
78
0A
6B
06
03
00
00
00
00
00
00
00
00
00
00
00
00
00
00
00
00
00
00
00
00
00
00
00
00
00
00
00
00
00
00
00
00
00
00
00
00
00
00
00
00
00
00
00
00
00
00
00
00
00
00
00
00
00
00
00
00
00
00
00
00
00
00
00
00
00
00
00
00
00
00
00
00
00
00
00
00
00
00
00
00
00
00
00
00
00
00
00
00
00
00
00
00
00
00
00
00
00
00
00
00
00
00
00
00
00
00
00
00
00
00
00
00
00
00
00
00
00
00
00
00
00
00
00
00
00
00
00
00
00
00
00
00
00
00
00
00
00
00
00
00
00
00
00
00
00
00
00
00
00
00
00
00
00
00
00
00
00
00
00
00
00
00
00
00
00
00
00
00
00
00
00
00
00
00
00
00
00
00
00
00
00
00
00
00
00
00
00
00
00
00
00
00
00
00
00
00
00
00
00
00
00
00
00
00
00
00
00
00
00
00
00
00
00
00
00
00
00
00
00
00
00
00
00
00
00
00
00
00
00
00
00
00
00
00
00
00
00
00
00
00
00
00
00
00
00
00
00
00
00
00
00
00
00
00
00
00
00
00
00
00
00
00
00
00
00
00
00
00
00
00
00
00
00
00
00
00
00
00
00
00
00
00
00
00
00
00
00
00
00
00
00
00
00
00
00
00
00
00
00
00
00
00
00
00
00
00
00
00
00
00
00
00
00
00
00
00
00
00
00
00
00
00
00
00
00
00
00
00
00
00
00
00
00
00
00
00
00
00
00
00
00
00
00
00
00
00
00
00
00
00
00
00
00
00
00
00
00
00
00
00
00
00
00
00
00
00
00
00
00
00
00
00
00
00
00
00
00
00
00
00
00
00
00
00
00
00
00
00
00
00
00
00
00
00
00
00
00
00
00
00
00
00
00
00
00
00
00
00
00
00
00
00
00
00
00
00
00
00
00
00
00
00
00
00
00
00
00
00
00
00
00
00
00
00
00
00
00
00
00
00
00
00
00
00
00
00
00
00
00
00
00
00
00
00
00
00
00
00
00
00
00
00
00
00
00
00
00
00
00
00
00
00
00
00
00
00
00
00
00
00
00
00
00
00
00
00
00
00
00
00
00
00
00
00
00
00
00
00
00
00
00
00
00
00
00
00
00
00
00
00
00
00
7A
71
72
7B
00
0C
00
07
00
79
7F
74
79
68
00
7D
7C
00
7D
79
7C
00
05
70
79
6F
7D
6A
6B
78
7F
7B
0C
7F
6D
78
0A
00
6F
00
0B
0C
7E
7C
6F
07
01
70
04
04
09
0B
74
7C
7B
06
75
71
05
03
6D
07
7F
0F
00
7C
7E
09
74
01
09
7A
7A
01
03
78
00
7F
00
04
79
02
79
02
00
7C
00
75
78
05
6C
05
75
09
00
6E
76
05
72
04
70
06
03
06
07
00
16
7F
7B
02
73
01
0A
00
02
04
05
04
02
04
04
7C
00
0E
05
03
73
7C
08
06
7D
72
00
00
06
79
15
00
08
7F
17
00
04
77
01
00
05
06
02
0D
0E
00
71
00
74
7B
07
00
01
07
05
77
0E
73
7B
19
03
78
79
01
7F
04
00
79
7A
74
7B
12
00
76
7E
08
07
06
75
12
77
7D
05
7C
06
78
76
6B
01
0E
03
02
7C
7B
78
0A
07
7B
78
7C
7F
0D
79
7C
12
72
78
08
77
0A
0C
06
07
7D
0F
79
09
1C
0B
05
77
0B
7F
7F
7E
07
06
7D
0A
7A
7C
01
05
7B
03
7E
78
09
06
71
19
08
01
08
7E
6D
6E
7B
76
7D
7B
74
06
75
69
79
04
7B
00
06
7B
78
09
7C
7B
78
7A
66
7A
7F
78
7E
08
7D
06
65
75
00
7B
7B
7E
02
05
00
08
7D
76
0B
79
0D
67
7F
74
01
73
77
06
7A
7D
00
07
78
7D
00
07
10
78
74
14
75
03
7B
01
7D
7E
05
09
72
00
78
7B
00
05
02
0E
6B
7B
7E
00
00
7A
76
00
7D
0B
7E
13
12
6F
6F
06
06
79
7D
76
09
78
0C
05
7D
7A
00
75
09
7A
05
6A
19
07
02
7A
09
10
74
73
7B
00
00
7A
00
05
00
09
01
75
08
0E
72
00
00
06
7A
07
7B
00
0A
75
67
7A
7D
01
00
08
75
7B
7A
05
02
0F
00
05
77
09
7B
02
76
09
00
04
0C
6E
78
01
76
01
00
7C
06
7F
00
00
00
71
0B
12
04
7E
01
75
7A
04
01
6D
7B
00
7E
76
07
09
76
63
77
7F
78
77
00
00
73
00
7C
09
00
7E
7E
00
6E
06
01
79
13
69
13
02
08
76
05
00
76
0B
73
09
79
76
7D
6A
00
00
09
77
00
00
06
0A
05
7E
04
0E
09
05
7F
7C
70
79
7C
7F
7A
7A
05
0F
10
6D
04
06
72
06
74
7F
7C
76
79
00
0D
00
01
00
7C
79
7F
79
15
00
05
03
03
08
7C
03
00
7E
7E
0B
07
7E
7D
14
00
01
01
04
07
01
7E
04
05
75
00
12
7B
09
7B
77
0D
01
7C
7E
7E
78
09
7C
7F
71
03
05
21
08
11
05
00
14
10
00
0A
0B
02
03
78
7B
00
7B
10
0C
18
7C
7A
00
7C
7E
01
01
7A
00
7C
09
6F
7F
05
7F
78
7D
7F
00
00
7F
7C
28
0C
12
7B
00
7E
79
05
01
00
72
03
00
79
7B
15
7D
7B
07
03
13
07
77
7C
00
7C
7E
7D
75
7F
78
01
07
7C
7D
00
04
06
7E
7F
06
7E
04
00
00
0D
7A
00
05
7A
01
02
05
7A
7A
00
08
73
7D
00
06
01
09
11
79
06
0C
7D
71
06
14
7E
7E
02
7D
06
0A
75
03
7F
00
07
7D
7A
7C
7D
77
7D
7F
05
7F
79
7B
77
7B
7B
07
7D
08
0A
77
02
7C
79
0F
05
07
00
08
0A
7C
78
7D
04
7B
7A
7F
1D
7D
05
01
09
07
0E
78
0D
7D
7E
79
15
7F
10
72
7B
06
00
02
07
0A
72
0B
7C
7A
0C
01
00
13
02
72
12
7E
7B
01
15
78
7F
7E
00
06
05
7E
0D
76
7B
0B
7A
00
06
00
78
7D
03
7C
03
04
03
1C
7A
05
00
7D
7F
05
07
03
7F
7D
10
02
16
03
00
7A
01
01
7D
7E
00
10
03
01
7E
7B
7D
08
7E
01
00
03
03
05
00
08
05
01
7F
04
17
02
7A
7F
00
03
78
7D
7D
00
01
0C
00
7D
05
7C
06
01
7A
00
00
02
7F
00
7E
0F
76
10
0C
0B
01
0F
06
7B
7F
00
03
7C
79
7D
7C
0B
7E
08
0C
06
01
73
7A
65
04
7D
02
7B
04
77
7D
00
00
7E
00
0A
00
74
7D
7C
0A
03
76
00
00
00
0A
05
7F
00
76
01
09
7F
0E
0B
7F
04
01
7D
01
02
7B
7D
00
7D
7E
7F
7A
0A
02
05
00
7F
0D
09
08
6E
06
7C
00
7A
07
00
0D
00
00
73
03
6F
13
7D
7A
01
02
7D
7F
01
08
00
12
7F
7C
7A
01
21
01
7C
79
04
7E
7D
02
7E
7A
04
00
04
77
00
0C
7B
04
14
00
01
03
7F
01
7E
06
00
02
06
7D
7B
7C
03
7D
15
00
00
77
05
00
00
08
03
00
01
08
0F
78
09
03
1C
78
7D
0B
78
00
05
00
7C
0A
15
03
01
77
7A
09
03
7A
76
01
00
75
00
7C
00
08
09
7F
19
15
00
7F
75
04
00
7D
7A
00
02
77
02
02
07
79
06
7D
7F
00
0B
6F
75
76
79
0A
0E
00
76
66
0F
00
71
7F
73
6B
7B
7B
03
7C
07
7C
00
03
06
11
7C
03
76
07
04
03
00
7E
06
06
7F
7F
74
7B
7B
6B
07
7E
07
7B
00
7C
74
7E
75
00
00
77
01
6A
7E
02
72
78
01
04
00
7B
02
77
01
7B
04
77
05
0B
02
0F
69
68
6F
79
78
7C
70
0D
7C
05
78
7F
6F
01
7F
7E
00
67
00
7C
03
7F
76
03
0A
70
09
00
03
03
00
00
09
7D
77
00
02
01
02
00
08
7B
7F
72
78
6F
6C
00
10
70
72
00
7D
7C
7B
08
7D
78
7C
00
74
06
0C
7A
02
78
74
00
09
7A
03
02
00
02
09
79
08
7E
70
78
7F
05
08
70
77
06
09
07
7D
76
03
7F
04
02
04
73
0A
78
11
0B
02
76
04
7E
77
07
7A
06
04
76
01
7D
78
0A
6C
04
7C
73
03
7A
01
79
79
1A
05
7E
06
02
70
02
70
11
03
7C
06
77
7D
7D
10
7F
75
02
00
01
06
0D
02
02
7D
79
08
79
78
00
72
7C
06
7C
00
7D
02
7E
7B
78
02
02
7C
7C
73
73
7E
03
79
10
7D
10
7D
7D
07
7F
7F
11
76
00
7F
6E
7B
02
74
75
0D
00
77
05
04
7D
02
7D
08
00
09
7F
7B
00
7C
00
01
74
0A
00
04
74
6F
7F
75
7A
01
05
00
7A
12
00
08
77
7B
79
00
7A
00
00
6C
7A
00
05
05
79
70
7F
77
74
05
7A
68
02
7E
7E
76
0B
02
78
04
7E
00
7C
0E
79
7E
6A
08
7C
7F
04
0C
09
7B
08
00
00
02
00
5D
00
73
75
73
08
7D
09
00
00
7B
13
0F
00
00
6F
03
00
0A
09
7C
08
0A
04
08
78
77
73
76
00
0D
79
01
00
78
07
7F
00
08
78
78
04
09
0F
7D
00
73
7B
76
01
00
00
05
78
7D
13
7E
04
7B
7E
01
7F
70
63
00
76
75
0C
71
00
07
79
0B
7D
79
7C
78
7E
01
00
7E
00
10
05
00
08
75
09
03
7F
7D
14
03
00
7E
00
00
04
73
79
0C
05
7B
7F
7B
00
00
7F
04
00
00
06
78
07
07
7E
01
0D
7B
76
76
7A
78
7E
7F
04
73
73
77
06
78
7F
02
7A
05
7D
04
73
75
04
00
7E
00
7F
00
11
04
7A
0D
6C
00
03
7E
11
06
06
7A
00
02
00
7C
01
00
7B
0B
05
07
7F
73
13
07
00
19
08
7E
00
75
78
7D
75
03
7F
7D
0A
02
0A
06
06
01
05
09
7C
78
74
7E
7E
0B
04
0D
76
00
7C
7E
01
7C
0A
71
0A
08
73
03
02
04
7C
00
06
04
7D
7F
0C
00
08
01
7B
03
76
09
13
07
03
00
7C
0C
7D
6C
01
73
11
09
01
0F
02
7B
03
76
0E
76
03
07
07
0B
78
09
0E
1A
08
01
01
00
03
7A
01
7C
04
7D
08
79
06
7A
00
01
02
73
7C
77
0E
78
00
74
79
07
00
04
0C
0E
02
7E
03
0A
00
0D
06
09
00
03
03
7A
7A
7E
0B
08
01
14
78
05
01
76
7E
02
02
06
11
00
76
00
08
02
79
01
04
77
04
0B
0C
09
06
76
06
09
72
7D
7F
69
03
03
03
08
07
78
71
16
12
7E
78
07
02
7F
0C
0F
06
04
13
02
7F
7F
0A
06
0A
08
7C
7A
7C
6F
03
0C
7A
03
7A
77
7C
72
7D
00
69
78
07
04
0E
7F
01
78
0C
05
7D
04
7B
06
7F
75
0A
06
09
12
75
05
7E
6C
03
06
06
00
00
02
00
79
7C
00
7D
7B
11
0E
75
08
78
00
06
09
04
0B
04
6F
70
00
73
03
00
0C
74
79
7C
76
7E
7B
06
0B
03
77
00
73
03
04
00
01
72
7D
00
78
7E
7A
7D
7E
0B
04
0B
7A
01
00
00
78
06
00
01
0C
00
78
0D
01
7E
03
03
00
00
01
7E
00
03
7D
0A
17
0E
7C
06
03
01
77
02
0A
09
7A
7F
07
06
01
03
0A
0D
76
00
01
7D
04
00
06
7F
0C
03
0C
7F
00
00
7E
00
79
00
14
03
06
01
6D
74
00
00
7F
09
0C
7B
00
15
7C
0A
03
7D
17
02
79
01
7B
14
79
0A
7B
00
7A
6E
00
09
02
13
01
00
73
06
78
79
15
00
7C
00
02
09
78
7D
00
00
72
7E
04
14
07
76
06
79
7C
7B
00
7E
00
0E
03
7F
07
7A
0A
05
0C
7E
7E
7A
03
00
00
72
01
00
0D
7B
00
79
07
79
78
09
05
77
07
76
08
74
00
03
11
08
04
01
09
7C
07
00
00
11
76
00
00
6A
09
75
02
04
0D
09
05
0C
01
7E
0C
11
01
0B
08
0D
7E
06
0C
73
78
72
7F
78
6F
14
00
7F
00
71
00
03
00
7D
02
11
01
0C
00
79
6D
01
76
02
01
00
7A
75
09
7C
02
06
78
7D
08
73
0E
75
7B
75
02
0E
7A
00
68
72
7C
05
7B
74
6B
6B
02
7F
05
6D
78
78
6D
0C
6F
17
7A
73
04
75
79
7C
00
6F
73
76
7D
07
08
74
01
60
13
63
7B
77
00
07
6D
7A
06
7C
00
09
7F
06
73
07
7F
68
00
6F
00
7F
78
6B
06
05
04
0D
02
05
0D
70
71
60
7E
08
7A
09
7F
24
0C
07
75
01
6F
02
7A
01
00
7B
06
78
25
75
0D
0D
0D
6E
0F
00
08
79
07
03
02
6D
76
00
13
74
13
00
68
7E
07
74
02
65
6A
00
0D
00
6A
00
69
7B
7E
6B
79
6C
74
79
28
77
76
7D
02
6E
04
73
08
7E
09
09
00
7C
7C
09
00
0C
0F
04
7D
72
6D
01
76
01
71
08
7F
00
7E
7C
74
7B
05
71
7D
60
70
70
6F
7B
07
07
05
7B
79
7F
7C
77
6A
74
03
00
6C
72
0F
70
0C
0D
76
70
18
2A
72
07
03
12
70
7A
5D
75
09
07
01
6F
08
7F
08
75
6C
0A
78
08
76
08
0A
65
75
66
6C
76
7B
79
76
70
01
04
00
7A
06
04
0E
7D
05
7F
74
76
5D
03
7F
7F
02
7E
6D
7E
73
03
7A
70
7A
0F
7C
00
0C
01
75
02
73
07
0D
7D
03
08
73
7E
0A
7D
7A
00
00
75
7F
00
01
08
04
7F
7C
75
7D
71
03
7A
7E
7C
7C
75
00
74
04
00
0B
77
0B
6A
0E
04
00
00
75
7A
00
7E
7A
06
74
7E
7B
73
64
73
64
01
01
09
70
7A
7F
01
7C
07
7D
02
14
73
76
6A
19
75
05
01
02
0A
1B
00
00
00
7E
00
70
00
11
74
03
05
0D
78
00
00
7F
0B
72
7F
00
03
6F
73
06
7F
7E
7D
00
77
03
05
6B
7C
6D
00
10
18
10
7B
7A
6E
75
00
0B
69
7C
78
19
72
00
00
0A
00
76
62
00
00
7C
78
03
73
7A
05
7F
6D
03
07
7C
76
00
76
02
06
7A
73
01
6C
06
7C
77
11
0B
78
00
00
02
00
71
7E
00
04
0B
06
7B
73
75
74
04
79
72
0B
00
02
74
7B
04
7D
78
7D
67
00
00
7E
69
00
00
05
73
0E
7A
05
75
04
03
6D
6E
77
79
6A
7A
01
7D
7C
75
04
7B
0B
79
19
79
78
7D
7D
02
10
00
07
00
7E
00
73
06
68
76
77
00
6D
73
7B
06
7F
6F
00
75
7F
77
00
7F
7F
0C
02
06
02
05
0B
78
08
00
00
77
00
74
06
77
06
6E
74
0A
00
02
03
06
79
01
7A
7F
7F
70
77
77
7E
0A
77
06
78
00
7B
7B
6C
01
78
02
7D
7B
77
02
1A
77
7E
00
02
7E
05
04
07
00
00
08
7D
7B
74
7A
13
01
06
00
7C
79
05
7C
73
11
0B
02
7E
06
73
7F
11
00
7A
75
04
08
78
00
08
04
7F
00
7B
7D
04
00
02
7E
74
76
7D
7F
0A
0E
73
78
00
00
03
00
01
05
00
7A
00
04
6F
7A
00
6F
7F
7B
00
01
78
75
00
06
01
7A
00
79
10
00
74
0F
07
02
79
75
09
7C
7A
7E
75
00
6B
79
0F
06
07
00
02
01
13
03
05
7D
11
03
7E
77
7A
7B
04
73
7B
7E
09
7E
25
73
78
74
09
0B
7A
7F
70
7E
09
78
7F
00
01
76
00
7C
6B
0A
73
00
7D
0D
05
07
7D
05
00
73
6F
74
0E
7A
7D
00
06
0A
71
02
02
78
7D
03
6F
01
01
0A
7A
0C
07
06
0A
01
04
02
76
7C
0E
00
08
01
12
65
00
7C
04
00
00
78
00
0C
05
0A
08
7E
7F
1D
68
75
05
10
7C
7A
7F
7B
06
05
73
79
7A
03
00
0E
72
77
08
7F
0B
00
7A
7B
00
02
78
07
04
03
00
7F
7B
7D
00
7C
0A
0E
7B
02
07
01
10
01
05
02
0C
00
03
00
03
7E
00
0A
7C
0A
75
11
7F
00
00
05
08
00
7C
05
6F
74
6B
79
7F
71
09
7A
7B
7F
02
74
0F
00
7A
7E
09
03
77
09
06
77
18
73
7B
77
01
10
07
00
08
00
00
7C
00
68
00
00
02
79
0A
07
7C
00
00
7E
08
7C
01
00
00
0A
78
06
0D
00
7B
7B
78
06
7B
79
09
03
00
00
07
00
13
7E
7C
77
00
07
0F
06
79
73
00
05
00
76
7C
7D
78
00
00
7A
01
7C
14
7B
01
7B
7F
07
75
71
79
00
03
7F
02
07
76
10
79
04
0A
01
07
78
7F
02
01
01
00
72
00
00
7D
7E
01
1C
0A
7B
01
7B
7C
08
7A
00
7A
04
79
0C
03
01
01
02
00
00
03
7D
00
00
04
0F
0D
7C
00
6F
7B
7D
7D
64
7F
7A
0F
7F
77
7E
7F
02
7F
09
07
7B
7B
7D
00
14
73
74
7C
00
05
00
03
00
00
7E
01
77
13
00
6F
05
0A
7D
7D
0A
00
05
00
0F
04
04
7C
07
7B
7A
06
08
70
77
76
7B
72
05
00
00
6E
7C
79
7D
0C
07
0A
7A
7F
74
62
05
07
03
7C
78
11
06
7B
1C
0F
03
06
00
09
79
0C
01
74
00
0B
04
1D
6E
00
7C
7B
00
7A
13
02
74
07
00
75
02
7A
05
04
79
6B
78
7C
00
78
7C
00
10
08
75
77
7D
7F
75
7B
00
7D
01
73
07
78
6E
00
75
7B
72
7D
00
03
7E
7C
00
72
03
04
7B
01
6B
79
7A
07
7F
00
7B
00
7B
7C
03
70
03
00
04
00
7C
00
04
01
7E
01
7F
69
78
00
73
72
06
00
03
74
04
7C
00
05
7D
7E
76
06
79
72
00
08
7C
7C
03
03
7B
07
00
7B
7A
68
71
7C
64
6B
77
01
03
75
06
78
79
00
07
73
7A
7F
07
7F
02
78
04
04
04
78
75
7C
06
01
7E
71
09
77
7A
03
7F
7A
03
7B
6F
09
6A
05
7C
7A
12
7C
7E
02
04
73
00
73
10
7C
7B
06
77
79
08
71
7A
74
0A
03
5C
79
04
7B
00
00
74
03
7B
76
7F
08
02
06
0E
79
0A
7E
00
03
02
04
77
7F
79
00
02
7C
74
07
76
03
79
06
75
02
7C
79
11
00
07
0B
00
00
75
0A
01
7C
00
6A
09
77
75
7B
02
07
05
7A
7E
00
00
09
01
00
75
7E
02
79
7D
1C
7A
03
05
01
7D
78
04
78
00
7E
02
00
7F
06
7A
7E
79
03
00
00
7B
73
00
02
0A
0B
71
72
79
07
7C
0D
7F
7D
00
03
09
79
7B
02
07
7D
01
7D
02
00
04
74
74
01
76
7E
73
7E
6C
7E
00
00
7F
00
09
00
63
7C
7F
79
04
0A
00
00
00
7C
5F
06
00
75
7E
7D
7B
05
0E
04
05
05
06
7D
05
74
78
00
7C
64
6B
0F
05
7B
00
00
7C
7C
11
79
75
09
7A
00
7C
73
05
01
00
00
0A
03
70
70
7E
7D
7B
04
7E
04
05
10
00
7F
02
7D
72
7F
7D
03
00
7C
02
7C
7B
7F
7F
00
77
00
00
02
00
7F
7E
01
79
73
7D
0B
7F
0F
09
0A
00
06
00
04
75
7C
7F
70
01
00
00
6E
08
00
00
68
76
7E
06
1C
0A
78
7E
00
74
05
01
78
03
7A
75
7D
00
68
74
7D
03
74
7B
05
71
05
02
79
00
06
00
7D
00
01
7E
77
7D
03
00
09
7E
03
7A
09
04
00
0A
7A
12
7A
7E
0E
7C
03
04
73
78
79
03
77
0C
00
7B
00
7D
7E
75
7E
07
0B
07
08
01
00
76
08
03
7E
6E
7E
12
05
02
06
7D
7C
08
01
00
02
01
78
79
01
06
7C
06
77
02
72
05
07
00
08
00
00
05
7D
00
08
02
7D
02
03
7F
04
0B
07
00
0B
0F
0B
02
06
75
03
06
7D
00
7B
05
06
7F
07
77
06
0A
0C
7F
7B
7D
01
6F
03
7E
7F
00
09
03
7E
02
03
7C
7A
7E
79
04
00
02
10
09
02
7A
1C
0F
00
03
03
06
00
0E
0A
05
04
13
7B
77
00
09
09
0E
00
04
0B
03
07
02
01
0B
15
06
77
74
06
7E
7C
03
03
08
05
00
7C
00
73
79
06
03
7B
07
0D
0D
05
75
07
08
00
15
01
7B
06
02
74
7D
7A
08
02
05
07
0A
11
04
07
07
7E
05
7D
07
07
04
78
07
7D
09
0C
04
6A
07
03
7F
04
7E
03
0B
05
6C
07
00
06
7F
06
7E
7C
0B
06
79
17
03
01
05
0B
7F
10
78
7E
7C
7D
02
07
7B
7E
7E
7F
0A
73
04
7D
18
05
00
09
0E
7D
04
7B
7F
7E
00
09
7A
11
7D
7F
0A
7A
05
03
7B
05
74
05
75
7D
7E
00
7C
7F
01
00
08
07
08
04
0E
00
04
02
10
04
79
00
00
76
02
00
7D
04
7A
04
74
08
07
6C
75
02
77
07
7F
0E
00
03
07
00
7D
04
04
01
02
7E
00
00
02
01
00
01
03
04
7C
77
14
77
06
09
6C
05
13
7C
7E
06
7F
08
00
07
06
0C
01
07
0E
0C
08
08
01
03
7F
79
7A
7E
00
00
7C
00
75
00
03
7C
0B
00
7C
04
00
00
7C
08
08
02
00
0D
02
74
7B
77
7D
7F
04
05
00
0D
7F
7D
16
00
7E
75
11
74
09
7D
7D
00
7F
03
63
08
0F
00
02
00
7D
06
03
07
00
00
08
05
01
09
7C
7B
04
79
7E
7D
00
01
00
73
77
7B
08
7B
72
7B
04
7E
7A
04
02
7E
7F
01
01
00
69
7D
00
06
07
7C
04
01
07
0D
08
00
7B
05
00
7E
0C
0A
7E
7C
7D
72
78
00
00
74
7B
00
00
7D
7B
03
7D
04
04
7C
04
01
77
7B
12
72
7A
07
18
03
79
05
77
7B
78
07
7C
7D
01
76
76
03
00
09
00
00
00
01
01
07
0F
0A
00
6E
11
00
0A
07
7B
00
17
6D
04
7B
01
73
7A
03
08
7D
05
7F
74
78
06
05
0A
00
05
77
0A
00
03
0D
78
78
7C
7F
00
71
77
7F
08
03
74
7E
0B
07
72
04
06
07
00
05
02
0D
7A
0D
7F
7F
02
05
05
03
00
7D
00
0B
74
77
04
75
00
02
00
70
7F
03
7B
71
00
7C
00
7B
03
06
04
7D
02
7F
02
01
03
7B
7C
7C
77
01
71
04
7C
03
05
03
7F
01
7E
04
05
78
00
7E
02
7F
00
7C
73
09
06
6A
0C
00
09
04
02
03
06
72
04
00
06
6D
7E
00
03
06
00
74
0F
6C
75
00
0A
76
6E
00
7F
05
01
74
01
68
06
7E
16
03
21
01
7E
77
7E
7F
7D
7B
03
7C
00
05
7E
7E
7B
08
71
09
09
07
14
76
75
7A
7B
73
03
7C
7A
02
03
7B
06
08
03
6E
06
0A
71
0A
00
73
7B
08
06
03
78
0E
00
7D
7E
7E
0A
05
66
08
06
78
7A
7E
08
0A
76
7E
03
08
7C
6F
7F
78
74
78
7D
6A
7D
04
06
03
6F
04
7A
08
7A
05
7B
78
73
7A
78
78
01
0B
72
78
0F
75
00
77
7D
03
02
7D
05
00
7F
76
1C
78
7C
06
04
77
6A
00
7D
7D
02
74
7A
07
05
00
7D
7F
79
08
7C
05
02
7F
01
00
7B
00
76
03
06
00
7F
74
04
00
7B
07
00
76
04
7C
03
75
05
04
7C
7B
04
04
00
06
0F
00
06
7E
0B
70
02
0C
00
00
7D
75
00
77
03
7E
05
72
6F
03
71
10
5D
77
0D
7A
75
00
02
03
7C
00
7E
13
00
07
78
6F
0C
01
79
02
05
7C
04
04
00
00
7F
00
7C
00
7A
78
7C
03
08
75
00
00
06
0A
66
7B
00
08
04
6B
78
11
03
79
04
7B
7D
06
7C
7B
04
00
05
77
78
73
0E
01
7E
00
05
08
03
77
00
05
7D
00
7E
7A
75
6E
00
00
6F
7E
79
77
75
01
73
7E
7E
01
6E
6E
00
09
7C
03
03
7F
0D
78
01
73
7C
00
7D
7E
7E
7C
02
00
18
7E
00
07
0B
07
03
7D
7F
02
03
7C
70
03
00
04
09
7E
03
02
7D
05
7B
00
00
7D
78
00
00
0B
01
08
78
75
7D
04
05
7C
1D
78
05
7E
7E
03
78
7F
00
7A
02
01
08
7B
06
7B
07
09
7D
05
00
75
00
0B
00
04
05
7C
01
60
00
07
06
74
08
75
06
00
71
04
16
7B
01
05
09
7B
07
08
77
05
1A
79
0A
09
77
00
22
0B
69
0C
00
06
7B
0F
79
0A
7C
06
05
00
14
7E
10
6A
09
08
14
06
7C
03
00
06
03
7A
0A
6C
03
7A
01
0E
6F
78
01
79
00
76
11
06
76
7F
00
00
07
78
7A
05
04
03
02
7C
00
7D
02
02
74
7F
0A
7E
04
7A
78
00
0A
73
10
7F
00
7F
7B
64
01
7A
09
7B
09
7F
7E
01
00
7F
77
7E
7A
05
1B
03
79
7D
7F
00
07
06
02
7D
0B
04
09
00
79
1A
7F
00
01
7F
7C
08
75
7B
0D
00
07
7F
7E
00
04
0C
0E
13
78
19
7F
08
79
01
03
7D
7D
7F
7E
05
01
7F
7E
7F
00
1C
07
78
06
7B
7A
0E
00
7D
0C
7D
0E
7E
0F
7D
03
01
7D
00
7E
00
7D
75
78
05
02
05
0C
74
7E
7F
03
7F
7F
04
03
7A
03
02
0C
04
78
04
02
0F
77
04
0A
1F
79
7D
15
09
01
0A
19
14
05
03
05
7C
7D
1C
08
09
7F
7B
7B
72
76
00
06
03
7B
01
7B
75
04
0C
06
7E
0E
7E
7B
79
00
05
75
76
7A
05
05
00
06
1A
6E
01
10
10
7B
7E
19
71
16
0B
0A
01
03
7A
08
00
06
0C
7E
7E
01
07
77
7A
7D
75
0F
7B
76
7C
7C
00
04
13
0E
00
10
74
0E
01
7C
0D
7E
20
07
0C
1E
0F
76
04
00
07
6F
00
7B
7C
0C
7F
04
7F
00
00
7F
10
00
0A
04
79
15
25
7A
7B
17
68
05
00
0E
7B
00
75
79
7B
09
7E
04
7E
7B
76
75
0B
7E
02
02
0B
77
11
00
0D
00
00
07
00
00
00
76
7C
05
7C
77
7F
00
00
0A
6B
1C
04
00
08
74
16
06
7A
11
01
05
02
08
78
0A
00
01
00
02
18
02
17
04
0A
03
00
09
6D
7E
16
7C
05
7E
00
04
78
7B
26
00
00
7B
03
77
70
08
08
0E
04
7E
08
76
13
00
7D
0B
7C
7F
72
72
14
76
0F
05
7B
7F
00
7E
7D
04
00
78
07
00
00
78
03
74
70
7F
00
7C
0A
0A
00
00
00
00
00
06
03
06
7A
7E
00
00
76
7E
00
00
73
72
03
7F
03
0F
7A
0A
05
7D
05
06
08
06
7F
07
7F
00
10
00
04
01
09
07
05
04
75
73
7A
00
03
00
01
00
04
04
01
00
78
00
04
02
73
01
07
79
00
7E
10
6B
7A
04
79
70
7F
7F
07
79
7D
00
09
71
7E
09
00
04
00
0A
07
7A
75
06
7B
03
05
78
09
06
04
04
00
0E
6D
7F
75
04
00
5D
75
00
78
07
74
7D
7B
7E
09
7F
6D
7D
03
08
05
00
00
71
08
79
7C
00
75
06
78
02
7F
0B
17
7F
07
00
7B
7D
7F
5C
75
65
6D
78
01
6E
0E
75
0D
07
75
03
7C
7F
69
77
02
77
7A
77
04
06
01
00
76
7D
03
74
05
01
74
02
06
75
00
7E
05
7E
03
09
09
62
00
76
7D
77
00
7A
79
7C
7F
68
1E
0D
00
6E
7D
7C
00
06
7E
03
79
0D
01
7E
6A
77
02
7C
7B
09
01
73
04
7D
02
78
00
00
0A
05
03
0A
79
7D
06
77
7D
75
79
7B
79
00
06
7B
72
05
0D
07
7E
02
08
06
19
09
00
00
08
04
7B
7D
74
05
7D
7E
7C
09
03
79
77
07
70
7F
6A
7B
04
0F
0C
77
70
7D
03
07
04
71
03
13
04
76
7F
02
00
79
7E
6C
7B
0E
76
6F
7A
06
7C
74
0C
7D
0B
7F
04
73
75
01
7B
72
7D
00
7A
7D
02
00
00
06
7A
0F
7D
04
76
06
0C
00
04
7C
74
08
00
06
0D
0B
72
03
00
7A
79
7F
08
71
02
6F
05
7C
7D
12
0A
67
7A
79
00
05
0E
04
00
05
7C
08
7B
6E
7E
00
03
73
05
07
16
00
00
00
7E
7D
00
00
78
7D
10
74
7B
00
00
7F
7B
00
06
06
79
01
0B
7F
06
0D
13
1E
03
7D
77
12
0E
07
7E
7F
7F
79
00
01
06
06
7E
75
01
78
04
05
04
6D
08
00
00
08
00
04
00
7D
0B
05
06
7D
0C
00
00
7F
00
07
09
00
6F
04
10
7D
7A
73
03
02
02
07
76
76
02
77
00
03
6B
7A
09
7B
07
7A
00
06
10
67
77
79
04
7B
00
79
75
05
12
00
00
01
01
07
12
05
08
78
03
09
09
05
7C
00
67
07
04
70
0A
66
0F
77
0C
01
78
77
7F
7E
02
01
00
06
02
00
7F
76
00
7F
02
02
08
7E
00
7E
7E
00
76
7D
07
07
78
7C
02
7B
00
00
09
0E
00
00
0B
04
7F
09
03
09
05
79
7C
05
0A
01
05
0C
09
00
7E
05
13
6F
7E
07
68
79
08

